{
  "version": "1.0",
  "truncation": null,
  "padding": null,
  "added_tokens": [
    {
      "id": 0,
      "content": "<bos>",
      "single_word": false,
      "lstrip": false,
      "rstrip": false,
      "normalized": false,
      "special": true
    },
    {
      "id": 1,
      "content": "<eos>",
      "single_word": false,
      "lstrip": false,
      "rstrip": false,
      "normalized": false,
      "special": true
    },
    {
      "id": 2,
      "content": "<pad>",
      "single_word": false,
      "lstrip": false,
      "rstrip": false,
      "normalized": false,
      "special": true
    },
    {
      "id": 3,
      "content": "<unk>",
      "single_word": false,
      "lstrip": false,
      "rstrip": false,
      "normalized": false,
      "special": true
    }
  ],
  "normalizer": null,
  "pre_tokenizer": {
    "type": "ByteLevel",
    "add_prefix_space": false,
    "trim_offsets": true,
    "use_regex": true
  },
  "post_processor": {
    "type": "TemplateProcessing",
    "single": [
      {
        "SpecialToken": {
          "id": "<bos>",
          "type_id": 0
        }
      },
      {
        "Sequence": {
          "id": "A",
          "type_id": 0
        }
      },
      {
        "SpecialToken": {
          "id": "<eos>",
          "type_id": 0
        }
      }
    ],
    "pair": [
      {
        "Sequence": {
          "id": "A",
          "type_id": 0
        }
      },
      {
        "Sequence": {
          "id": "B",
          "type_id": 1
        }
      }
    ],
    "special_tokens": {
      "<bos>": {
        "id": "<bos>",
        "ids": [
          0
        ],
        "tokens": [
          "<bos>"
        ]
      },
      "<eos>": {
        "id": "<eos>",
        "ids": [
          1
        ],
        "tokens": [
          "<eos>"
        ]
      }
    }
  },
  "decoder": {
    "type": "ByteLevel",
    "add_prefix_space": true,
    "trim_offsets": true,
    "use_regex": true
  },
  "model": {
    "type": "BPE",
    "dropout": null,
    "unk_token": "<unk>",
    "continuing_subword_prefix": null,
    "end_of_word_suffix": null,
    "fuse_unk": false,
    "byte_fallback": false,
    "ignore_merges": false,
    "vocab": {
      "<bos>": 0,
      "<eos>": 1,
      "<pad>": 2,
      "<unk>": 3,
      "0": 4,
      "1": 5,
      "2": 6,
      "5": 7,
      "6": 8,
      "9": 9,
      ":": 10,
      "E": 11,
      "G": 12,
      "L": 13,
      "M": 14,
      "N": 15,
      "P": 16,
      "R": 17,
      "S": 18,
      "T": 19,
      "a": 20,
      "e": 21,
      "f": 22,
      "h": 23,
      "m": 24,
      "n": 25,
      "o": 26,
      "r": 27,
      "s": 28,
      "t": 29,
      "y": 30,
      "¡": 31,
      "¢": 32,
      "£": 33,
      "¤": 34,
      "¥": 35,
      "¦": 36,
      "§": 37,
      "¨": 38,
      "©": 39,
      "ª": 40,
      "«": 41,
      "¬": 42,
      "®": 43,
      "¯": 44,
      "°": 45,
      "±": 46,
      "²": 47,
      "³": 48,
      "´": 49,
      "µ": 50,
      "¶": 51,
      "·": 52,
      "¸": 53,
      "¹": 54,
      "º": 55,
      "»": 56,
      "¼": 57,
      "½": 58,
      "¾": 59,
      "¿": 60,
      "ã": 61,
      "ä": 62,
      "å": 63,
      "æ": 64,
      "ç": 65,
      "è": 66,
      "é": 67,
      "ï": 68,
      "Ċ": 69,
      "Ġ": 70,
      "Ģ": 71,
      "ģ": 72,
      "Ĥ": 73,
      "ĥ": 74,
      "Ħ": 75,
      "ħ": 76,
      "Ĩ": 77,
      "ĩ": 78,
      "Ī": 79,
      "ī": 80,
      "Ĭ": 81,
      "ĭ": 82,
      "Į": 83,
      "į": 84,
      "İ": 85,
      "ı": 86,
      "Ĳ": 87,
      "ĳ": 88,
      "Ĵ": 89,
      "ĵ": 90,
      "Ķ": 91,
      "ķ": 92,
      "ĸ": 93,
      "Ĺ": 94,
      "ĺ": 95,
      "Ļ": 96,
      "ļ": 97,
      "Ľ": 98,
      "ľ": 99,
      "Ŀ": 100,
      "ŀ": 101,
      "Ł": 102,
      "ł": 103,
      "Ń": 104,
      "ï¼": 105,
      "æĺ": 106,
      "ä¸": 107,
      "¨æ": 108,
      "åĬ": 109,
      "ãĢ": 110,
      "çĶ": 111,
      "©æ": 112,
      "æĺ¯": 113,
      "ä»": 114,
      "ä½": 115,
      "ï¼Į": 116,
      "Ī·": 117,
      "īĭ": 118,
      "¨æĪ·": 119,
      "åĬ©æ": 120,
      "ãĢĤ": 121,
      "çĶ¨æĪ·": 122,
      "åĬ©æīĭ": 123,
      "ä¹": 124,
      "ï¼Ł": 125,
      "åħ": 126,
      "įç": 127,
      "ĭè": 128,
      "½®": 129,
      "æĹ": 130,
      "æľ": 131,
      "Ģä¹": 132,
      "ä»Ģä¹": 133,
      "ä½įç": 134,
      "ä»Ģä¹Ī": 135,
      "ä½įç½®": 136,
      "åĪ": 137,
      "½¬": 138,
      "ĭè½¬": 139,
      "æĹĭè½¬": 140,
      "å¤": 141,
      "ç¼": 142,
      "æķ": 143,
      "Ġæĺ¯": 144,
      "è®": 145,
      "ä¸Ģ": 146,
      "çļ": 147,
      "çļĦ": 148,
      "¿ĩ": 149,
      "è¿ĩ": 150,
      "éĢ": 151,
      "ļè¿ĩ": 152,
      "ç¼ĸ": 153,
      "éĢļè¿ĩ": 154,
      "PE": 155,
      "Ro": 156,
      "ä¿": 157,
      "RoPE": 158,
      "æ³": 159,
      "éĩ": 160,
      "è¯": 161,
      "ä¸ĭ": 162,
      "æĿ": 163,
      "ç¼ĸç": 164,
      "łģ": 165,
      "çĽ": 166,
      "çĽ¸": 167,
      "ä»¥": 168,
      "æķ°": 169,
      "åħ¥": 170,
      "äº": 171,
      "è§": 172,
      "°´": 173,
      "æ°´": 174,
      "å¯": 175,
      "¡æ": 176,
      "ģ¯": 177,
      "ä¿¡æ": 178,
      "ä¿¡æģ¯": 179,
      "åŀ": 180,
      "ä½įç½®ç¼ĸç": 181,
      "æĹĭè½¬ä½įç½®ç¼ĸç": 182,
      "åŀĭ": 183,
      "æĹĭè½¬ä½įç½®ç¼ĸçłģ": 184,
      "Ġ5": 185,
      "æĺŁ": 186,
      "or": 187,
      "orm": 188,
      "åĩ": 189,
      "ä»Ģä¹Īæĺ¯": 190,
      "æľº": 191,
      "¨åħ¥": 192,
      "¹ä½įç½®": 193,
      "įæķ°": 194,
      "æĹĭè½¬æ³": 195,
      "å¤įæķ°": 196,
      "Ġæĺ¯æĹĭè½¬ä½įç½®ç¼ĸçłģ": 197,
      "éĢļè¿ĩå¤įæķ°": 198,
      "çĽ¸å¯": 199,
      "¨åħ¥çĽ¸å¯": 200,
      "¹ä½įç½®ä¿¡æģ¯": 201,
      "æĹĭè½¬æ³¨åħ¥çĽ¸å¯": 202,
      "éĢļè¿ĩå¤įæķ°æĹĭè½¬æ³¨åħ¥çĽ¸å¯": 203,
      "éĢļè¿ĩå¤įæķ°æĹĭè½¬æ³¨åħ¥çĽ¸å¯¹ä½įç½®ä¿¡æģ¯": 204,
      "¡åŀĭ": 205,
      "¨¡åŀĭ": 206,
      "åı": 207,
      "åĴ": 208,
      "äºİ": 209,
      "åĴĮ": 210,
      "çŃ": 211,
      "æľī": 212,
      "çŃī": 213,
      "å°": 214,
      "Norm": 215,
      "çŁ": 216,
      "ä½ł": 217,
      "çº": 218,
      "¦ı": 219,
      "¸é": 220,
      "Ĵ¸é": 221,
      "Ĵ¸é¦ı": 222,
      "éĹ": 223,
      "åŃ": 224,
      "åĪ¶": 225,
      "åŃ¦": 226,
      "ç§": 227,
      "åħ³": 228,
      "æ³¨æ": 229,
      "åĮ": 230,
      "æ¨¡åŀĭ": 231,
      "ç®": 232,
      "ĥéĩ": 233,
      "æĿĥéĩ": 234,
      "æĿĥéĩį": 235,
      "25": 236,
      "¤ä»¥": 237,
      "éĻ": 238,
      "ĠçŃī": 239,
      "ĠéĻ": 240,
      "ãĢģ": 241,
      "ä¸Ģä¸ĭ": 242,
      "æľīä»Ģä¹Ī": 243,
      "ĠçŃīäºİ": 244,
      "ĠéĻ¤ä»¥": 245,
      "er": 246,
      "å°ĳ": 247,
      "¾ĵ": 248,
      "è¾ĵ": 249,
      "¥é": 250,
      "ģĵ": 251,
      "çŁ¥é": 252,
      "ä½łçŁ¥é": 253,
      "ä½łçŁ¥éģĵ": 254,
      "è®²": 255,
      "èĴ¸é¦ı": 256,
      "£éĩ": 257,
      "£éĩĬ": 258,
      "æĪ": 259,
      "æĪĳ": 260,
      "ä¸ī": 261,
      "¯æ°´": 262,
      "è´": 263,
      "èĢ": 264,
      "ģæĺ": 265,
      "è§£éĩĬ": 266,
      "çº¯æ°´": 267,
      "èĢĮ": 268,
      "å¾": 269,
      "åĨ": 270,
      "æĢ": 271,
      "æĬ": 272,
      "çļĦé": 273,
      "¨åŃ¦": 274,
      "ä¹ł": 275,
      "è§Ħ": 276,
      "¨åŃ¦ä¹ł": 277,
      "¡ç®": 278,
      "«ĺ": 279,
      "·éĹ": 280,
      "æ´": 281,
      "æĸ": 282,
      "éĺ": 283,
      "Ģæ´": 284,
      "ľĢ": 285,
      "è®¡ç®": 286,
      "è¯·éĹ": 287,
      "æĸ¹": 288,
      "è®¡ç®Ĺ": 289,
      "è¯·éĹ®": 290,
      "ºåĪ": 291,
      "¾ä¸": 292,
      "ĠçļĦ": 293,
      "Ħı": 294,
      "Ľæľº": 295,
      "åĬĽæľº": 296,
      "åĪĨ": 297,
      "çĽ¸åħ³": 298,
      "åıª": 299,
      "æ³¨æĦı": 300,
      "åĮºåĪ": 301,
      "æľīä»Ģä¹ĪåĮºåĪ": 302,
      "åĬĽæľºåĪ¶": 303,
      "æ³¨æĦıåĬĽæľºåĪ¶": 304,
      "æľīä»Ģä¹ĪåĮºåĪ«": 305,
      "æ¯": 306,
      "æĺ¯ä»Ģä¹Ī": 307,
      "ä¿Ŀ": 308,
      "15": 309,
      "20": 310,
      "¡Į": 311,
      "èĩ": 312,
      "è¡Į": 313,
      "Ġ6": 314,
      "Ġä¹": 315,
      "ĺä»¥": 316,
      "ļå°ĳ": 317,
      "å¤ļå°ĳ": 318,
      "è¡ĮæĺŁ": 319,
      "Ġä¹ĺä»¥": 320,
      "La": 321,
      "MS": 322,
      "RMS": 323,
      "yer": 324,
      "åĿ": 325,
      "ĠLa": 326,
      "RMSNorm": 327,
      "yerNorm": 328,
      "åĿĩ": 329,
      "ĠLayerNorm": 330,
      "åĩı": 331,
      "è®²ä¸Ģä¸ĭ": 332,
      "±Ĥ": 333,
      "å±Ĥ": 334,
      "åħ±": 335,
      "åĩº": 336,
      "è¾ĵåĩº": 337,
      "ä¸Ģä¸": 338,
      "èĴ¸é¦ıæ°´": 339,
      "®æĪĳ": 340,
      "¸®æĪĳ": 341,
      "å¸®æĪĳ": 342,
      "è§£éĩĬä¸ĭ": 343,
      "å¸®æĪĳè§£éĩĬä¸ĭ": 344,
      "½è¯": 345,
      "èĥ": 346,
      "½è¯´": 347,
      "èĥ½è¯´": 348,
      "Py": 349,
      "ho": 350,
      "tho": 351,
      "§ç¼ĸç": 352,
      "¨Ģ": 353,
      "¨ĭè": 354,
      "¬¬": 355,
      "®Ģæ´": 356,
      "¯Ń": 357,
      "°å¯": 358,
      "ºĵ": 359,
      "»å": 360,
      "»çļĦé": 361,
      "åºĵ": 362,
      "ç¬¬": 363,
      "è¨Ģ": 364,
      "ĠPy": 365,
      "ģèĢĮ": 366,
      "ĮçļĦ": 367,
      "Ĳį": 368,
      "ĵè¯": 369,
      "ŁæĢ": 370,
      "ä¸°å¯": 371,
      "çĶŁæĢ": 372,
      "įç®Ģæ´": 373,
      "ä¸Ģç§": 374,
      "ä»¥ä¸°å¯": 375,
      "çº§ç¼ĸç": 376,
      "éĹ»å": 377,
      "ä¸īæĸ¹": 378,
      "ģæĺĵè¯": 379,
      "«ĺçº§ç¼ĸç": 380,
      "thon": 381,
      "¨ĭè¯Ń": 382,
      "»çļĦé«ĺçº§ç¼ĸç": 383,
      "åºĵçĶŁæĢ": 384,
      "ç¬¬ä¸īæĸ¹": 385,
      "ĠPython": 386,
      "ģèĢĮéĹ»å": 387,
      "ĮçļĦç¬¬ä¸īæĸ¹": 388,
      "įç®Ģæ´ģæĺĵè¯": 389,
      "ä¸Ģç§įç®Ģæ´ģæĺĵè¯": 390,
      "ä»¥ä¸°å¯ĮçļĦç¬¬ä¸īæĸ¹": 391,
      "¨ĭè¯Ńè¨Ģ": 392,
      "»çļĦé«ĺçº§ç¼ĸç¨ĭè¯Ńè¨Ģ": 393,
      "åºĵçĶŁæĢģèĢĮéĹ»å": 394,
      "ä¸Ģç§įç®Ģæ´ģæĺĵè¯»çļĦé«ĺçº§ç¼ĸç¨ĭè¯Ńè¨Ģ": 395,
      "ä»¥ä¸°å¯ĮçļĦç¬¬ä¸īæĸ¹åºĵçĶŁæĢģèĢĮéĹ»å": 396,
      "ä»¥ä¸°å¯ĮçļĦç¬¬ä¸īæĸ¹åºĵçĶŁæĢģèĢĮéĹ»åĲį": 397,
      "¡®": 398,
      "¥ä½įç½®": 399,
      "©·": 400,
      "©ç": 401,
      "©éĺ": 402,
      "ªæĿ": 403,
      "°å": 404,
      "²ä¿¡æģ¯": 405,
      "·åĩ": 406,
      "ºè´": 407,
      "åĽ": 408,
      "æİ": 409,
      "æŀ": 410,
      "çľ": 411,
      "ç¡®": 412,
      "ç©·": 413,
      "ĠRoPE": 414,
      "ģä½": 415,
      "Ĥè´": 416,
      "Ĩåı": 417,
      "Ĭæľ": 418,
      "ĭåĪ": 419,
      "İĨåı": 420,
      "ĴçŁ": 421,
      "ľæİ": 422,
      "ĿåĪ¶": 423,
      "ŀģä½": 424,
      "ŁæĹ": 425,
      "łæŀ": 426,
      "łç©·": 427,
      "¨æŀģä½": 428,
      "è®¾ä¸": 429,
      "éĢļè¿ĩèĴ¸é¦ı": 430,
      "ä¸ĭä¸ī": 431,
      "æĿĤè´": 432,
      "è§ĴçŁ": 433,
      "ä»Ģä¹Īæĺ¯åĽ": 434,
      "åĴĮçº¯æ°´": 435,
      "æ¨¡åŀĭåıª": 436,
      "æĿĥéĩįè®¾ä¸": 437,
      "çº¯æ°´æĿĤè´": 438,
      "å¾Ĺ": 439,
      "åĨ·åĩ": 440,
      "æĬĬæľ": 441,
      "ä¿Ŀæ¨¡åŀĭåıª": 442,
      "èĴ¸é¦ıæ°´éĢļè¿ĩèĴ¸é¦ı": 443,
      "¥ä½įç½®æĿĥéĩįè®¾ä¸": 444,
      "©çłģ": 445,
      "©éĺµ": 446,
      "ªæĿ¥ä½įç½®æĿĥéĩįè®¾ä¸": 447,
      "°åİĨåı": 448,
      "ºè´ŁæĹ": 449,
      "çľĭåĪ": 450,
      "ç¡®ä¿Ŀæ¨¡åŀĭåıª": 451,
      "ľæİ©çłģ": 452,
      "ĿåĪ¶å¾Ĺ": 453,
      "łæŀľæİ©çłģ": 454,
      "¨æŀģä½İ": 455,
      "ä¸ĭä¸īè§ĴçŁ": 456,
      "ä»Ģä¹Īæĺ¯åĽłæŀľæİ©çłģ": 457,
      "åĴĮçº¯æ°´æľīä»Ģä¹ĪåĮºåĪ«": 458,
      "çº¯æ°´æĿĤè´¨æŀģä½İ": 459,
      "åĨ·åĩĿåĪ¶å¾Ĺ": 460,
      "æĬĬæľªæĿ¥ä½įç½®æĿĥéĩįè®¾ä¸": 461,
      "èĴ¸é¦ıæ°´éĢļè¿ĩèĴ¸é¦ıåĨ·åĩĿåĪ¶å¾Ĺ": 462,
      "°åİĨåı²ä¿¡æģ¯": 463,
      "ºè´ŁæĹłç©·": 464,
      "çľĭåĪ°åİĨåı²ä¿¡æģ¯": 465,
      "ç¡®ä¿Ŀæ¨¡åŀĭåıªçľĭåĪ°åİĨåı²ä¿¡æģ¯": 466,
      "ä¸ĭä¸īè§ĴçŁ©éĺµ": 467,
      "æĬĬæľªæĿ¥ä½įç½®æĿĥéĩįè®¾ä¸ºè´ŁæĹłç©·": 468,
      "¡è§Ħ": 469,
      "¦ģæĺ": 470,
      "©è®¡ç®Ĺ": 471,
      "ªåĬ": 472,
      "®èĩ": 473,
      "¼ı": 474,
      "¾å": 475,
      "åĻ": 476,
      "æį": 477,
      "è¦ģæĺ": 478,
      "éľĢ": 479,
      "Ģæľ": 480,
      "įéľĢ": 481,
      "ıä¸Ģ": 482,
      "ĻçļĦ": 483,
      "Ļæ¯": 484,
      "ä¸įéľĢ": 485,
      "åĪĻçļĦ": 486,
      "è®©è®¡ç®Ĺ": 487,
      "ç¼ĸåĨ": 488,
      "éĢļè¿ĩæķ°": 489,
      "æĿ¡è§Ħ": 490,
      "ä»Ģä¹Īæĺ¯æľº": 491,
      "æľºéĢļè¿ĩæķ°": 492,
      "èĢĮä¸įéľĢ": 493,
      "å¾ĭ": 494,
      "æĬĢæľ": 495,
      "è§Ħå¾ĭ": 496,
      "¨åŃ¦ä¹łè§Ħå¾ĭ": 497,
      "ªåĬ¨åŃ¦ä¹łè§Ħå¾ĭ": 498,
      "®èĩªåĬ¨åŃ¦ä¹łè§Ħå¾ĭ": 499,
      "¼ıç¼ĸåĨ": 500,
      "¾å¼ıç¼ĸåĨ": 501,
      "åĻ¨åŃ¦ä¹ł": 502,
      "æį®èĩªåĬ¨åŃ¦ä¹łè§Ħå¾ĭ": 503,
      "è¦ģæĺ¾å¼ıç¼ĸåĨ": 504,
      "ıä¸ĢæĿ¡è§Ħ": 505,
      "Ļæ¯ıä¸ĢæĿ¡è§Ħ": 506,
      "åĪĻçļĦæĬĢæľ": 507,
      "è®©è®¡ç®ĹæľºéĢļè¿ĩæķ°": 508,
      "ä»Ģä¹Īæĺ¯æľºåĻ¨åŃ¦ä¹ł": 509,
      "èĢĮä¸įéľĢè¦ģæĺ¾å¼ıç¼ĸåĨ": 510,
      "Ļæ¯ıä¸ĢæĿ¡è§ĦåĪĻçļĦæĬĢæľ": 511,
      "è®©è®¡ç®ĹæľºéĢļè¿ĩæķ°æį®èĩªåĬ¨åŃ¦ä¹łè§Ħå¾ĭ": 512,
      "èĢĮä¸įéľĢè¦ģæĺ¾å¼ıç¼ĸåĨĻæ¯ıä¸ĢæĿ¡è§ĦåĪĻçļĦæĬĢæľ": 513,
      "èĢĮä¸įéľĢè¦ģæĺ¾å¼ıç¼ĸåĨĻæ¯ıä¸ĢæĿ¡è§ĦåĪĻçļĦæĬĢæľ¯": 514,
      "GP": 515,
      "Tr": 516,
      "an": 517,
      "form": 518,
      "sform": 519,
      "¢åĴĮ": 520,
      "¤º": 521,
      "¥è¯": 522,
      "§åĪĨ": 523,
      "¨ç§": 524,
      "¨åĪĨ": 525,
      "ªå": 526,
      "®çļĦ": 527,
      "°ģ": 528,
      "°æĺ¯ä»Ģä¹Ī": 529,
      "ºäºİ": 530,
      "¼Ķ": 531,
      "æŁ": 532,
      "æ¼Ķ": 533,
      "ç¤º": 534,
      "è°ģ": 535,
      "éħ": 536,
      "éĶ": 537,
      "Ġæķ": 538,
      "ĠGP": 539,
      "ĠTr": 540,
      "Ģģ": 541,
      "ĥ¨åĪĨ": 542,
      "įæĿĥéĩį": 543,
      "ıåŀĭ": 544,
      "ĻåŃ¦": 545,
      "Łºäºİ": 546,
      "¨æĢģ": 547,
      "åĬ¨æĢģ": 548,
      "©æ¨¡åŀĭ": 549,
      "æĺ¯ä¸Ģä¸": 550,
      "æĺ¯è°ģ": 551,
      "åħ¨ç§": 552,
      "è®©æ¨¡åŀĭ": 553,
      "éĢļè¿ĩè®¡ç®Ĺ": 554,
      "ä»Ģä¹Īæĺ¯æ³¨æĦıåĬĽæľºåĪ¶": 555,
      "å°ıåŀĭ": 556,
      "ä½łæĺ¯è°ģ": 557,
      "åħ³æ³¨æ": 558,
      "æĪĳæĺ¯ä¸Ģä¸": 559,
      "æĢ§åĪĨ": 560,
      "çļĦéĥ¨åĪĨ": 561,
      "ľĢçĽ¸åħ³": 562,
      "ĠçļĦåħ¨ç§": 563,
      "ĠçļĦå°ıåŀĭ": 564,
      "çĽ¸åħ³æĢ§åĪĨ": 565,
      "æ³¨æĦıåĬĽæľºåĪ¶éĢļè¿ĩè®¡ç®Ĺ": 566,
      "ansform": 567,
      "¢åĴĮéĶ": 568,
      "¥è¯¢åĴĮéĶ": 569,
      "ªåŁºäºİ": 570,
      "®çļĦçĽ¸åħ³æĢ§åĪĨ": 571,
      "æŁ¥è¯¢åĴĮéĶ": 572,
      "æ¼Ķç¤º": 573,
      "éħįæĿĥéĩį": 574,
      "ĠæķĻåŃ¦": 575,
      "ĠGPT": 576,
      "ĠTransform": 577,
      "åĬ¨æĢģåħ³æ³¨æ": 578,
      "è®©æ¨¡åŀĭåĬ¨æĢģåħ³æ³¨æ": 579,
      "æĪĳæĺ¯ä¸Ģä¸ªåŁºäºİ": 580,
      "ľĢçĽ¸åħ³çļĦéĥ¨åĪĨ": 581,
      "ĠçļĦåħ¨ç§°æĺ¯ä»Ģä¹Ī": 582,
      "æ³¨æĦıåĬĽæľºåĪ¶éĢļè¿ĩè®¡ç®ĹæŁ¥è¯¢åĴĮéĶ": 583,
      "®çļĦçĽ¸åħ³æĢ§åĪĨéħįæĿĥéĩį": 584,
      "æ¼Ķç¤ºæ¨¡åŀĭ": 585,
      "ĠæķĻåŃ¦æ¼Ķç¤ºæ¨¡åŀĭ": 586,
      "ĠTransformer": 587,
      "è®©æ¨¡åŀĭåĬ¨æĢģåħ³æ³¨æľĢçĽ¸åħ³çļĦéĥ¨åĪĨ": 588,
      "æ³¨æĦıåĬĽæľºåĪ¶éĢļè¿ĩè®¡ç®ĹæŁ¥è¯¢åĴĮéĶ®çļĦçĽ¸åħ³æĢ§åĪĨéħįæĿĥéĩį": 589,
      "00": 590,
      "125": 591,
      "100": 592,
      "90": 593,
      "§è¡ĮæĺŁ": 594,
      "ªäº": 595,
      "ªéĺ": 596,
      "«å¤": 597,
      "«æĺŁ": 598,
      "¬æ°´": 599,
      "°ç": 600,
      "³»": 601,
      "³ç": 602,
      "åĵ": 603,
      "åľ": 604,
      "æĭ": 605,
      "çģ": 606,
      "ĠåĬ": 607,
      "Ġ25": 608,
      "Ġ20": 609,
      "Ġ90": 610,
      "ħæĭ": 611,
      "Ĳĥ": 612,
      "ĳæĺŁ": 613,
      "Ľè¡ĮæĺŁ": 614,
      "åħ«å¤": 615,
      "å¤ªéĺ": 616,
      "Ġæĺ¯ä»Ģä¹Ī": 617,
      "Ġæĺ¯å¤ļå°ĳ": 618,
      "éĩĳæĺŁ": 619,
      "æĹĭè½¬ä½įç½®ç¼ĸçłģæĺ¯ä»Ģä¹Ī": 620,
      "æľīåĵ": 621,
      "åĮħæĭ": 622,
      "ĠçŃīäºİå¤ļå°ĳ": 623,
      "ªäºĽè¡ĮæĺŁ": 624,
      "«æĺŁçŃī": 625,
      "¬æ°´æĺŁ": 626,
      "°çĲĥ": 627,
      "³»æľīåĵ": 628,
      "³ç³»æľīåĵ": 629,
      "åľ°çĲĥ": 630,
      "çģ«æĺŁçŃī": 631,
      "ĠåĬł": 632,
      "åħ«å¤§è¡ĮæĺŁ": 633,
      "å¤ªéĺ³ç³»æľīåĵ": 634,
      "åĮħæĭ¬æ°´æĺŁ": 635,
      "å¤ªéĺ³ç³»æľīåĵªäºĽè¡ĮæĺŁ": 636,
      "´ç®": 637,
      "¹ç¼": 638,
      "åĢ": 639,
      "åģ": 640,
      "æĽ": 641,
      "æł": 642,
      "é«ĺ": 643,
      "ĠåĴĮ": 644,
      "Ġåıª": 645,
      "Ġæľīä»Ģä¹ĪåĮºåĪ«": 646,
      "ĠæĽ": 647,
      "ģé«ĺ": 648,
      "įåĩı": 649,
      "Ķ¾ä¸": 650,
      "ļåĿĩ": 651,
      "©æĶ¾ä¸": 652,
      "æķĪ": 653,
      "Ģæ´ģé«ĺ": 654,
      "æĸ¹æł": 655,
      "æ¯Ķ": 656,
      "åĿĩåĢ": 657,
      "èĥ½è¯´ä¸ĭ": 658,
      "´ç®Ģæ´ģé«ĺ": 659,
      "¹ç¼©æĶ¾ä¸": 660,
      "åģļåĿĩ": 661,
      "ĠåıªåģļåĿĩ": 662,
      "ĠæĽ´ç®Ģæ´ģé«ĺ": 663,
      "įåĩıåĿĩåĢ": 664,
      "æĸ¹æł¹ç¼©æĶ¾ä¸": 665,
      "ĠåıªåģļåĿĩæĸ¹æł¹ç¼©æĶ¾ä¸": 666,
      "ĠæĽ´ç®Ģæ´ģé«ĺæķĪ": 667,
      "įåĩıåĿĩåĢ¼": 668,
      "ĠåıªåģļåĿĩæĸ¹æł¹ç¼©æĶ¾ä¸įåĩıåĿĩåĢ¼": 669,
      "¥½": 670,
      "¨åı": 671,
      "«æľīä»Ģä¹Ī": 672,
      "¯å": 673,
      "µĮ": 674,
      "¶ä¿Ŀ": 675,
      "¹¶ä¿Ŀ": 676,
      "å¥½": 677,
      "åµĮ": 678,
      "æĮ": 679,
      "ģè¾ĵ": 680,
      "Ĥæķ°": 681,
      "īä¸Ģ": 682,
      "ĵç§": 683,
      "Ńä¹": 684,
      "çĶ¨åı": 685,
      "ä½ĵç§": 686,
      "å¤Ħ": 687,
      "è¯Ńä¹": 688,
      "åħ¥å±Ĥ": 689,
      "åħ¥è¾ĵåĩº": 690,
      "äº«æľīä»Ģä¹Ī": 691,
      "åĴĮè¾ĵåĩº": 692,
      "æ¨¡åŀĭä½ĵç§": 693,
      "æĿĥéĩįåħ±": 694,
      "å°ĳæ¨¡åŀĭä½ĵç§": 695,
      "èĩ´": 696,
      "åĩıå°ĳæ¨¡åŀĭä½ĵç§": 697,
      "å±Ĥåħ±": 698,
      "¯å¹¶ä¿Ŀ": 699,
      "å¥½å¤Ħ": 700,
      "åµĮåħ¥å±Ĥ": 701,
      "æĮģè¾ĵ": 702,
      "īä¸Ģèĩ´": 703,
      "çĶ¨åıĤæķ°": 704,
      "è¯Ńä¹īä¸Ģèĩ´": 705,
      "åħ¥è¾ĵåĩºè¯Ńä¹īä¸Ģèĩ´": 706,
      "äº«æľīä»Ģä¹Īå¥½å¤Ħ": 707,
      "åĴĮè¾ĵåĩºå±Ĥåħ±": 708,
      "æĿĥéĩįåħ±äº«æľīä»Ģä¹Īå¥½å¤Ħ": 709,
      "åĩıå°ĳæ¨¡åŀĭä½ĵç§¯å¹¶ä¿Ŀ": 710,
      "åµĮåħ¥å±ĤåĴĮè¾ĵåĩºå±Ĥåħ±": 711,
      "æĮģè¾ĵåħ¥è¾ĵåĩºè¯Ńä¹īä¸Ģèĩ´": 712,
      "åĩıå°ĳæ¨¡åŀĭä½ĵç§¯å¹¶ä¿ĿæĮģè¾ĵåħ¥è¾ĵåĩºè¯Ńä¹īä¸Ģèĩ´": 713,
      "åµĮåħ¥å±ĤåĴĮè¾ĵåĩºå±Ĥåħ±çĶ¨åıĤæķ°": 714,
      "è§£éĩĬä¸Ģä¸ĭ": 715,
      "ĭèĴ¸é¦ı": 716,
      "æ°´åĴĮçº¯æ°´æľīä»Ģä¹ĪåĮºåĪ«": 717,
      "è®²ä¸Ģä¸": 718,
      "ĭèĴ¸é¦ıæ°´åĴĮçº¯æ°´æľīä»Ģä¹ĪåĮºåĪ«": 719,
      "èĴ¸é¦ıæ°´åĴĮçº¯æ°´æľīä»Ģä¹ĪåĮºåĪ«": 720,
      "ä½łçŁ¥éģĵä»Ģä¹Īæĺ¯åĽłæŀľæİ©çłģ": 721,
      "ä½łçŁ¥éģĵè§£éĩĬä¸Ģä¸ĭ": 722,
      "è¯·éĹ®RoPE": 723,
      "å¸®æĪĳè§£éĩĬä¸ĭä»Ģä¹Īæĺ¯": 724,
      "§£éĩĬ": 725,
      "ä¸ĭèĴ¸é¦ıæ°´åĴĮçº¯æ°´æľīä»Ģä¹ĪåĮºåĪ«": 726,
      "ĭè§£éĩĬ": 727,
      "ä½łçŁ¥éģĵä»Ģä¹Īæĺ¯æľºåĻ¨åŃ¦ä¹ł": 728,
      "ä½łçŁ¥éģĵä½łæĺ¯è°ģ": 729,
      "ä½łçŁ¥éģĵå¤ªéĺ³ç³»æľīåĵªäºĽè¡ĮæĺŁ": 730,
      "è¯·éĹ®ä»Ģä¹Īæĺ¯æ³¨æĦıåĬĽæľºåĪ¶": 731,
      "è®²ä¸Ģä¸ĭä»Ģä¹Īæĺ¯": 732,
      "å¸®æĪĳè§£éĩĬä¸ĭRoPE": 733,
      "å¸®æĪĳè§£éĩĬä¸ĭä½łæĺ¯è°ģ": 734,
      "èĥ½è¯´ä¸ĭèĴ¸é¦ıæ°´åĴĮçº¯æ°´æľīä»Ģä¹ĪåĮºåĪ«": 735,
      "è®²ä¸Ģä¸ĭè§£éĩĬ": 736,
      "è®²ä¸Ģä¸ĭè§£éĩĬä¸Ģä¸ĭ": 737,
      "ä½łçŁ¥éģĵRoPE": 738,
      "è¯·éĹ®ä»Ģä¹Īæĺ¯åĽłæŀľæİ©çłģ": 739,
      "è¯·éĹ®æĿĥéĩįåħ±äº«æľīä»Ģä¹Īå¥½å¤Ħ": 740,
      "è®²ä¸Ģä¸ĭRoPE": 741,
      "è®²ä¸Ģä¸ĭRMSNorm": 742,
      "è®²ä¸Ģä¸ĭæĹĭè½¬ä½įç½®ç¼ĸçłģæĺ¯ä»Ģä¹Ī": 743,
      "èĥ½è¯´ä¸ĭä»Ģä¹Īæĺ¯æľºåĻ¨åŃ¦ä¹ł": 744,
      "èĥ½è¯´ä¸ĭæĹĭè½¬ä½įç½®ç¼ĸçłģæĺ¯ä»Ģä¹Ī": 745,
      "ä½łçŁ¥éģĵæĿĥéĩįåħ±äº«æľīä»Ģä¹Īå¥½å¤Ħ": 746,
      "è¯·éĹ®RMSNorm": 747,
      "è®²ä¸Ģä¸ĭä»Ģä¹Īæĺ¯æ³¨æĦıåĬĽæľºåĪ¶": 748,
      "è®²ä¸Ģä¸ĭèĴ¸é¦ıæ°´åĴĮçº¯æ°´æľīä»Ģä¹ĪåĮºåĪ«": 749,
      "è®²ä¸Ģä¸ĭå¤ªéĺ³ç³»æľīåĵªäºĽè¡ĮæĺŁ": 750
    },
    "merges": [
      [
        "ï",
        "¼"
      ],
      [
        "æ",
        "ĺ"
      ],
      [
        "ä",
        "¸"
      ],
      [
        "¨",
        "æ"
      ],
      [
        "å",
        "Ĭ"
      ],
      [
        "ã",
        "Ģ"
      ],
      [
        "ç",
        "Ķ"
      ],
      [
        "©",
        "æ"
      ],
      [
        "æĺ",
        "¯"
      ],
      [
        "ä",
        "»"
      ],
      [
        "ä",
        "½"
      ],
      [
        "ï¼",
        "Į"
      ],
      [
        "Ī",
        "·"
      ],
      [
        "ī",
        "ĭ"
      ],
      [
        "¨æ",
        "Ī·"
      ],
      [
        "åĬ",
        "©æ"
      ],
      [
        "ãĢ",
        "Ĥ"
      ],
      [
        "çĶ",
        "¨æĪ·"
      ],
      [
        "åĬ©æ",
        "īĭ"
      ],
      [
        "ä",
        "¹"
      ],
      [
        "ï¼",
        "Ł"
      ],
      [
        "å",
        "ħ"
      ],
      [
        "į",
        "ç"
      ],
      [
        "ĭ",
        "è"
      ],
      [
        "½",
        "®"
      ],
      [
        "æ",
        "Ĺ"
      ],
      [
        "æ",
        "ľ"
      ],
      [
        "Ģ",
        "ä¹"
      ],
      [
        "ä»",
        "Ģä¹"
      ],
      [
        "ä½",
        "įç"
      ],
      [
        "ä»Ģä¹",
        "Ī"
      ],
      [
        "ä½įç",
        "½®"
      ],
      [
        "å",
        "Ī"
      ],
      [
        "½",
        "¬"
      ],
      [
        "ĭè",
        "½¬"
      ],
      [
        "æĹ",
        "ĭè½¬"
      ],
      [
        "å",
        "¤"
      ],
      [
        "ç",
        "¼"
      ],
      [
        "æ",
        "ķ"
      ],
      [
        "Ġ",
        "æĺ¯"
      ],
      [
        "è",
        "®"
      ],
      [
        "ä¸",
        "Ģ"
      ],
      [
        "ç",
        "ļ"
      ],
      [
        "çļ",
        "Ħ"
      ],
      [
        "¿",
        "ĩ"
      ],
      [
        "è",
        "¿ĩ"
      ],
      [
        "é",
        "Ģ"
      ],
      [
        "ļ",
        "è¿ĩ"
      ],
      [
        "ç¼",
        "ĸ"
      ],
      [
        "éĢ",
        "ļè¿ĩ"
      ],
      [
        "P",
        "E"
      ],
      [
        "R",
        "o"
      ],
      [
        "ä",
        "¿"
      ],
      [
        "Ro",
        "PE"
      ],
      [
        "æ",
        "³"
      ],
      [
        "é",
        "ĩ"
      ],
      [
        "è",
        "¯"
      ],
      [
        "ä¸",
        "ĭ"
      ],
      [
        "æ",
        "Ŀ"
      ],
      [
        "ç¼ĸ",
        "ç"
      ],
      [
        "ł",
        "ģ"
      ],
      [
        "ç",
        "Ľ"
      ],
      [
        "çĽ",
        "¸"
      ],
      [
        "ä»",
        "¥"
      ],
      [
        "æķ",
        "°"
      ],
      [
        "åħ",
        "¥"
      ],
      [
        "ä",
        "º"
      ],
      [
        "è",
        "§"
      ],
      [
        "°",
        "´"
      ],
      [
        "æ",
        "°´"
      ],
      [
        "å",
        "¯"
      ],
      [
        "¡",
        "æ"
      ],
      [
        "ģ",
        "¯"
      ],
      [
        "ä¿",
        "¡æ"
      ],
      [
        "ä¿¡æ",
        "ģ¯"
      ],
      [
        "å",
        "ŀ"
      ],
      [
        "ä½įç½®",
        "ç¼ĸç"
      ],
      [
        "æĹĭè½¬",
        "ä½įç½®ç¼ĸç"
      ],
      [
        "åŀ",
        "ĭ"
      ],
      [
        "æĹĭè½¬ä½įç½®ç¼ĸç",
        "łģ"
      ],
      [
        "Ġ",
        "5"
      ],
      [
        "æĺ",
        "Ł"
      ],
      [
        "o",
        "r"
      ],
      [
        "or",
        "m"
      ],
      [
        "å",
        "ĩ"
      ],
      [
        "ä»Ģä¹Ī",
        "æĺ¯"
      ],
      [
        "æľ",
        "º"
      ],
      [
        "¨",
        "åħ¥"
      ],
      [
        "¹",
        "ä½įç½®"
      ],
      [
        "į",
        "æķ°"
      ],
      [
        "æĹĭè½¬",
        "æ³"
      ],
      [
        "å¤",
        "įæķ°"
      ],
      [
        "Ġæĺ¯",
        "æĹĭè½¬ä½įç½®ç¼ĸçłģ"
      ],
      [
        "éĢļè¿ĩ",
        "å¤įæķ°"
      ],
      [
        "çĽ¸",
        "å¯"
      ],
      [
        "¨åħ¥",
        "çĽ¸å¯"
      ],
      [
        "¹ä½įç½®",
        "ä¿¡æģ¯"
      ],
      [
        "æĹĭè½¬æ³",
        "¨åħ¥çĽ¸å¯"
      ],
      [
        "éĢļè¿ĩå¤įæķ°",
        "æĹĭè½¬æ³¨åħ¥çĽ¸å¯"
      ],
      [
        "éĢļè¿ĩå¤įæķ°æĹĭè½¬æ³¨åħ¥çĽ¸å¯",
        "¹ä½įç½®ä¿¡æģ¯"
      ],
      [
        "¡",
        "åŀĭ"
      ],
      [
        "¨",
        "¡åŀĭ"
      ],
      [
        "å",
        "ı"
      ],
      [
        "å",
        "Ĵ"
      ],
      [
        "äº",
        "İ"
      ],
      [
        "åĴ",
        "Į"
      ],
      [
        "ç",
        "Ń"
      ],
      [
        "æľ",
        "ī"
      ],
      [
        "çŃ",
        "ī"
      ],
      [
        "å",
        "°"
      ],
      [
        "N",
        "orm"
      ],
      [
        "ç",
        "Ł"
      ],
      [
        "ä½",
        "ł"
      ],
      [
        "ç",
        "º"
      ],
      [
        "¦",
        "ı"
      ],
      [
        "¸",
        "é"
      ],
      [
        "Ĵ",
        "¸é"
      ],
      [
        "Ĵ¸é",
        "¦ı"
      ],
      [
        "é",
        "Ĺ"
      ],
      [
        "å",
        "Ń"
      ],
      [
        "åĪ",
        "¶"
      ],
      [
        "åŃ",
        "¦"
      ],
      [
        "ç",
        "§"
      ],
      [
        "åħ",
        "³"
      ],
      [
        "æ³",
        "¨æ"
      ],
      [
        "å",
        "Į"
      ],
      [
        "æ",
        "¨¡åŀĭ"
      ],
      [
        "ç",
        "®"
      ],
      [
        "ĥ",
        "éĩ"
      ],
      [
        "æĿ",
        "ĥéĩ"
      ],
      [
        "æĿĥéĩ",
        "į"
      ],
      [
        "2",
        "5"
      ],
      [
        "¤",
        "ä»¥"
      ],
      [
        "é",
        "Ļ"
      ],
      [
        "Ġ",
        "çŃī"
      ],
      [
        "Ġ",
        "éĻ"
      ],
      [
        "ãĢ",
        "ģ"
      ],
      [
        "ä¸Ģ",
        "ä¸ĭ"
      ],
      [
        "æľī",
        "ä»Ģä¹Ī"
      ],
      [
        "ĠçŃī",
        "äºİ"
      ],
      [
        "ĠéĻ",
        "¤ä»¥"
      ],
      [
        "e",
        "r"
      ],
      [
        "å°",
        "ĳ"
      ],
      [
        "¾",
        "ĵ"
      ],
      [
        "è",
        "¾ĵ"
      ],
      [
        "¥",
        "é"
      ],
      [
        "ģ",
        "ĵ"
      ],
      [
        "çŁ",
        "¥é"
      ],
      [
        "ä½ł",
        "çŁ¥é"
      ],
      [
        "ä½łçŁ¥é",
        "ģĵ"
      ],
      [
        "è®",
        "²"
      ],
      [
        "è",
        "Ĵ¸é¦ı"
      ],
      [
        "£",
        "éĩ"
      ],
      [
        "£éĩ",
        "Ĭ"
      ],
      [
        "æ",
        "Ī"
      ],
      [
        "æĪ",
        "ĳ"
      ],
      [
        "ä¸",
        "ī"
      ],
      [
        "¯",
        "æ°´"
      ],
      [
        "è",
        "´"
      ],
      [
        "è",
        "Ģ"
      ],
      [
        "ģ",
        "æĺ"
      ],
      [
        "è§",
        "£éĩĬ"
      ],
      [
        "çº",
        "¯æ°´"
      ],
      [
        "èĢ",
        "Į"
      ],
      [
        "å",
        "¾"
      ],
      [
        "å",
        "Ĩ"
      ],
      [
        "æ",
        "Ģ"
      ],
      [
        "æ",
        "Ĭ"
      ],
      [
        "çļĦ",
        "é"
      ],
      [
        "¨",
        "åŃ¦"
      ],
      [
        "ä¹",
        "ł"
      ],
      [
        "è§",
        "Ħ"
      ],
      [
        "¨åŃ¦",
        "ä¹ł"
      ],
      [
        "¡",
        "ç®"
      ],
      [
        "«",
        "ĺ"
      ],
      [
        "·",
        "éĹ"
      ],
      [
        "æ",
        "´"
      ],
      [
        "æ",
        "ĸ"
      ],
      [
        "é",
        "ĺ"
      ],
      [
        "Ģ",
        "æ´"
      ],
      [
        "ľ",
        "Ģ"
      ],
      [
        "è®",
        "¡ç®"
      ],
      [
        "è¯",
        "·éĹ"
      ],
      [
        "æĸ",
        "¹"
      ],
      [
        "è®¡ç®",
        "Ĺ"
      ],
      [
        "è¯·éĹ",
        "®"
      ],
      [
        "º",
        "åĪ"
      ],
      [
        "¾",
        "ä¸"
      ],
      [
        "Ġ",
        "çļĦ"
      ],
      [
        "Ħ",
        "ı"
      ],
      [
        "Ľ",
        "æľº"
      ],
      [
        "åĬ",
        "Ľæľº"
      ],
      [
        "åĪ",
        "Ĩ"
      ],
      [
        "çĽ¸",
        "åħ³"
      ],
      [
        "åı",
        "ª"
      ],
      [
        "æ³¨æ",
        "Ħı"
      ],
      [
        "åĮ",
        "ºåĪ"
      ],
      [
        "æľīä»Ģä¹Ī",
        "åĮºåĪ"
      ],
      [
        "åĬĽæľº",
        "åĪ¶"
      ],
      [
        "æ³¨æĦı",
        "åĬĽæľºåĪ¶"
      ],
      [
        "æľīä»Ģä¹ĪåĮºåĪ",
        "«"
      ],
      [
        "æ",
        "¯"
      ],
      [
        "æĺ¯",
        "ä»Ģä¹Ī"
      ],
      [
        "ä¿",
        "Ŀ"
      ],
      [
        "1",
        "5"
      ],
      [
        "2",
        "0"
      ],
      [
        "¡",
        "Į"
      ],
      [
        "è",
        "ĩ"
      ],
      [
        "è",
        "¡Į"
      ],
      [
        "Ġ",
        "6"
      ],
      [
        "Ġ",
        "ä¹"
      ],
      [
        "ĺ",
        "ä»¥"
      ],
      [
        "ļ",
        "å°ĳ"
      ],
      [
        "å¤",
        "ļå°ĳ"
      ],
      [
        "è¡Į",
        "æĺŁ"
      ],
      [
        "Ġä¹",
        "ĺä»¥"
      ],
      [
        "L",
        "a"
      ],
      [
        "M",
        "S"
      ],
      [
        "R",
        "MS"
      ],
      [
        "y",
        "er"
      ],
      [
        "å",
        "Ŀ"
      ],
      [
        "Ġ",
        "La"
      ],
      [
        "RMS",
        "Norm"
      ],
      [
        "yer",
        "Norm"
      ],
      [
        "åĿ",
        "ĩ"
      ],
      [
        "ĠLa",
        "yerNorm"
      ],
      [
        "åĩ",
        "ı"
      ],
      [
        "è®²",
        "ä¸Ģä¸ĭ"
      ],
      [
        "±",
        "Ĥ"
      ],
      [
        "å",
        "±Ĥ"
      ],
      [
        "åħ",
        "±"
      ],
      [
        "åĩ",
        "º"
      ],
      [
        "è¾ĵ",
        "åĩº"
      ],
      [
        "ä¸Ģ",
        "ä¸"
      ],
      [
        "èĴ¸é¦ı",
        "æ°´"
      ],
      [
        "®",
        "æĪĳ"
      ],
      [
        "¸",
        "®æĪĳ"
      ],
      [
        "å",
        "¸®æĪĳ"
      ],
      [
        "è§£éĩĬ",
        "ä¸ĭ"
      ],
      [
        "å¸®æĪĳ",
        "è§£éĩĬä¸ĭ"
      ],
      [
        "½",
        "è¯"
      ],
      [
        "è",
        "ĥ"
      ],
      [
        "½è¯",
        "´"
      ],
      [
        "èĥ",
        "½è¯´"
      ],
      [
        "P",
        "y"
      ],
      [
        "h",
        "o"
      ],
      [
        "t",
        "ho"
      ],
      [
        "§",
        "ç¼ĸç"
      ],
      [
        "¨",
        "Ģ"
      ],
      [
        "¨",
        "ĭè"
      ],
      [
        "¬",
        "¬"
      ],
      [
        "®",
        "Ģæ´"
      ],
      [
        "¯",
        "Ń"
      ],
      [
        "°",
        "å¯"
      ],
      [
        "º",
        "ĵ"
      ],
      [
        "»",
        "å"
      ],
      [
        "»",
        "çļĦé"
      ],
      [
        "å",
        "ºĵ"
      ],
      [
        "ç",
        "¬¬"
      ],
      [
        "è",
        "¨Ģ"
      ],
      [
        "Ġ",
        "Py"
      ],
      [
        "ģ",
        "èĢĮ"
      ],
      [
        "Į",
        "çļĦ"
      ],
      [
        "Ĳ",
        "į"
      ],
      [
        "ĵ",
        "è¯"
      ],
      [
        "Ł",
        "æĢ"
      ],
      [
        "ä¸",
        "°å¯"
      ],
      [
        "çĶ",
        "ŁæĢ"
      ],
      [
        "įç",
        "®Ģæ´"
      ],
      [
        "ä¸Ģ",
        "ç§"
      ],
      [
        "ä»¥",
        "ä¸°å¯"
      ],
      [
        "çº",
        "§ç¼ĸç"
      ],
      [
        "éĹ",
        "»å"
      ],
      [
        "ä¸ī",
        "æĸ¹"
      ],
      [
        "ģæĺ",
        "ĵè¯"
      ],
      [
        "«ĺ",
        "çº§ç¼ĸç"
      ],
      [
        "tho",
        "n"
      ],
      [
        "¨ĭè",
        "¯Ń"
      ],
      [
        "»çļĦé",
        "«ĺçº§ç¼ĸç"
      ],
      [
        "åºĵ",
        "çĶŁæĢ"
      ],
      [
        "ç¬¬",
        "ä¸īæĸ¹"
      ],
      [
        "ĠPy",
        "thon"
      ],
      [
        "ģèĢĮ",
        "éĹ»å"
      ],
      [
        "ĮçļĦ",
        "ç¬¬ä¸īæĸ¹"
      ],
      [
        "įç®Ģæ´",
        "ģæĺĵè¯"
      ],
      [
        "ä¸Ģç§",
        "įç®Ģæ´ģæĺĵè¯"
      ],
      [
        "ä»¥ä¸°å¯",
        "ĮçļĦç¬¬ä¸īæĸ¹"
      ],
      [
        "¨ĭè¯Ń",
        "è¨Ģ"
      ],
      [
        "»çļĦé«ĺçº§ç¼ĸç",
        "¨ĭè¯Ńè¨Ģ"
      ],
      [
        "åºĵçĶŁæĢ",
        "ģèĢĮéĹ»å"
      ],
      [
        "ä¸Ģç§įç®Ģæ´ģæĺĵè¯",
        "»çļĦé«ĺçº§ç¼ĸç¨ĭè¯Ńè¨Ģ"
      ],
      [
        "ä»¥ä¸°å¯ĮçļĦç¬¬ä¸īæĸ¹",
        "åºĵçĶŁæĢģèĢĮéĹ»å"
      ],
      [
        "ä»¥ä¸°å¯ĮçļĦç¬¬ä¸īæĸ¹åºĵçĶŁæĢģèĢĮéĹ»å",
        "Ĳį"
      ],
      [
        "¡",
        "®"
      ],
      [
        "¥",
        "ä½įç½®"
      ],
      [
        "©",
        "·"
      ],
      [
        "©",
        "ç"
      ],
      [
        "©",
        "éĺ"
      ],
      [
        "ª",
        "æĿ"
      ],
      [
        "°",
        "å"
      ],
      [
        "²",
        "ä¿¡æģ¯"
      ],
      [
        "·",
        "åĩ"
      ],
      [
        "º",
        "è´"
      ],
      [
        "å",
        "Ľ"
      ],
      [
        "æ",
        "İ"
      ],
      [
        "æ",
        "ŀ"
      ],
      [
        "ç",
        "ľ"
      ],
      [
        "ç",
        "¡®"
      ],
      [
        "ç",
        "©·"
      ],
      [
        "Ġ",
        "RoPE"
      ],
      [
        "ģ",
        "ä½"
      ],
      [
        "Ĥ",
        "è´"
      ],
      [
        "Ĩ",
        "åı"
      ],
      [
        "Ĭ",
        "æľ"
      ],
      [
        "ĭ",
        "åĪ"
      ],
      [
        "İ",
        "Ĩåı"
      ],
      [
        "Ĵ",
        "çŁ"
      ],
      [
        "ľ",
        "æİ"
      ],
      [
        "Ŀ",
        "åĪ¶"
      ],
      [
        "ŀ",
        "ģä½"
      ],
      [
        "Ł",
        "æĹ"
      ],
      [
        "ł",
        "æŀ"
      ],
      [
        "ł",
        "ç©·"
      ],
      [
        "¨æ",
        "ŀģä½"
      ],
      [
        "è®",
        "¾ä¸"
      ],
      [
        "éĢļè¿ĩ",
        "èĴ¸é¦ı"
      ],
      [
        "ä¸ĭ",
        "ä¸ī"
      ],
      [
        "æĿ",
        "Ĥè´"
      ],
      [
        "è§",
        "ĴçŁ"
      ],
      [
        "ä»Ģä¹Īæĺ¯",
        "åĽ"
      ],
      [
        "åĴĮ",
        "çº¯æ°´"
      ],
      [
        "æ¨¡åŀĭ",
        "åıª"
      ],
      [
        "æĿĥéĩį",
        "è®¾ä¸"
      ],
      [
        "çº¯æ°´",
        "æĿĤè´"
      ],
      [
        "å¾",
        "Ĺ"
      ],
      [
        "åĨ",
        "·åĩ"
      ],
      [
        "æĬ",
        "Ĭæľ"
      ],
      [
        "ä¿Ŀ",
        "æ¨¡åŀĭåıª"
      ],
      [
        "èĴ¸é¦ıæ°´",
        "éĢļè¿ĩèĴ¸é¦ı"
      ],
      [
        "¥ä½įç½®",
        "æĿĥéĩįè®¾ä¸"
      ],
      [
        "©ç",
        "łģ"
      ],
      [
        "©éĺ",
        "µ"
      ],
      [
        "ªæĿ",
        "¥ä½įç½®æĿĥéĩįè®¾ä¸"
      ],
      [
        "°å",
        "İĨåı"
      ],
      [
        "ºè´",
        "ŁæĹ"
      ],
      [
        "çľ",
        "ĭåĪ"
      ],
      [
        "ç¡®",
        "ä¿Ŀæ¨¡åŀĭåıª"
      ],
      [
        "ľæİ",
        "©çłģ"
      ],
      [
        "ĿåĪ¶",
        "å¾Ĺ"
      ],
      [
        "łæŀ",
        "ľæİ©çłģ"
      ],
      [
        "¨æŀģä½",
        "İ"
      ],
      [
        "ä¸ĭä¸ī",
        "è§ĴçŁ"
      ],
      [
        "ä»Ģä¹Īæĺ¯åĽ",
        "łæŀľæİ©çłģ"
      ],
      [
        "åĴĮçº¯æ°´",
        "æľīä»Ģä¹ĪåĮºåĪ«"
      ],
      [
        "çº¯æ°´æĿĤè´",
        "¨æŀģä½İ"
      ],
      [
        "åĨ·åĩ",
        "ĿåĪ¶å¾Ĺ"
      ],
      [
        "æĬĬæľ",
        "ªæĿ¥ä½įç½®æĿĥéĩįè®¾ä¸"
      ],
      [
        "èĴ¸é¦ıæ°´éĢļè¿ĩèĴ¸é¦ı",
        "åĨ·åĩĿåĪ¶å¾Ĺ"
      ],
      [
        "°åİĨåı",
        "²ä¿¡æģ¯"
      ],
      [
        "ºè´ŁæĹ",
        "łç©·"
      ],
      [
        "çľĭåĪ",
        "°åİĨåı²ä¿¡æģ¯"
      ],
      [
        "ç¡®ä¿Ŀæ¨¡åŀĭåıª",
        "çľĭåĪ°åİĨåı²ä¿¡æģ¯"
      ],
      [
        "ä¸ĭä¸īè§ĴçŁ",
        "©éĺµ"
      ],
      [
        "æĬĬæľªæĿ¥ä½įç½®æĿĥéĩįè®¾ä¸",
        "ºè´ŁæĹłç©·"
      ],
      [
        "¡",
        "è§Ħ"
      ],
      [
        "¦",
        "ģæĺ"
      ],
      [
        "©",
        "è®¡ç®Ĺ"
      ],
      [
        "ª",
        "åĬ"
      ],
      [
        "®",
        "èĩ"
      ],
      [
        "¼",
        "ı"
      ],
      [
        "¾",
        "å"
      ],
      [
        "å",
        "Ļ"
      ],
      [
        "æ",
        "į"
      ],
      [
        "è",
        "¦ģæĺ"
      ],
      [
        "é",
        "ľĢ"
      ],
      [
        "Ģ",
        "æľ"
      ],
      [
        "į",
        "éľĢ"
      ],
      [
        "ı",
        "ä¸Ģ"
      ],
      [
        "Ļ",
        "çļĦ"
      ],
      [
        "Ļ",
        "æ¯"
      ],
      [
        "ä¸",
        "įéľĢ"
      ],
      [
        "åĪ",
        "ĻçļĦ"
      ],
      [
        "è®",
        "©è®¡ç®Ĺ"
      ],
      [
        "ç¼ĸ",
        "åĨ"
      ],
      [
        "éĢļè¿ĩ",
        "æķ°"
      ],
      [
        "æĿ",
        "¡è§Ħ"
      ],
      [
        "ä»Ģä¹Īæĺ¯",
        "æľº"
      ],
      [
        "æľº",
        "éĢļè¿ĩæķ°"
      ],
      [
        "èĢĮ",
        "ä¸įéľĢ"
      ],
      [
        "å¾",
        "ĭ"
      ],
      [
        "æĬ",
        "Ģæľ"
      ],
      [
        "è§Ħ",
        "å¾ĭ"
      ],
      [
        "¨åŃ¦ä¹ł",
        "è§Ħå¾ĭ"
      ],
      [
        "ªåĬ",
        "¨åŃ¦ä¹łè§Ħå¾ĭ"
      ],
      [
        "®èĩ",
        "ªåĬ¨åŃ¦ä¹łè§Ħå¾ĭ"
      ],
      [
        "¼ı",
        "ç¼ĸåĨ"
      ],
      [
        "¾å",
        "¼ıç¼ĸåĨ"
      ],
      [
        "åĻ",
        "¨åŃ¦ä¹ł"
      ],
      [
        "æį",
        "®èĩªåĬ¨åŃ¦ä¹łè§Ħå¾ĭ"
      ],
      [
        "è¦ģæĺ",
        "¾å¼ıç¼ĸåĨ"
      ],
      [
        "ıä¸Ģ",
        "æĿ¡è§Ħ"
      ],
      [
        "Ļæ¯",
        "ıä¸ĢæĿ¡è§Ħ"
      ],
      [
        "åĪĻçļĦ",
        "æĬĢæľ"
      ],
      [
        "è®©è®¡ç®Ĺ",
        "æľºéĢļè¿ĩæķ°"
      ],
      [
        "ä»Ģä¹Īæĺ¯æľº",
        "åĻ¨åŃ¦ä¹ł"
      ],
      [
        "èĢĮä¸įéľĢ",
        "è¦ģæĺ¾å¼ıç¼ĸåĨ"
      ],
      [
        "Ļæ¯ıä¸ĢæĿ¡è§Ħ",
        "åĪĻçļĦæĬĢæľ"
      ],
      [
        "è®©è®¡ç®ĹæľºéĢļè¿ĩæķ°",
        "æį®èĩªåĬ¨åŃ¦ä¹łè§Ħå¾ĭ"
      ],
      [
        "èĢĮä¸įéľĢè¦ģæĺ¾å¼ıç¼ĸåĨ",
        "Ļæ¯ıä¸ĢæĿ¡è§ĦåĪĻçļĦæĬĢæľ"
      ],
      [
        "èĢĮä¸įéľĢè¦ģæĺ¾å¼ıç¼ĸåĨĻæ¯ıä¸ĢæĿ¡è§ĦåĪĻçļĦæĬĢæľ",
        "¯"
      ],
      [
        "G",
        "P"
      ],
      [
        "T",
        "r"
      ],
      [
        "a",
        "n"
      ],
      [
        "f",
        "orm"
      ],
      [
        "s",
        "form"
      ],
      [
        "¢",
        "åĴĮ"
      ],
      [
        "¤",
        "º"
      ],
      [
        "¥",
        "è¯"
      ],
      [
        "§",
        "åĪĨ"
      ],
      [
        "¨",
        "ç§"
      ],
      [
        "¨",
        "åĪĨ"
      ],
      [
        "ª",
        "å"
      ],
      [
        "®",
        "çļĦ"
      ],
      [
        "°",
        "ģ"
      ],
      [
        "°",
        "æĺ¯ä»Ģä¹Ī"
      ],
      [
        "º",
        "äºİ"
      ],
      [
        "¼",
        "Ķ"
      ],
      [
        "æ",
        "Ł"
      ],
      [
        "æ",
        "¼Ķ"
      ],
      [
        "ç",
        "¤º"
      ],
      [
        "è",
        "°ģ"
      ],
      [
        "é",
        "ħ"
      ],
      [
        "é",
        "Ķ"
      ],
      [
        "Ġ",
        "æķ"
      ],
      [
        "Ġ",
        "GP"
      ],
      [
        "Ġ",
        "Tr"
      ],
      [
        "Ģ",
        "ģ"
      ],
      [
        "ĥ",
        "¨åĪĨ"
      ],
      [
        "į",
        "æĿĥéĩį"
      ],
      [
        "ı",
        "åŀĭ"
      ],
      [
        "Ļ",
        "åŃ¦"
      ],
      [
        "Ł",
        "ºäºİ"
      ],
      [
        "¨æ",
        "Ģģ"
      ],
      [
        "åĬ",
        "¨æĢģ"
      ],
      [
        "©æ",
        "¨¡åŀĭ"
      ],
      [
        "æĺ¯",
        "ä¸Ģä¸"
      ],
      [
        "æĺ¯",
        "è°ģ"
      ],
      [
        "åħ",
        "¨ç§"
      ],
      [
        "è®",
        "©æ¨¡åŀĭ"
      ],
      [
        "éĢļè¿ĩ",
        "è®¡ç®Ĺ"
      ],
      [
        "ä»Ģä¹Īæĺ¯",
        "æ³¨æĦıåĬĽæľºåĪ¶"
      ],
      [
        "å°",
        "ıåŀĭ"
      ],
      [
        "ä½ł",
        "æĺ¯è°ģ"
      ],
      [
        "åħ³",
        "æ³¨æ"
      ],
      [
        "æĪĳ",
        "æĺ¯ä¸Ģä¸"
      ],
      [
        "æĢ",
        "§åĪĨ"
      ],
      [
        "çļĦé",
        "ĥ¨åĪĨ"
      ],
      [
        "ľĢ",
        "çĽ¸åħ³"
      ],
      [
        "ĠçļĦ",
        "åħ¨ç§"
      ],
      [
        "ĠçļĦ",
        "å°ıåŀĭ"
      ],
      [
        "çĽ¸åħ³",
        "æĢ§åĪĨ"
      ],
      [
        "æ³¨æĦıåĬĽæľºåĪ¶",
        "éĢļè¿ĩè®¡ç®Ĺ"
      ],
      [
        "an",
        "sform"
      ],
      [
        "¢åĴĮ",
        "éĶ"
      ],
      [
        "¥è¯",
        "¢åĴĮéĶ"
      ],
      [
        "ªå",
        "Łºäºİ"
      ],
      [
        "®çļĦ",
        "çĽ¸åħ³æĢ§åĪĨ"
      ],
      [
        "æŁ",
        "¥è¯¢åĴĮéĶ"
      ],
      [
        "æ¼Ķ",
        "ç¤º"
      ],
      [
        "éħ",
        "įæĿĥéĩį"
      ],
      [
        "Ġæķ",
        "ĻåŃ¦"
      ],
      [
        "ĠGP",
        "T"
      ],
      [
        "ĠTr",
        "ansform"
      ],
      [
        "åĬ¨æĢģ",
        "åħ³æ³¨æ"
      ],
      [
        "è®©æ¨¡åŀĭ",
        "åĬ¨æĢģåħ³æ³¨æ"
      ],
      [
        "æĪĳæĺ¯ä¸Ģä¸",
        "ªåŁºäºİ"
      ],
      [
        "ľĢçĽ¸åħ³",
        "çļĦéĥ¨åĪĨ"
      ],
      [
        "ĠçļĦåħ¨ç§",
        "°æĺ¯ä»Ģä¹Ī"
      ],
      [
        "æ³¨æĦıåĬĽæľºåĪ¶éĢļè¿ĩè®¡ç®Ĺ",
        "æŁ¥è¯¢åĴĮéĶ"
      ],
      [
        "®çļĦçĽ¸åħ³æĢ§åĪĨ",
        "éħįæĿĥéĩį"
      ],
      [
        "æ¼Ķç¤º",
        "æ¨¡åŀĭ"
      ],
      [
        "ĠæķĻåŃ¦",
        "æ¼Ķç¤ºæ¨¡åŀĭ"
      ],
      [
        "ĠTransform",
        "er"
      ],
      [
        "è®©æ¨¡åŀĭåĬ¨æĢģåħ³æ³¨æ",
        "ľĢçĽ¸åħ³çļĦéĥ¨åĪĨ"
      ],
      [
        "æ³¨æĦıåĬĽæľºåĪ¶éĢļè¿ĩè®¡ç®ĹæŁ¥è¯¢åĴĮéĶ",
        "®çļĦçĽ¸åħ³æĢ§åĪĨéħįæĿĥéĩį"
      ],
      [
        "0",
        "0"
      ],
      [
        "1",
        "25"
      ],
      [
        "1",
        "00"
      ],
      [
        "9",
        "0"
      ],
      [
        "§",
        "è¡ĮæĺŁ"
      ],
      [
        "ª",
        "äº"
      ],
      [
        "ª",
        "éĺ"
      ],
      [
        "«",
        "å¤"
      ],
      [
        "«",
        "æĺŁ"
      ],
      [
        "¬",
        "æ°´"
      ],
      [
        "°",
        "ç"
      ],
      [
        "³",
        "»"
      ],
      [
        "³",
        "ç"
      ],
      [
        "å",
        "ĵ"
      ],
      [
        "å",
        "ľ"
      ],
      [
        "æ",
        "ĭ"
      ],
      [
        "ç",
        "ģ"
      ],
      [
        "Ġ",
        "åĬ"
      ],
      [
        "Ġ",
        "25"
      ],
      [
        "Ġ",
        "20"
      ],
      [
        "Ġ",
        "90"
      ],
      [
        "ħ",
        "æĭ"
      ],
      [
        "Ĳ",
        "ĥ"
      ],
      [
        "ĳ",
        "æĺŁ"
      ],
      [
        "Ľ",
        "è¡ĮæĺŁ"
      ],
      [
        "åħ",
        "«å¤"
      ],
      [
        "å¤",
        "ªéĺ"
      ],
      [
        "Ġæĺ¯",
        "ä»Ģä¹Ī"
      ],
      [
        "Ġæĺ¯",
        "å¤ļå°ĳ"
      ],
      [
        "éĩ",
        "ĳæĺŁ"
      ],
      [
        "æĹĭè½¬ä½įç½®ç¼ĸçłģ",
        "æĺ¯ä»Ģä¹Ī"
      ],
      [
        "æľī",
        "åĵ"
      ],
      [
        "åĮ",
        "ħæĭ"
      ],
      [
        "ĠçŃīäºİ",
        "å¤ļå°ĳ"
      ],
      [
        "ªäº",
        "Ľè¡ĮæĺŁ"
      ],
      [
        "«æĺŁ",
        "çŃī"
      ],
      [
        "¬æ°´",
        "æĺŁ"
      ],
      [
        "°ç",
        "Ĳĥ"
      ],
      [
        "³»",
        "æľīåĵ"
      ],
      [
        "³ç",
        "³»æľīåĵ"
      ],
      [
        "åľ",
        "°çĲĥ"
      ],
      [
        "çģ",
        "«æĺŁçŃī"
      ],
      [
        "ĠåĬ",
        "ł"
      ],
      [
        "åħ«å¤",
        "§è¡ĮæĺŁ"
      ],
      [
        "å¤ªéĺ",
        "³ç³»æľīåĵ"
      ],
      [
        "åĮħæĭ",
        "¬æ°´æĺŁ"
      ],
      [
        "å¤ªéĺ³ç³»æľīåĵ",
        "ªäºĽè¡ĮæĺŁ"
      ],
      [
        "´",
        "ç®"
      ],
      [
        "¹",
        "ç¼"
      ],
      [
        "å",
        "Ģ"
      ],
      [
        "å",
        "ģ"
      ],
      [
        "æ",
        "Ľ"
      ],
      [
        "æ",
        "ł"
      ],
      [
        "é",
        "«ĺ"
      ],
      [
        "Ġ",
        "åĴĮ"
      ],
      [
        "Ġ",
        "åıª"
      ],
      [
        "Ġ",
        "æľīä»Ģä¹ĪåĮºåĪ«"
      ],
      [
        "Ġ",
        "æĽ"
      ],
      [
        "ģ",
        "é«ĺ"
      ],
      [
        "į",
        "åĩı"
      ],
      [
        "Ķ",
        "¾ä¸"
      ],
      [
        "ļ",
        "åĿĩ"
      ],
      [
        "©æ",
        "Ķ¾ä¸"
      ],
      [
        "æķ",
        "Ī"
      ],
      [
        "Ģæ´",
        "ģé«ĺ"
      ],
      [
        "æĸ¹",
        "æł"
      ],
      [
        "æ¯",
        "Ķ"
      ],
      [
        "åĿĩ",
        "åĢ"
      ],
      [
        "èĥ½è¯´",
        "ä¸ĭ"
      ],
      [
        "´ç®",
        "Ģæ´ģé«ĺ"
      ],
      [
        "¹ç¼",
        "©æĶ¾ä¸"
      ],
      [
        "åģ",
        "ļåĿĩ"
      ],
      [
        "Ġåıª",
        "åģļåĿĩ"
      ],
      [
        "ĠæĽ",
        "´ç®Ģæ´ģé«ĺ"
      ],
      [
        "įåĩı",
        "åĿĩåĢ"
      ],
      [
        "æĸ¹æł",
        "¹ç¼©æĶ¾ä¸"
      ],
      [
        "ĠåıªåģļåĿĩ",
        "æĸ¹æł¹ç¼©æĶ¾ä¸"
      ],
      [
        "ĠæĽ´ç®Ģæ´ģé«ĺ",
        "æķĪ"
      ],
      [
        "įåĩıåĿĩåĢ",
        "¼"
      ],
      [
        "ĠåıªåģļåĿĩæĸ¹æł¹ç¼©æĶ¾ä¸",
        "įåĩıåĿĩåĢ¼"
      ],
      [
        "¥",
        "½"
      ],
      [
        "¨",
        "åı"
      ],
      [
        "«",
        "æľīä»Ģä¹Ī"
      ],
      [
        "¯",
        "å"
      ],
      [
        "µ",
        "Į"
      ],
      [
        "¶",
        "ä¿Ŀ"
      ],
      [
        "¹",
        "¶ä¿Ŀ"
      ],
      [
        "å",
        "¥½"
      ],
      [
        "å",
        "µĮ"
      ],
      [
        "æ",
        "Į"
      ],
      [
        "ģ",
        "è¾ĵ"
      ],
      [
        "Ĥ",
        "æķ°"
      ],
      [
        "ī",
        "ä¸Ģ"
      ],
      [
        "ĵ",
        "ç§"
      ],
      [
        "Ń",
        "ä¹"
      ],
      [
        "çĶ",
        "¨åı"
      ],
      [
        "ä½",
        "ĵç§"
      ],
      [
        "å¤",
        "Ħ"
      ],
      [
        "è¯",
        "Ńä¹"
      ],
      [
        "åħ¥",
        "å±Ĥ"
      ],
      [
        "åħ¥",
        "è¾ĵåĩº"
      ],
      [
        "äº",
        "«æľīä»Ģä¹Ī"
      ],
      [
        "åĴĮ",
        "è¾ĵåĩº"
      ],
      [
        "æ¨¡åŀĭ",
        "ä½ĵç§"
      ],
      [
        "æĿĥéĩį",
        "åħ±"
      ],
      [
        "å°ĳ",
        "æ¨¡åŀĭä½ĵç§"
      ],
      [
        "èĩ",
        "´"
      ],
      [
        "åĩı",
        "å°ĳæ¨¡åŀĭä½ĵç§"
      ],
      [
        "å±Ĥ",
        "åħ±"
      ],
      [
        "¯å",
        "¹¶ä¿Ŀ"
      ],
      [
        "å¥½",
        "å¤Ħ"
      ],
      [
        "åµĮ",
        "åħ¥å±Ĥ"
      ],
      [
        "æĮ",
        "ģè¾ĵ"
      ],
      [
        "īä¸Ģ",
        "èĩ´"
      ],
      [
        "çĶ¨åı",
        "Ĥæķ°"
      ],
      [
        "è¯Ńä¹",
        "īä¸Ģèĩ´"
      ],
      [
        "åħ¥è¾ĵåĩº",
        "è¯Ńä¹īä¸Ģèĩ´"
      ],
      [
        "äº«æľīä»Ģä¹Ī",
        "å¥½å¤Ħ"
      ],
      [
        "åĴĮè¾ĵåĩº",
        "å±Ĥåħ±"
      ],
      [
        "æĿĥéĩįåħ±",
        "äº«æľīä»Ģä¹Īå¥½å¤Ħ"
      ],
      [
        "åĩıå°ĳæ¨¡åŀĭä½ĵç§",
        "¯å¹¶ä¿Ŀ"
      ],
      [
        "åµĮåħ¥å±Ĥ",
        "åĴĮè¾ĵåĩºå±Ĥåħ±"
      ],
      [
        "æĮģè¾ĵ",
        "åħ¥è¾ĵåĩºè¯Ńä¹īä¸Ģèĩ´"
      ],
      [
        "åĩıå°ĳæ¨¡åŀĭä½ĵç§¯å¹¶ä¿Ŀ",
        "æĮģè¾ĵåħ¥è¾ĵåĩºè¯Ńä¹īä¸Ģèĩ´"
      ],
      [
        "åµĮåħ¥å±ĤåĴĮè¾ĵåĩºå±Ĥåħ±",
        "çĶ¨åıĤæķ°"
      ],
      [
        "è§£éĩĬ",
        "ä¸Ģä¸ĭ"
      ],
      [
        "ĭè",
        "Ĵ¸é¦ı"
      ],
      [
        "æ°´",
        "åĴĮçº¯æ°´æľīä»Ģä¹ĪåĮºåĪ«"
      ],
      [
        "è®²",
        "ä¸Ģä¸"
      ],
      [
        "ĭèĴ¸é¦ı",
        "æ°´åĴĮçº¯æ°´æľīä»Ģä¹ĪåĮºåĪ«"
      ],
      [
        "èĴ¸é¦ıæ°´",
        "åĴĮçº¯æ°´æľīä»Ģä¹ĪåĮºåĪ«"
      ],
      [
        "ä½łçŁ¥éģĵ",
        "ä»Ģä¹Īæĺ¯åĽłæŀľæİ©çłģ"
      ],
      [
        "ä½łçŁ¥éģĵ",
        "è§£éĩĬä¸Ģä¸ĭ"
      ],
      [
        "è¯·éĹ®",
        "RoPE"
      ],
      [
        "å¸®æĪĳè§£éĩĬä¸ĭ",
        "ä»Ģä¹Īæĺ¯"
      ],
      [
        "§",
        "£éĩĬ"
      ],
      [
        "ä¸",
        "ĭèĴ¸é¦ıæ°´åĴĮçº¯æ°´æľīä»Ģä¹ĪåĮºåĪ«"
      ],
      [
        "ĭè",
        "§£éĩĬ"
      ],
      [
        "ä½łçŁ¥éģĵ",
        "ä»Ģä¹Īæĺ¯æľºåĻ¨åŃ¦ä¹ł"
      ],
      [
        "ä½łçŁ¥éģĵ",
        "ä½łæĺ¯è°ģ"
      ],
      [
        "ä½łçŁ¥éģĵ",
        "å¤ªéĺ³ç³»æľīåĵªäºĽè¡ĮæĺŁ"
      ],
      [
        "è¯·éĹ®",
        "ä»Ģä¹Īæĺ¯æ³¨æĦıåĬĽæľºåĪ¶"
      ],
      [
        "è®²ä¸Ģä¸ĭ",
        "ä»Ģä¹Īæĺ¯"
      ],
      [
        "å¸®æĪĳè§£éĩĬä¸ĭ",
        "RoPE"
      ],
      [
        "å¸®æĪĳè§£éĩĬä¸ĭ",
        "ä½łæĺ¯è°ģ"
      ],
      [
        "èĥ½è¯´",
        "ä¸ĭèĴ¸é¦ıæ°´åĴĮçº¯æ°´æľīä»Ģä¹ĪåĮºåĪ«"
      ],
      [
        "è®²ä¸Ģä¸",
        "ĭè§£éĩĬ"
      ],
      [
        "è®²ä¸Ģä¸ĭè§£éĩĬ",
        "ä¸Ģä¸ĭ"
      ],
      [
        "ä½łçŁ¥éģĵ",
        "RoPE"
      ],
      [
        "è¯·éĹ®",
        "ä»Ģä¹Īæĺ¯åĽłæŀľæİ©çłģ"
      ],
      [
        "è¯·éĹ®",
        "æĿĥéĩįåħ±äº«æľīä»Ģä¹Īå¥½å¤Ħ"
      ],
      [
        "è®²ä¸Ģä¸ĭ",
        "RoPE"
      ],
      [
        "è®²ä¸Ģä¸ĭ",
        "RMSNorm"
      ],
      [
        "è®²ä¸Ģä¸ĭ",
        "æĹĭè½¬ä½įç½®ç¼ĸçłģæĺ¯ä»Ģä¹Ī"
      ],
      [
        "èĥ½è¯´ä¸ĭ",
        "ä»Ģä¹Īæĺ¯æľºåĻ¨åŃ¦ä¹ł"
      ],
      [
        "èĥ½è¯´ä¸ĭ",
        "æĹĭè½¬ä½įç½®ç¼ĸçłģæĺ¯ä»Ģä¹Ī"
      ],
      [
        "ä½łçŁ¥éģĵ",
        "æĿĥéĩįåħ±äº«æľīä»Ģä¹Īå¥½å¤Ħ"
      ],
      [
        "è¯·éĹ®",
        "RMSNorm"
      ],
      [
        "è®²ä¸Ģä¸ĭ",
        "ä»Ģä¹Īæĺ¯æ³¨æĦıåĬĽæľºåĪ¶"
      ],
      [
        "è®²ä¸Ģä¸",
        "ĭèĴ¸é¦ıæ°´åĴĮçº¯æ°´æľīä»Ģä¹ĪåĮºåĪ«"
      ],
      [
        "è®²ä¸Ģä¸ĭ",
        "å¤ªéĺ³ç³»æľīåĵªäºĽè¡ĮæĺŁ"
      ]
    ]
  }
}