{
  "version": "1.0",
  "truncation": null,
  "padding": null,
  "added_tokens": [
    {
      "id": 0,
      "content": "<bos>",
      "single_word": false,
      "lstrip": false,
      "rstrip": false,
      "normalized": false,
      "special": true
    },
    {
      "id": 1,
      "content": "<eos>",
      "single_word": false,
      "lstrip": false,
      "rstrip": false,
      "normalized": false,
      "special": true
    },
    {
      "id": 2,
      "content": "<pad>",
      "single_word": false,
      "lstrip": false,
      "rstrip": false,
      "normalized": false,
      "special": true
    },
    {
      "id": 3,
      "content": "<unk>",
      "single_word": false,
      "lstrip": false,
      "rstrip": false,
      "normalized": false,
      "special": true
    }
  ],
  "normalizer": null,
  "pre_tokenizer": {
    "type": "ByteLevel",
    "add_prefix_space": false,
    "trim_offsets": true,
    "use_regex": true
  },
  "post_processor": {
    "type": "TemplateProcessing",
    "single": [
      {
        "SpecialToken": {
          "id": "<bos>",
          "type_id": 0
        }
      },
      {
        "Sequence": {
          "id": "A",
          "type_id": 0
        }
      },
      {
        "SpecialToken": {
          "id": "<eos>",
          "type_id": 0
        }
      }
    ],
    "pair": [
      {
        "Sequence": {
          "id": "A",
          "type_id": 0
        }
      },
      {
        "Sequence": {
          "id": "B",
          "type_id": 1
        }
      }
    ],
    "special_tokens": {
      "<bos>": {
        "id": "<bos>",
        "ids": [
          0
        ],
        "tokens": [
          "<bos>"
        ]
      },
      "<eos>": {
        "id": "<eos>",
        "ids": [
          1
        ],
        "tokens": [
          "<eos>"
        ]
      }
    }
  },
  "decoder": {
    "type": "ByteLevel",
    "add_prefix_space": true,
    "trim_offsets": true,
    "use_regex": true
  },
  "model": {
    "type": "BPE",
    "dropout": null,
    "unk_token": "<unk>",
    "continuing_subword_prefix": null,
    "end_of_word_suffix": null,
    "fuse_unk": false,
    "byte_fallback": false,
    "ignore_merges": false,
    "vocab": {
      "<bos>": 0,
      "<eos>": 1,
      "<pad>": 2,
      "<unk>": 3,
      "(": 4,
      ")": 5,
      "+": 6,
      "0": 7,
      "1": 8,
      "2": 9,
      "5": 10,
      "8": 11,
      ":": 12,
      "C": 13,
      "E": 14,
      "G": 15,
      "I": 16,
      "K": 17,
      "M": 18,
      "N": 19,
      "P": 20,
      "Q": 21,
      "R": 22,
      "S": 23,
      "T": 24,
      "U": 25,
      "V": 26,
      "a": 27,
      "b": 28,
      "e": 29,
      "f": 30,
      "g": 31,
      "h": 32,
      "m": 33,
      "n": 34,
      "o": 35,
      "r": 36,
      "s": 37,
      "t": 38,
      "u": 39,
      "¡": 40,
      "¢": 41,
      "£": 42,
      "¤": 43,
      "¥": 44,
      "¦": 45,
      "§": 46,
      "¨": 47,
      "©": 48,
      "«": 49,
      "¬": 50,
      "®": 51,
      "¯": 52,
      "°": 53,
      "±": 54,
      "²": 55,
      "³": 56,
      "´": 57,
      "µ": 58,
      "¶": 59,
      "·": 60,
      "¸": 61,
      "¹": 62,
      "º": 63,
      "»": 64,
      "¼": 65,
      "½": 66,
      "¾": 67,
      "¿": 68,
      "ã": 69,
      "ä": 70,
      "å": 71,
      "æ": 72,
      "ç": 73,
      "è": 74,
      "é": 75,
      "ï": 76,
      "Ċ": 77,
      "Ģ": 78,
      "ģ": 79,
      "Ĥ": 80,
      "ĥ": 81,
      "Ħ": 82,
      "ħ": 83,
      "Ĩ": 84,
      "ĩ": 85,
      "Ī": 86,
      "ī": 87,
      "Ĭ": 88,
      "ĭ": 89,
      "Į": 90,
      "į": 91,
      "İ": 92,
      "ı": 93,
      "Ĳ": 94,
      "ĳ": 95,
      "Ĵ": 96,
      "ĵ": 97,
      "Ķ": 98,
      "ķ": 99,
      "ĸ": 100,
      "Ĺ": 101,
      "ĺ": 102,
      "Ļ": 103,
      "ļ": 104,
      "Ľ": 105,
      "ľ": 106,
      "Ŀ": 107,
      "ŀ": 108,
      "Ł": 109,
      "ł": 110,
      "Ń": 111,
      "ï¼": 112,
      "¨æ": 113,
      "åĬ": 114,
      "©æ": 115,
      "çĶ": 116,
      "ãĢ": 117,
      "æĺ": 118,
      "Ī·": 119,
      "īĭ": 120,
      "¨æĪ·": 121,
      "åĬ©æ": 122,
      "çĶ¨æĪ·": 123,
      "åĬ©æīĭ": 124,
      "ä½": 125,
      "ıå": 126,
      "ãĢĤ": 127,
      "æĺ¯": 128,
      "ä¸": 129,
      "éĩ": 130,
      "ï¼Į": 131,
      "ï¼Ł": 132,
      "ä»": 133,
      "åº": 134,
      "æ³": 135,
      "çļ": 136,
      "çļĦ": 137,
      "ä¹": 138,
      "¨å": 139,
      "éĢ": 140,
      "Ģä¹": 141,
      "ä»Ģä¹": 142,
      "ä»Ģä¹Ī": 143,
      "è®": 144,
      "°´": 145,
      "æ°´": 146,
      "è¿": 147,
      "ä»Ģä¹Īæĺ¯": 148,
      "¡å": 149,
      "å¤": 150,
      "ç¼": 151,
      "æ³¨æ": 152,
      "ç®": 153,
      "an": 154,
      "¦ı": 155,
      "§¯": 156,
      "¨¡å": 157,
      "¯¹": 158,
      "¸é": 159,
      "åĪ": 160,
      "åľ": 161,
      "åŃ": 162,
      "å¯¹": 163,
      "æĿ": 164,
      "çĲ": 165,
      "ç§¯": 166,
      "èĴ": 167,
      "Ħı": 168,
      "ħ³": 169,
      "Įĸ": 170,
      "įç": 171,
      "ļè¿": 172,
      "ŀĭ": 173,
      "åĬĽ": 174,
      "ıåĮĸ": 175,
      "ä¸º": 176,
      "éĩıåĮĸ": 177,
      "åº¦": 178,
      "åºıå": 179,
      "éĢļè¿": 180,
      "æ³¨æĦı": 181,
      "¨¡åŀĭ": 182,
      "¸é¦ı": 183,
      "åŃĺ": 184,
      "çĲĨ": 185,
      "èĴ¸é¦ı": 186,
      "éĢļè¿ĩ": 187,
      "æ³¨æĦıåĬĽ": 188,
      "ç®Ĺ": 189,
      "or": 190,
      "¡æ": 191,
      "¢¯": 192,
      "§£": 193,
      "¯ç§¯": 194,
      "´¯ç§¯": 195,
      "½®": 196,
      "ä¿": 197,
      "åĨ": 198,
      "åĩ": 199,
      "åħ³": 200,
      "æı": 201,
      "æ¢¯": 202,
      "ç»": 203,
      "ç´¯ç§¯": 204,
      "è§£": 205,
      "Ģģ": 206,
      "ĪĹ": 207,
      "¨æĢģ": 208,
      "åĬ¨æĢģ": 209,
      "ä½įç": 210,
      "åºıåĪĹ": 211,
      "orm": 212,
      "æıĲ": 213,
      "æ¢¯åº¦": 214,
      "ä½įç½®": 215,
      "¡ç®Ĺ": 216,
      "è®¡ç®Ĺ": 217,
      "KV": 218,
      "MS": 219,
      "Norm": 220,
      "PE": 221,
      "Qu": 222,
      "Ro": 223,
      "RMS": 224,
      "Tu": 225,
      "bo": 226,
      "rbo": 227,
      "¡Į": 228,
      "¨çĲĨ": 229,
      "¯æ°´": 230,
      "°ı": 231,
      "¹æ": 232,
      "ºĨ": 233,
      "ºåĪ": 234,
      "º¯æ°´": 235,
      "äºĨ": 236,
      "åį": 237,
      "åİ": 238,
      "åĲ": 239,
      "æĸ": 240,
      "æĹ": 241,
      "æŀ": 242,
      "æ¨¡åŀĭ": 243,
      "çĽ": 244,
      "çł": 245,
      "çº¯æ°´": 246,
      "è°": 247,
      "è´": 248,
      "è¡Į": 249,
      "éĥ": 250,
      "éĻ": 251,
      "ģ¯": 252,
      "Ĥè´": 253,
      "ĥéĩ": 254,
      "ħåŃĺ": 255,
      "ĨæĿ": 256,
      "ĩæĸ": 257,
      "İ¨çĲĨ": 258,
      "Ķç": 259,
      "ĸçł": 260,
      "Ľè¡Į": 261,
      "ľĢ": 262,
      "Łå¤": 263,
      "Ńç»": 264,
      "©æ¨¡åŀĭ": 265,
      "ãĢģ": 266,
      "æĺ¾": 267,
      "ä½İ": 268,
      "ä½ľ": 269,
      "ä¸ĭ": 270,
      "éĩĬ": 271,
      "çļĦæ°´": 272,
      "¨åĪ": 273,
      "è®Ńç»": 274,
      "è®©æ¨¡åŀĭ": 275,
      "è¿Ľè¡Į": 276,
      "ç¼ĸçł": 277,
      "ant": 278,
      "åľ¨å": 279,
      "èĴ¸é¦ıæ°´": 280,
      "¡æģ¯": 281,
      "ä¿¡æģ¯": 282,
      "åĨħåŃĺ": 283,
      "åĩıå": 284,
      "è§£éĩĬ": 285,
      "åĬ¨æĢģéĩıåĮĸ": 286,
      "æ¢¯åº¦ç´¯ç§¯": 287,
      "ä½įç½®ç¼ĸçł": 288,
      "Quant": 289,
      "RoPE": 290,
      "RMSNorm": 291,
      "Turbo": 292,
      "æĹ¶": 293,
      "çĽ¸": 294,
      "éĥ¨åĪ": 295,
      "ĥéĩį": 296,
      "è®Ńç»ĥ": 297,
      "ä½įç½®ç¼ĸçłģ": 298,
      "TurboQuant": 299,
      "ä»¥": 300,
      "CP": 301,
      "Ch": 302,
      "GP": 303,
      "IN": 304,
      "Tr": 305,
      "Tæ": 306,
      "Tan": 307,
      "Uè®¡ç®Ĺ": 308,
      "en": 309,
      "er": 310,
      "form": 311,
      "gè®Ńç»ĥ": 312,
      "gCh": 313,
      "sform": 314,
      "¡º": 315,
      "¡è®Ńç»ĥ": 316,
      "¤º": 317,
      "¤Ħ": 318,
      "¤äºĨ": 319,
      "¥æ³¨æĦıåĬĽ": 320,
      "¥ä½ľ": 321,
      "¦ģ": 322,
      "¦Ĥ": 323,
      "§æ": 324,
      "§éĥ¨åĪ": 325,
      "¨ä¸": 326,
      "¨éĩ": 327,
      "¨¡æ": 328,
      "©ç®Ĺ": 329,
      "«ĺ": 330,
      "«éĩ": 331,
      "¬¡å": 332,
      "¬ä¸º": 333,
      "¬¡è®Ńç»ĥ": 334,
      "®å": 335,
      "®ĥ": 336,
      "¯į": 337,
      "¯Ķç": 338,
      "¯ä»¥": 339,
      "°ĳ": 340,
      "°ĨæĿ": 341,
      "±ç": 342,
      "±Tan": 343,
      "²¾": 344,
      "³»": 345,
      "´å": 346,
      "µä¸ĭ": 347,
      "¶å¤": 348,
      "¶åĩıå": 349,
      "·å": 350,
      "·æ": 351,
      "·¥ä½ľ": 352,
      "¸Ĺ": 353,
      "¹å": 354,
      "¹éĩıåĮĸ": 355,
      "¹è¿Ľè¡Į": 356,
      "¹¶åĩıå": 357,
      "ºçļĦ": 358,
      "»éĻ": 359,
      "¼ł": 360,
      "¼ıå": 361,
      "¼å¯¹": 362,
      "¼Ķç": 363,
      "½åĬ¨æĢģ": 364,
      "½¬ä¸º": 365,
      "¾Ĺ": 366,
      "¾Ľ": 367,
      "¿«": 368,
      "¿åºıåĪĹ": 369,
      "ä¼ł": 370,
      "ä¾Ľ": 371,
      "åĮ": 372,
      "åı": 373,
      "å°ı": 374,
      "å¦Ĥ": 375,
      "å®ĥ": 376,
      "å°ĨæĿ": 377,
      "å·¥ä½ľ": 378,
      "å¹¶åĩıå": 379,
      "æĥ": 380,
      "æĪ": 381,
      "æĬ": 382,
      "æĮ": 383,
      "æį": 384,
      "æĴ": 385,
      "æķ": 386,
      "æĽ": 387,
      "æľ": 388,
      "æİ¨çĲĨ": 389,
      "æ¨¡æ": 390,
      "æ¬¡å": 391,
      "æ¯Ķç": 392,
      "æ¸Ĺ": 393,
      "çķ": 394,
      "çľ": 395,
      "çŃ": 396,
      "ç³»": 397,
      "èĢ": 398,
      "èĥ": 399,
      "èĬ": 400,
      "èİ": 401,
      "èĳ": 402,
      "è¦ģ": 403,
      "è¯į": 404,
      "è½¬ä¸º": 405,
      "éħ": 406,
      "éĶ": 407,
      "éķ": 408,
      "éľĢ": 409,
      "é¡º": 410,
      "é«ĺ": 411,
      "Ģåį": 412,
      "Ģ¼å¯¹": 413,
      "ģæĺ¾": 414,
      "ģä½İ": 415,
      "Ĥ¹": 416,
      "ĤåĲ": 417,
      "Ĥçľ": 418,
      "Ħç®": 419,
      "ħåĨ": 420,
      "ħ¥æ³¨æĦıåĬĽ": 421,
      "Ĩéħ": 422,
      "ĩå¯¹": 423,
      "ĩæĿ": 424,
      "Īå°ı": 425,
      "īį": 426,
      "ī¹æ": 427,
      "ī¹éĩıåĮĸ": 428,
      "ĬçĽ¸": 429,
      "ĭç¼": 430,
      "ĭŁå¤": 431,
      "Įåľ": 432,
      "ĮæıĲ": 433,
      "įæĿ": 434,
      "įåºıå": 435,
      "įæĺ¾": 436,
      "įæ¸Ĺ": 437,
      "İçº¯æ°´": 438,
      "İèĢ": 439,
      "ıĹ": 440,
      "ıæŀ": 441,
      "ıä¿¡æģ¯": 442,
      "ı¯ä»¥": 443,
      "ıçŃ": 444,
      "ĲåĨħåŃĺ": 445,
      "Ĳ«éĩ": 446,
      "ĳæĺ¯": 447,
      "ĳä¼ł": 448,
      "ĵç§¯": 449,
      "ĵåŃĺ": 450,
      "ĵæŀ": 451,
      "Ķ¾": 452,
      "Ķé«ĺ": 453,
      "ķå·¥ä½ľ": 454,
      "Ĺæį": 455,
      "Ļä½": 456,
      "ļæ¬¡å": 457,
      "Ŀĩæĸ": 458,
      "Ŀçķ": 459,
      "ŁCP": 460,
      "łæĺ¯": 461,
      "łéĢ": 462,
      "ł¹è¿Ľè¡Į": 463,
      "Ńç´¯ç§¯": 464,
      "Ńè¯į": 465,
      "ŃĮæıĲ": 466,
      "ï¼Ľ": 467,
      "¨æİ¨çĲĨ": 468,
      "åĬłéĢ": 469,
      "©æĶ¾": 470,
      "çĶ¨": 471,
      "çĶ¨å": 472,
      "çĶ±Tan": 473,
      "ä½ĵç§¯": 474,
      "ä½ķå·¥ä½ľ": 475,
      "ä½łæĺ¯": 476,
      "æĺ¯èĴ¸é¦ı": 477,
      "æĺ¯éĢļè¿ĩ": 478,
      "æĺ¯æĮ": 479,
      "ä¸İçº¯æ°´": 480,
      "ä¸Ķé«ĺ": 481,
      "ä¸Ńè¯į": 482,
      "ä»İèĢ": 483,
      "åºıä¿¡æģ¯": 484,
      "æ³ķ": 485,
      "æ³¨å": 486,
      "æ³¨éĩ": 487,
      "çļĦä½ľ": 488,
      "çļĦéĥ¨åĪ": 489,
      "çļĦGP": 490,
      "çļĦæĥ": 491,
      "çļĦé¡º": 492,
      "¨åĲ«éĩ": 493,
      "éĢĤåĲ": 494,
      "éĢıçŃ": 495,
      "ä»Ģä¹ĪéľĢ": 496,
      "ä»Ģä¹Īæĺ¯æ³¨æĦıåĬĽ": 497,
      "ä»Ģä¹Īæĺ¯åĬ¨æĢģéĩıåĮĸ": 498,
      "ä»Ģä¹Īæĺ¯æ¢¯åº¦ç´¯ç§¯": 499,
      "ä»Ģä¹Īæĺ¯RMSNorm": 500,
      "ä»Ģä¹Īæĺ¯ä½įç½®ç¼ĸçłģ": 501,
      "ä»Ģä¹Īæĺ¯TurboQuant": 502,
      "å¤§éĥ¨åĪ": 503,
      "å¤ļæ¬¡å": 504,
      "ç¼ĵåŃĺ": 505,
      "ç¼©æĶ¾": 506,
      "æ³¨æľĢ": 507,
      "ansform": 508,
      "åĪ¶å¤": 509,
      "åĪĨéħ": 510,
      "åľ¨æİ¨çĲĨ": 511,
      "å¯¹ä½įç½®": 512,
      "å¯¹éĶ": 513,
      "ħ³ç³»": 514,
      "įçĤ¹": 515,
      "ä¸ºäºĨ": 516,
      "ä¸ºTr": 517,
      "ä¸ºä»Ģä¹ĪéľĢ": 518,
      "éĩıåĮĸåĩıå": 519,
      "åº¦çļĦæĥ": 520,
      "çĲĨè§£": 521,
      "çĲĨéķ": 522,
      "èĴ¸é¦ıèİ": 523,
      "éĢļè¿ĩå¤ļæ¬¡å": 524,
      "éĢļè¿ĩåĪĨéħ": 525,
      "éĢļè¿ĩéĩıåĮĸåĩıå": 526,
      "æ³¨æĦıåĬĽéĢļè¿ĩåĪĨéħ": 527,
      "ä¿Ŀçķ": 528,
      "åĩºçļĦ": 529,
      "åħ³æ³¨éĩ": 530,
      "åħ³çļĦéĥ¨åĪ": 531,
      "åħ³æ³¨æľĢ": 532,
      "ç»ĵæŀ": 533,
      "åºıåĪĹä¸Ńè¯į": 534,
      "åºıåĪĹçĲĨè§£": 535,
      "æıĲåį": 536,
      "æıĲä¾Ľ": 537,
      "è®¡ç®ĹæĽ": 538,
      "KVç¼ĵåŃĺ": 539,
      "°ıä½ĵç§¯": 540,
      "¹æł¹è¿Ľè¡Į": 541,
      "ºåĪ«": 542,
      "ºåĪ¶": 543,
      "åİ»éĻ": 544,
      "åİĭç¼": 545,
      "åĲĳä¼ł": 546,
      "çº¯æ°´æĺ¯æĮ": 547,
      "è°ģ": 548,
      "è°·æ": 549,
      "éĻĲåĨħåŃĺ": 550,
      "Ĥè´¨": 551,
      "Ĥè´¨åĲ«éĩ": 552,
      "ĨæĿĤè´¨": 553,
      "ĩæĸ¹å": 554,
      "Łå¤±ç": 555,
      "ä½İæ¯Ķç": 556,
      "ä¸ĭéĢļè¿ĩå¤ļæ¬¡å": 557,
      "è®©æ¨¡åŀĭåľ¨å": 558,
      "è®©æ¨¡åŀĭåħ³æ³¨éĩ": 559,
      "è¿Ľè¡Įä½İæ¯Ķç": 560,
      "åľ¨åıĹ": 561,
      "èĴ¸é¦ıæ°´æĺ¯éĢļè¿ĩ": 562,
      "èĴ¸é¦ıæ°´ä¸İçº¯æ°´": 563,
      "ä¿¡æģ¯æ³¨å": 564,
      "è§£éĩĬRoPE": 565,
      "è§£éĩĬèĴ¸é¦ıæ°´ä¸İçº¯æ°´": 566,
      "åĬ¨æĢģéĩıåĮĸåľ¨æİ¨çĲĨ": 567,
      "æ¢¯åº¦ç´¯ç§¯åľ¨åıĹ": 568,
      "RoPEæĬ": 569,
      "RMSNormçĶ¨å": 570,
      "æĹ¶å°ĨæĿ": 571,
      "æĹ¶èĥ": 572,
      "çĽ¸åħ³çļĦéĥ¨åĪ": 573,
      "ĥéĩįè½¬ä¸º": 574,
      "ĥéĩįè®©æ¨¡åŀĭåħ³æ³¨éĩ": 575,
      "ä½įç½®ç¼ĸçłģä¸ºTr": 576,
      "TurboQuantå¦Ĥ": 577,
      "INT": 578,
      "Tæ¼Ķç": 579,
      "Uè®¡ç®Ĺå¹¶åĩıå": 580,
      "engè®Ńç»ĥ": 581,
      "eræıĲä¾Ľ": 582,
      "gChengè®Ńç»ĥ": 583,
      "¤ºæ¨¡åŀĭ": 584,
      "¤ĦçĲĨéķ": 585,
      "¤äºĨå¤§éĥ¨åĪ": 586,
      "§æī¹æ": 587,
      "¨ä¸įæĺ¾": 588,
      "©ç®Ĺæ³ķ": 589,
      "®åĢ¼å¯¹": 590,
      "°ĳæİ¨çĲĨ": 591,
      "²¾åº¦çļĦæĥ": 592,
      "´å¿«": 593,
      "µä¸ĭèĬ": 594,
      "·å¾Ĺ": 595,
      "¼ıåı¯ä»¥": 596,
      "½åĬ¨æĢģåħ³æ³¨æľĢ": 597,
      "¿åºıåĪĹæĹ¶èĥ": 598,
      "åĮºåĪ«": 599,
      "åıįæ¸Ĺ": 600,
      "å®ĥå¯¹éĶ": 601,
      "æĪĳæĺ¯": 602,
      "æĴŃç´¯ç§¯": 603,
      "æķĪ": 604,
      "æľºåĪ¶": 605,
      "æ¨¡æĭŁå¤": 606,
      "èĳĹæį": 607,
      "è¦ģæ³¨æĦıåĬĽ": 608,
      "Ģåįķ": 609,
      "ģæĺ¾åŃĺ": 610,
      "ģä½İçļĦæ°´": 611,
      "Ĥçľģæĺ¾åŃĺ": 612,
      "Ħç®Ģåįķ": 613,
      "ħåĨµä¸ĭèĬ": 614,
      "ĩå¯¹åºıåĪĹçĲĨè§£": 615,
      "ĩæĿĤè´¨åĲ«éĩ": 616,
      "Īå°ıæ¨¡åŀĭ": 617,
      "īįåĲĳä¼ł": 618,
      "ĬçĽ¸å¯¹ä½įç½®": 619,
      "Įåľ¨ä¸įæĺ¾": 620,
      "įæĿĥéĩįè®©æ¨¡åŀĭåħ³æ³¨éĩ": 621,
      "įåºıåħ³ç³»": 622,
      "ıæŀģä½İçļĦæ°´": 623,
      "Ļä½įåºıåħ³ç³»": 624,
      "Ŀĩæĸ¹æł¹è¿Ľè¡Į": 625,
      "ŁCPUè®¡ç®Ĺå¹¶åĩıå": 626,
      "ŃĮæıĲåĩºçļĦ": 627,
      "åĬłéĢŁCPUè®¡ç®Ĺå¹¶åĩıå": 628,
      "çĶ±TangChengè®Ńç»ĥ": 629,
      "ä½łæĺ¯è°ģ": 630,
      "ä¸Ķé«ĺæķĪ": 631,
      "ä»İèĢĮåľ¨ä¸įæĺ¾": 632,
      "çļĦä½ľçĶ¨": 633,
      "çļĦGPTæ¼Ķç": 634,
      "çļĦé¡ºåºıä¿¡æģ¯": 635,
      "éĢĤåĲĪå°ıæ¨¡åŀĭ": 636,
      "éĢıçŃī": 637,
      "ä»Ģä¹Īæĺ¯æ³¨æĦıåĬĽæľºåĪ¶": 638,
      "ansformeræıĲä¾Ľ": 639,
      "åĪ¶å¤ĩæĸ¹å": 640,
      "ä¸ºäºĨè®©æ¨¡åŀĭåľ¨å": 641,
      "ä¸ºä»Ģä¹ĪéľĢè¦ģæ³¨æĦıåĬĽ": 642,
      "èĴ¸é¦ıèİ·å¾Ĺ": 643,
      "éĢļè¿ĩéĩıåĮĸåĩıå°ĳæİ¨çĲĨ": 644,
      "æ³¨æĦıåĬĽéĢļè¿ĩåĪĨéħįæĿĥéĩįè®©æ¨¡åŀĭåħ³æ³¨éĩ": 645,
      "ä¿ĿçķĻä½įåºıåħ³ç³»": 646,
      "ç»ĵæŀĦç®Ģåįķ": 647,
      "åºıåĪĹä¸Ńè¯įçļĦé¡ºåºıä¿¡æģ¯": 648,
      "æıĲåįĩå¯¹åºıåĪĹçĲĨè§£": 649,
      "è®¡ç®ĹæĽ´å¿«": 650,
      "KVç¼ĵåŃĺåİĭç¼": 651,
      "åİ»éĻ¤äºĨå¤§éĥ¨åĪ": 652,
      "çº¯æ°´æĺ¯æĮĩæĿĤè´¨åĲ«éĩ": 653,
      "è°·æŃĮæıĲåĩºçļĦ": 654,
      "éĻĲåĨħåŃĺä¸ĭéĢļè¿ĩå¤ļæ¬¡å": 655,
      "Łå¤±ç²¾åº¦çļĦæĥ": 656,
      "è¿Ľè¡Įä½İæ¯Ķçī¹éĩıåĮĸ": 657,
      "èĴ¸é¦ıæ°´æĺ¯éĢļè¿ĩèĴ¸é¦ıèİ·å¾Ĺ": 658,
      "ä¿¡æģ¯æ³¨åħ¥æ³¨æĦıåĬĽ": 659,
      "è§£éĩĬRoPEçļĦä½ľçĶ¨": 660,
      "è§£éĩĬèĴ¸é¦ıæ°´ä¸İçº¯æ°´åĮºåĪ«": 661,
      "åĬ¨æĢģéĩıåĮĸåľ¨æİ¨çĲĨæĹ¶å°ĨæĿ": 662,
      "æ¢¯åº¦ç´¯ç§¯åľ¨åıĹéĻĲåĨħåŃĺä¸ĭéĢļè¿ĩå¤ļæ¬¡å": 663,
      "RoPEæĬĬçĽ¸å¯¹ä½įç½®": 664,
      "RMSNormçĶ¨åĿĩæĸ¹æł¹è¿Ľè¡Į": 665,
      "çĽ¸åħ³çļĦéĥ¨åĪĨ": 666,
      "ĥéĩįè½¬ä¸ºINT": 667,
      "ä½įç½®ç¼ĸçłģä¸ºTransformeræıĲä¾Ľ": 668,
      "TurboQuantå¦Ĥä½ķå·¥ä½ľ": 669,
      "¤ĦçĲĨéķ¿åºıåĪĹæĹ¶èĥ": 670,
      "§æī¹æ¬¡è®Ńç»ĥ": 671,
      "¼ıåı¯ä»¥æĺ¯èĴ¸é¦ı": 672,
      "½åĬ¨æĢģåħ³æ³¨æľĢçĽ¸åħ³çļĦéĥ¨åĪĨ": 673,
      "åıįæ¸ĹéĢıçŃī": 674,
      "å®ĥå¯¹éĶ®åĢ¼å¯¹": 675,
      "æĪĳæĺ¯çĶ±TangChengè®Ńç»ĥ": 676,
      "æĴŃç´¯ç§¯æ¢¯åº¦": 677,
      "æ¨¡æĭŁå¤§æī¹æ¬¡è®Ńç»ĥ": 678,
      "èĳĹæįŁå¤±ç²¾åº¦çļĦæĥ": 679,
      "ħåĨµä¸ĭèĬĤçľģæĺ¾åŃĺ": 680,
      "īįåĲĳä¼łæĴŃç´¯ç§¯æ¢¯åº¦": 681,
      "åĬłéĢŁCPUè®¡ç®Ĺå¹¶åĩıå°ıä½ĵç§¯": 682,
      "ä»İèĢĮåľ¨ä¸įæĺ¾èĳĹæįŁå¤±ç²¾åº¦çļĦæĥ": 683,
      "çļĦGPTæ¼Ķç¤ºæ¨¡åŀĭ": 684,
      "åĪ¶å¤ĩæĸ¹å¼ıåı¯ä»¥æĺ¯èĴ¸é¦ı": 685,
      "ä¸ºäºĨè®©æ¨¡åŀĭåľ¨å¤ĦçĲĨéķ¿åºıåĪĹæĹ¶èĥ": 686,
      "éĢļè¿ĩéĩıåĮĸåĩıå°ĳæİ¨çĲĨåĨħåŃĺ": 687,
      "æ³¨æĦıåĬĽéĢļè¿ĩåĪĨéħįæĿĥéĩįè®©æ¨¡åŀĭåħ³æ³¨éĩįçĤ¹": 688,
      "ä¿ĿçķĻä½įåºıåħ³ç³»ä¸Ķé«ĺæķĪ": 689,
      "KVç¼ĵåŃĺåİĭç¼©ç®Ĺæ³ķ": 690,
      "åİ»éĻ¤äºĨå¤§éĥ¨åĪĨæĿĤè´¨": 691,
      "çº¯æ°´æĺ¯æĮĩæĿĤè´¨åĲ«éĩıæŀģä½İçļĦæ°´": 692,
      "è°·æŃĮæıĲåĩºçļĦKVç¼ĵåŃĺåİĭç¼©ç®Ĺæ³ķ": 693,
      "èĴ¸é¦ıæ°´æĺ¯éĢļè¿ĩèĴ¸é¦ıèİ·å¾ĹçļĦæ°´": 694,
      "åĬ¨æĢģéĩıåĮĸåľ¨æİ¨çĲĨæĹ¶å°ĨæĿĥéĩįè½¬ä¸ºINT": 695,
      "æ¢¯åº¦ç´¯ç§¯åľ¨åıĹéĻĲåĨħåŃĺä¸ĭéĢļè¿ĩå¤ļæ¬¡åīįåĲĳä¼łæĴŃç´¯ç§¯æ¢¯åº¦": 696,
      "RoPEæĬĬçĽ¸å¯¹ä½įç½®ä¿¡æģ¯æ³¨åħ¥æ³¨æĦıåĬĽ": 697,
      "RMSNormçĶ¨åĿĩæĸ¹æł¹è¿Ľè¡Įç¼©æĶ¾": 698,
      "ä½įç½®ç¼ĸçłģä¸ºTransformeræıĲä¾ĽåºıåĪĹä¸Ńè¯įçļĦé¡ºåºıä¿¡æģ¯": 699,
      "æĪĳæĺ¯çĶ±TangChengè®Ńç»ĥçļĦGPTæ¼Ķç¤ºæ¨¡åŀĭ": 700,
      "ä»İèĢĮåľ¨ä¸įæĺ¾èĳĹæįŁå¤±ç²¾åº¦çļĦæĥħåĨµä¸ĭèĬĤçľģæĺ¾åŃĺ": 701,
      "ä¸ºäºĨè®©æ¨¡åŀĭåľ¨å¤ĦçĲĨéķ¿åºıåĪĹæĹ¶èĥ½åĬ¨æĢģåħ³æ³¨æľĢçĽ¸åħ³çļĦéĥ¨åĪĨ": 702,
      "10": 703,
      "12": 704,
      "22": 705,
      "25": 706,
      "ĺä»¥": 707,
      "ä¹ĺä»¥": 708
    },
    "merges": [
      [
        "ï",
        "¼"
      ],
      [
        "¨",
        "æ"
      ],
      [
        "å",
        "Ĭ"
      ],
      [
        "©",
        "æ"
      ],
      [
        "ç",
        "Ķ"
      ],
      [
        "ã",
        "Ģ"
      ],
      [
        "æ",
        "ĺ"
      ],
      [
        "Ī",
        "·"
      ],
      [
        "ī",
        "ĭ"
      ],
      [
        "¨æ",
        "Ī·"
      ],
      [
        "åĬ",
        "©æ"
      ],
      [
        "çĶ",
        "¨æĪ·"
      ],
      [
        "åĬ©æ",
        "īĭ"
      ],
      [
        "ä",
        "½"
      ],
      [
        "ı",
        "å"
      ],
      [
        "ãĢ",
        "Ĥ"
      ],
      [
        "æĺ",
        "¯"
      ],
      [
        "ä",
        "¸"
      ],
      [
        "é",
        "ĩ"
      ],
      [
        "ï¼",
        "Į"
      ],
      [
        "ï¼",
        "Ł"
      ],
      [
        "ä",
        "»"
      ],
      [
        "å",
        "º"
      ],
      [
        "æ",
        "³"
      ],
      [
        "ç",
        "ļ"
      ],
      [
        "çļ",
        "Ħ"
      ],
      [
        "ä",
        "¹"
      ],
      [
        "¨",
        "å"
      ],
      [
        "é",
        "Ģ"
      ],
      [
        "Ģ",
        "ä¹"
      ],
      [
        "ä»",
        "Ģä¹"
      ],
      [
        "ä»Ģä¹",
        "Ī"
      ],
      [
        "è",
        "®"
      ],
      [
        "°",
        "´"
      ],
      [
        "æ",
        "°´"
      ],
      [
        "è",
        "¿"
      ],
      [
        "ä»Ģä¹Ī",
        "æĺ¯"
      ],
      [
        "¡",
        "å"
      ],
      [
        "å",
        "¤"
      ],
      [
        "ç",
        "¼"
      ],
      [
        "æ³",
        "¨æ"
      ],
      [
        "ç",
        "®"
      ],
      [
        "a",
        "n"
      ],
      [
        "¦",
        "ı"
      ],
      [
        "§",
        "¯"
      ],
      [
        "¨",
        "¡å"
      ],
      [
        "¯",
        "¹"
      ],
      [
        "¸",
        "é"
      ],
      [
        "å",
        "Ī"
      ],
      [
        "å",
        "ľ"
      ],
      [
        "å",
        "Ń"
      ],
      [
        "å",
        "¯¹"
      ],
      [
        "æ",
        "Ŀ"
      ],
      [
        "ç",
        "Ĳ"
      ],
      [
        "ç",
        "§¯"
      ],
      [
        "è",
        "Ĵ"
      ],
      [
        "Ħ",
        "ı"
      ],
      [
        "ħ",
        "³"
      ],
      [
        "Į",
        "ĸ"
      ],
      [
        "į",
        "ç"
      ],
      [
        "ļ",
        "è¿"
      ],
      [
        "ŀ",
        "ĭ"
      ],
      [
        "åĬ",
        "Ľ"
      ],
      [
        "ıå",
        "Įĸ"
      ],
      [
        "ä¸",
        "º"
      ],
      [
        "éĩ",
        "ıåĮĸ"
      ],
      [
        "åº",
        "¦"
      ],
      [
        "åº",
        "ıå"
      ],
      [
        "éĢ",
        "ļè¿"
      ],
      [
        "æ³¨æ",
        "Ħı"
      ],
      [
        "¨¡å",
        "ŀĭ"
      ],
      [
        "¸é",
        "¦ı"
      ],
      [
        "åŃ",
        "ĺ"
      ],
      [
        "çĲ",
        "Ĩ"
      ],
      [
        "èĴ",
        "¸é¦ı"
      ],
      [
        "éĢļè¿",
        "ĩ"
      ],
      [
        "æ³¨æĦı",
        "åĬĽ"
      ],
      [
        "ç®",
        "Ĺ"
      ],
      [
        "o",
        "r"
      ],
      [
        "¡",
        "æ"
      ],
      [
        "¢",
        "¯"
      ],
      [
        "§",
        "£"
      ],
      [
        "¯",
        "ç§¯"
      ],
      [
        "´",
        "¯ç§¯"
      ],
      [
        "½",
        "®"
      ],
      [
        "ä",
        "¿"
      ],
      [
        "å",
        "Ĩ"
      ],
      [
        "å",
        "ĩ"
      ],
      [
        "å",
        "ħ³"
      ],
      [
        "æ",
        "ı"
      ],
      [
        "æ",
        "¢¯"
      ],
      [
        "ç",
        "»"
      ],
      [
        "ç",
        "´¯ç§¯"
      ],
      [
        "è",
        "§£"
      ],
      [
        "Ģ",
        "ģ"
      ],
      [
        "Ī",
        "Ĺ"
      ],
      [
        "¨æ",
        "Ģģ"
      ],
      [
        "åĬ",
        "¨æĢģ"
      ],
      [
        "ä½",
        "įç"
      ],
      [
        "åºıå",
        "ĪĹ"
      ],
      [
        "or",
        "m"
      ],
      [
        "æı",
        "Ĳ"
      ],
      [
        "æ¢¯",
        "åº¦"
      ],
      [
        "ä½įç",
        "½®"
      ],
      [
        "¡",
        "ç®Ĺ"
      ],
      [
        "è®",
        "¡ç®Ĺ"
      ],
      [
        "K",
        "V"
      ],
      [
        "M",
        "S"
      ],
      [
        "N",
        "orm"
      ],
      [
        "P",
        "E"
      ],
      [
        "Q",
        "u"
      ],
      [
        "R",
        "o"
      ],
      [
        "R",
        "MS"
      ],
      [
        "T",
        "u"
      ],
      [
        "b",
        "o"
      ],
      [
        "r",
        "bo"
      ],
      [
        "¡",
        "Į"
      ],
      [
        "¨",
        "çĲĨ"
      ],
      [
        "¯",
        "æ°´"
      ],
      [
        "°",
        "ı"
      ],
      [
        "¹",
        "æ"
      ],
      [
        "º",
        "Ĩ"
      ],
      [
        "º",
        "åĪ"
      ],
      [
        "º",
        "¯æ°´"
      ],
      [
        "ä",
        "ºĨ"
      ],
      [
        "å",
        "į"
      ],
      [
        "å",
        "İ"
      ],
      [
        "å",
        "Ĳ"
      ],
      [
        "æ",
        "ĸ"
      ],
      [
        "æ",
        "Ĺ"
      ],
      [
        "æ",
        "ŀ"
      ],
      [
        "æ",
        "¨¡åŀĭ"
      ],
      [
        "ç",
        "Ľ"
      ],
      [
        "ç",
        "ł"
      ],
      [
        "ç",
        "º¯æ°´"
      ],
      [
        "è",
        "°"
      ],
      [
        "è",
        "´"
      ],
      [
        "è",
        "¡Į"
      ],
      [
        "é",
        "ĥ"
      ],
      [
        "é",
        "Ļ"
      ],
      [
        "ģ",
        "¯"
      ],
      [
        "Ĥ",
        "è´"
      ],
      [
        "ĥ",
        "éĩ"
      ],
      [
        "ħ",
        "åŃĺ"
      ],
      [
        "Ĩ",
        "æĿ"
      ],
      [
        "ĩ",
        "æĸ"
      ],
      [
        "İ",
        "¨çĲĨ"
      ],
      [
        "Ķ",
        "ç"
      ],
      [
        "ĸ",
        "çł"
      ],
      [
        "Ľ",
        "è¡Į"
      ],
      [
        "ľ",
        "Ģ"
      ],
      [
        "Ł",
        "å¤"
      ],
      [
        "Ń",
        "ç»"
      ],
      [
        "©æ",
        "¨¡åŀĭ"
      ],
      [
        "ãĢ",
        "ģ"
      ],
      [
        "æĺ",
        "¾"
      ],
      [
        "ä½",
        "İ"
      ],
      [
        "ä½",
        "ľ"
      ],
      [
        "ä¸",
        "ĭ"
      ],
      [
        "éĩ",
        "Ĭ"
      ],
      [
        "çļĦ",
        "æ°´"
      ],
      [
        "¨å",
        "Ī"
      ],
      [
        "è®",
        "Ńç»"
      ],
      [
        "è®",
        "©æ¨¡åŀĭ"
      ],
      [
        "è¿",
        "Ľè¡Į"
      ],
      [
        "ç¼",
        "ĸçł"
      ],
      [
        "an",
        "t"
      ],
      [
        "åľ",
        "¨å"
      ],
      [
        "èĴ¸é¦ı",
        "æ°´"
      ],
      [
        "¡æ",
        "ģ¯"
      ],
      [
        "ä¿",
        "¡æģ¯"
      ],
      [
        "åĨ",
        "ħåŃĺ"
      ],
      [
        "åĩ",
        "ıå"
      ],
      [
        "è§£",
        "éĩĬ"
      ],
      [
        "åĬ¨æĢģ",
        "éĩıåĮĸ"
      ],
      [
        "æ¢¯åº¦",
        "ç´¯ç§¯"
      ],
      [
        "ä½įç½®",
        "ç¼ĸçł"
      ],
      [
        "Qu",
        "ant"
      ],
      [
        "Ro",
        "PE"
      ],
      [
        "RMS",
        "Norm"
      ],
      [
        "Tu",
        "rbo"
      ],
      [
        "æĹ",
        "¶"
      ],
      [
        "çĽ",
        "¸"
      ],
      [
        "éĥ",
        "¨åĪ"
      ],
      [
        "ĥéĩ",
        "į"
      ],
      [
        "è®Ńç»",
        "ĥ"
      ],
      [
        "ä½įç½®ç¼ĸçł",
        "ģ"
      ],
      [
        "Turbo",
        "Quant"
      ],
      [
        "ä»",
        "¥"
      ],
      [
        "C",
        "P"
      ],
      [
        "C",
        "h"
      ],
      [
        "G",
        "P"
      ],
      [
        "I",
        "N"
      ],
      [
        "T",
        "r"
      ],
      [
        "T",
        "æ"
      ],
      [
        "T",
        "an"
      ],
      [
        "U",
        "è®¡ç®Ĺ"
      ],
      [
        "e",
        "n"
      ],
      [
        "e",
        "r"
      ],
      [
        "f",
        "orm"
      ],
      [
        "g",
        "è®Ńç»ĥ"
      ],
      [
        "g",
        "Ch"
      ],
      [
        "s",
        "form"
      ],
      [
        "¡",
        "º"
      ],
      [
        "¡",
        "è®Ńç»ĥ"
      ],
      [
        "¤",
        "º"
      ],
      [
        "¤",
        "Ħ"
      ],
      [
        "¤",
        "äºĨ"
      ],
      [
        "¥",
        "æ³¨æĦıåĬĽ"
      ],
      [
        "¥",
        "ä½ľ"
      ],
      [
        "¦",
        "ģ"
      ],
      [
        "¦",
        "Ĥ"
      ],
      [
        "§",
        "æ"
      ],
      [
        "§",
        "éĥ¨åĪ"
      ],
      [
        "¨",
        "ä¸"
      ],
      [
        "¨",
        "éĩ"
      ],
      [
        "¨",
        "¡æ"
      ],
      [
        "©",
        "ç®Ĺ"
      ],
      [
        "«",
        "ĺ"
      ],
      [
        "«",
        "éĩ"
      ],
      [
        "¬",
        "¡å"
      ],
      [
        "¬",
        "ä¸º"
      ],
      [
        "¬",
        "¡è®Ńç»ĥ"
      ],
      [
        "®",
        "å"
      ],
      [
        "®",
        "ĥ"
      ],
      [
        "¯",
        "į"
      ],
      [
        "¯",
        "Ķç"
      ],
      [
        "¯",
        "ä»¥"
      ],
      [
        "°",
        "ĳ"
      ],
      [
        "°",
        "ĨæĿ"
      ],
      [
        "±",
        "ç"
      ],
      [
        "±",
        "Tan"
      ],
      [
        "²",
        "¾"
      ],
      [
        "³",
        "»"
      ],
      [
        "´",
        "å"
      ],
      [
        "µ",
        "ä¸ĭ"
      ],
      [
        "¶",
        "å¤"
      ],
      [
        "¶",
        "åĩıå"
      ],
      [
        "·",
        "å"
      ],
      [
        "·",
        "æ"
      ],
      [
        "·",
        "¥ä½ľ"
      ],
      [
        "¸",
        "Ĺ"
      ],
      [
        "¹",
        "å"
      ],
      [
        "¹",
        "éĩıåĮĸ"
      ],
      [
        "¹",
        "è¿Ľè¡Į"
      ],
      [
        "¹",
        "¶åĩıå"
      ],
      [
        "º",
        "çļĦ"
      ],
      [
        "»",
        "éĻ"
      ],
      [
        "¼",
        "ł"
      ],
      [
        "¼",
        "ıå"
      ],
      [
        "¼",
        "å¯¹"
      ],
      [
        "¼",
        "Ķç"
      ],
      [
        "½",
        "åĬ¨æĢģ"
      ],
      [
        "½",
        "¬ä¸º"
      ],
      [
        "¾",
        "Ĺ"
      ],
      [
        "¾",
        "Ľ"
      ],
      [
        "¿",
        "«"
      ],
      [
        "¿",
        "åºıåĪĹ"
      ],
      [
        "ä",
        "¼ł"
      ],
      [
        "ä",
        "¾Ľ"
      ],
      [
        "å",
        "Į"
      ],
      [
        "å",
        "ı"
      ],
      [
        "å",
        "°ı"
      ],
      [
        "å",
        "¦Ĥ"
      ],
      [
        "å",
        "®ĥ"
      ],
      [
        "å",
        "°ĨæĿ"
      ],
      [
        "å",
        "·¥ä½ľ"
      ],
      [
        "å",
        "¹¶åĩıå"
      ],
      [
        "æ",
        "ĥ"
      ],
      [
        "æ",
        "Ī"
      ],
      [
        "æ",
        "Ĭ"
      ],
      [
        "æ",
        "Į"
      ],
      [
        "æ",
        "į"
      ],
      [
        "æ",
        "Ĵ"
      ],
      [
        "æ",
        "ķ"
      ],
      [
        "æ",
        "Ľ"
      ],
      [
        "æ",
        "ľ"
      ],
      [
        "æ",
        "İ¨çĲĨ"
      ],
      [
        "æ",
        "¨¡æ"
      ],
      [
        "æ",
        "¬¡å"
      ],
      [
        "æ",
        "¯Ķç"
      ],
      [
        "æ",
        "¸Ĺ"
      ],
      [
        "ç",
        "ķ"
      ],
      [
        "ç",
        "ľ"
      ],
      [
        "ç",
        "Ń"
      ],
      [
        "ç",
        "³»"
      ],
      [
        "è",
        "Ģ"
      ],
      [
        "è",
        "ĥ"
      ],
      [
        "è",
        "Ĭ"
      ],
      [
        "è",
        "İ"
      ],
      [
        "è",
        "ĳ"
      ],
      [
        "è",
        "¦ģ"
      ],
      [
        "è",
        "¯į"
      ],
      [
        "è",
        "½¬ä¸º"
      ],
      [
        "é",
        "ħ"
      ],
      [
        "é",
        "Ķ"
      ],
      [
        "é",
        "ķ"
      ],
      [
        "é",
        "ľĢ"
      ],
      [
        "é",
        "¡º"
      ],
      [
        "é",
        "«ĺ"
      ],
      [
        "Ģ",
        "åį"
      ],
      [
        "Ģ",
        "¼å¯¹"
      ],
      [
        "ģ",
        "æĺ¾"
      ],
      [
        "ģ",
        "ä½İ"
      ],
      [
        "Ĥ",
        "¹"
      ],
      [
        "Ĥ",
        "åĲ"
      ],
      [
        "Ĥ",
        "çľ"
      ],
      [
        "Ħ",
        "ç®"
      ],
      [
        "ħ",
        "åĨ"
      ],
      [
        "ħ",
        "¥æ³¨æĦıåĬĽ"
      ],
      [
        "Ĩ",
        "éħ"
      ],
      [
        "ĩ",
        "å¯¹"
      ],
      [
        "ĩ",
        "æĿ"
      ],
      [
        "Ī",
        "å°ı"
      ],
      [
        "ī",
        "į"
      ],
      [
        "ī",
        "¹æ"
      ],
      [
        "ī",
        "¹éĩıåĮĸ"
      ],
      [
        "Ĭ",
        "çĽ¸"
      ],
      [
        "ĭ",
        "ç¼"
      ],
      [
        "ĭ",
        "Łå¤"
      ],
      [
        "Į",
        "åľ"
      ],
      [
        "Į",
        "æıĲ"
      ],
      [
        "į",
        "æĿ"
      ],
      [
        "į",
        "åºıå"
      ],
      [
        "į",
        "æĺ¾"
      ],
      [
        "į",
        "æ¸Ĺ"
      ],
      [
        "İ",
        "çº¯æ°´"
      ],
      [
        "İ",
        "èĢ"
      ],
      [
        "ı",
        "Ĺ"
      ],
      [
        "ı",
        "æŀ"
      ],
      [
        "ı",
        "ä¿¡æģ¯"
      ],
      [
        "ı",
        "¯ä»¥"
      ],
      [
        "ı",
        "çŃ"
      ],
      [
        "Ĳ",
        "åĨħåŃĺ"
      ],
      [
        "Ĳ",
        "«éĩ"
      ],
      [
        "ĳ",
        "æĺ¯"
      ],
      [
        "ĳ",
        "ä¼ł"
      ],
      [
        "ĵ",
        "ç§¯"
      ],
      [
        "ĵ",
        "åŃĺ"
      ],
      [
        "ĵ",
        "æŀ"
      ],
      [
        "Ķ",
        "¾"
      ],
      [
        "Ķ",
        "é«ĺ"
      ],
      [
        "ķ",
        "å·¥ä½ľ"
      ],
      [
        "Ĺ",
        "æį"
      ],
      [
        "Ļ",
        "ä½"
      ],
      [
        "ļ",
        "æ¬¡å"
      ],
      [
        "Ŀ",
        "ĩæĸ"
      ],
      [
        "Ŀ",
        "çķ"
      ],
      [
        "Ł",
        "CP"
      ],
      [
        "ł",
        "æĺ¯"
      ],
      [
        "ł",
        "éĢ"
      ],
      [
        "ł",
        "¹è¿Ľè¡Į"
      ],
      [
        "Ń",
        "ç´¯ç§¯"
      ],
      [
        "Ń",
        "è¯į"
      ],
      [
        "Ń",
        "ĮæıĲ"
      ],
      [
        "ï¼",
        "Ľ"
      ],
      [
        "¨æ",
        "İ¨çĲĨ"
      ],
      [
        "åĬ",
        "łéĢ"
      ],
      [
        "©æ",
        "Ķ¾"
      ],
      [
        "çĶ",
        "¨"
      ],
      [
        "çĶ",
        "¨å"
      ],
      [
        "çĶ",
        "±Tan"
      ],
      [
        "ä½",
        "ĵç§¯"
      ],
      [
        "ä½",
        "ķå·¥ä½ľ"
      ],
      [
        "ä½",
        "łæĺ¯"
      ],
      [
        "æĺ¯",
        "èĴ¸é¦ı"
      ],
      [
        "æĺ¯",
        "éĢļè¿ĩ"
      ],
      [
        "æĺ¯",
        "æĮ"
      ],
      [
        "ä¸",
        "İçº¯æ°´"
      ],
      [
        "ä¸",
        "Ķé«ĺ"
      ],
      [
        "ä¸",
        "Ńè¯į"
      ],
      [
        "ä»",
        "İèĢ"
      ],
      [
        "åº",
        "ıä¿¡æģ¯"
      ],
      [
        "æ³",
        "ķ"
      ],
      [
        "æ³",
        "¨å"
      ],
      [
        "æ³",
        "¨éĩ"
      ],
      [
        "çļĦ",
        "ä½ľ"
      ],
      [
        "çļĦ",
        "éĥ¨åĪ"
      ],
      [
        "çļĦ",
        "GP"
      ],
      [
        "çļĦ",
        "æĥ"
      ],
      [
        "çļĦ",
        "é¡º"
      ],
      [
        "¨å",
        "Ĳ«éĩ"
      ],
      [
        "éĢ",
        "ĤåĲ"
      ],
      [
        "éĢ",
        "ıçŃ"
      ],
      [
        "ä»Ģä¹Ī",
        "éľĢ"
      ],
      [
        "ä»Ģä¹Īæĺ¯",
        "æ³¨æĦıåĬĽ"
      ],
      [
        "ä»Ģä¹Īæĺ¯",
        "åĬ¨æĢģéĩıåĮĸ"
      ],
      [
        "ä»Ģä¹Īæĺ¯",
        "æ¢¯åº¦ç´¯ç§¯"
      ],
      [
        "ä»Ģä¹Īæĺ¯",
        "RMSNorm"
      ],
      [
        "ä»Ģä¹Īæĺ¯",
        "ä½įç½®ç¼ĸçłģ"
      ],
      [
        "ä»Ģä¹Īæĺ¯",
        "TurboQuant"
      ],
      [
        "å¤",
        "§éĥ¨åĪ"
      ],
      [
        "å¤",
        "ļæ¬¡å"
      ],
      [
        "ç¼",
        "ĵåŃĺ"
      ],
      [
        "ç¼",
        "©æĶ¾"
      ],
      [
        "æ³¨æ",
        "ľĢ"
      ],
      [
        "an",
        "sform"
      ],
      [
        "åĪ",
        "¶å¤"
      ],
      [
        "åĪ",
        "Ĩéħ"
      ],
      [
        "åľ",
        "¨æİ¨çĲĨ"
      ],
      [
        "å¯¹",
        "ä½įç½®"
      ],
      [
        "å¯¹",
        "éĶ"
      ],
      [
        "ħ³",
        "ç³»"
      ],
      [
        "įç",
        "Ĥ¹"
      ],
      [
        "ä¸º",
        "äºĨ"
      ],
      [
        "ä¸º",
        "Tr"
      ],
      [
        "ä¸º",
        "ä»Ģä¹ĪéľĢ"
      ],
      [
        "éĩıåĮĸ",
        "åĩıå"
      ],
      [
        "åº¦",
        "çļĦæĥ"
      ],
      [
        "çĲĨ",
        "è§£"
      ],
      [
        "çĲĨ",
        "éķ"
      ],
      [
        "èĴ¸é¦ı",
        "èİ"
      ],
      [
        "éĢļè¿ĩ",
        "å¤ļæ¬¡å"
      ],
      [
        "éĢļè¿ĩ",
        "åĪĨéħ"
      ],
      [
        "éĢļè¿ĩ",
        "éĩıåĮĸåĩıå"
      ],
      [
        "æ³¨æĦıåĬĽ",
        "éĢļè¿ĩåĪĨéħ"
      ],
      [
        "ä¿",
        "Ŀçķ"
      ],
      [
        "åĩ",
        "ºçļĦ"
      ],
      [
        "åħ³",
        "æ³¨éĩ"
      ],
      [
        "åħ³",
        "çļĦéĥ¨åĪ"
      ],
      [
        "åħ³",
        "æ³¨æľĢ"
      ],
      [
        "ç»",
        "ĵæŀ"
      ],
      [
        "åºıåĪĹ",
        "ä¸Ńè¯į"
      ],
      [
        "åºıåĪĹ",
        "çĲĨè§£"
      ],
      [
        "æıĲ",
        "åį"
      ],
      [
        "æıĲ",
        "ä¾Ľ"
      ],
      [
        "è®¡ç®Ĺ",
        "æĽ"
      ],
      [
        "KV",
        "ç¼ĵåŃĺ"
      ],
      [
        "°ı",
        "ä½ĵç§¯"
      ],
      [
        "¹æ",
        "ł¹è¿Ľè¡Į"
      ],
      [
        "ºåĪ",
        "«"
      ],
      [
        "ºåĪ",
        "¶"
      ],
      [
        "åİ",
        "»éĻ"
      ],
      [
        "åİ",
        "ĭç¼"
      ],
      [
        "åĲ",
        "ĳä¼ł"
      ],
      [
        "çº¯æ°´",
        "æĺ¯æĮ"
      ],
      [
        "è°",
        "ģ"
      ],
      [
        "è°",
        "·æ"
      ],
      [
        "éĻ",
        "ĲåĨħåŃĺ"
      ],
      [
        "Ĥè´",
        "¨"
      ],
      [
        "Ĥè´",
        "¨åĲ«éĩ"
      ],
      [
        "ĨæĿ",
        "Ĥè´¨"
      ],
      [
        "ĩæĸ",
        "¹å"
      ],
      [
        "Łå¤",
        "±ç"
      ],
      [
        "ä½İ",
        "æ¯Ķç"
      ],
      [
        "ä¸ĭ",
        "éĢļè¿ĩå¤ļæ¬¡å"
      ],
      [
        "è®©æ¨¡åŀĭ",
        "åľ¨å"
      ],
      [
        "è®©æ¨¡åŀĭ",
        "åħ³æ³¨éĩ"
      ],
      [
        "è¿Ľè¡Į",
        "ä½İæ¯Ķç"
      ],
      [
        "åľ¨å",
        "ıĹ"
      ],
      [
        "èĴ¸é¦ıæ°´",
        "æĺ¯éĢļè¿ĩ"
      ],
      [
        "èĴ¸é¦ıæ°´",
        "ä¸İçº¯æ°´"
      ],
      [
        "ä¿¡æģ¯",
        "æ³¨å"
      ],
      [
        "è§£éĩĬ",
        "RoPE"
      ],
      [
        "è§£éĩĬ",
        "èĴ¸é¦ıæ°´ä¸İçº¯æ°´"
      ],
      [
        "åĬ¨æĢģéĩıåĮĸ",
        "åľ¨æİ¨çĲĨ"
      ],
      [
        "æ¢¯åº¦ç´¯ç§¯",
        "åľ¨åıĹ"
      ],
      [
        "RoPE",
        "æĬ"
      ],
      [
        "RMSNorm",
        "çĶ¨å"
      ],
      [
        "æĹ¶",
        "å°ĨæĿ"
      ],
      [
        "æĹ¶",
        "èĥ"
      ],
      [
        "çĽ¸",
        "åħ³çļĦéĥ¨åĪ"
      ],
      [
        "ĥéĩį",
        "è½¬ä¸º"
      ],
      [
        "ĥéĩį",
        "è®©æ¨¡åŀĭåħ³æ³¨éĩ"
      ],
      [
        "ä½įç½®ç¼ĸçłģ",
        "ä¸ºTr"
      ],
      [
        "TurboQuant",
        "å¦Ĥ"
      ],
      [
        "IN",
        "T"
      ],
      [
        "Tæ",
        "¼Ķç"
      ],
      [
        "Uè®¡ç®Ĺ",
        "å¹¶åĩıå"
      ],
      [
        "en",
        "gè®Ńç»ĥ"
      ],
      [
        "er",
        "æıĲä¾Ľ"
      ],
      [
        "gCh",
        "engè®Ńç»ĥ"
      ],
      [
        "¤º",
        "æ¨¡åŀĭ"
      ],
      [
        "¤Ħ",
        "çĲĨéķ"
      ],
      [
        "¤äºĨ",
        "å¤§éĥ¨åĪ"
      ],
      [
        "§æ",
        "ī¹æ"
      ],
      [
        "¨ä¸",
        "įæĺ¾"
      ],
      [
        "©ç®Ĺ",
        "æ³ķ"
      ],
      [
        "®å",
        "Ģ¼å¯¹"
      ],
      [
        "°ĳ",
        "æİ¨çĲĨ"
      ],
      [
        "²¾",
        "åº¦çļĦæĥ"
      ],
      [
        "´å",
        "¿«"
      ],
      [
        "µä¸ĭ",
        "èĬ"
      ],
      [
        "·å",
        "¾Ĺ"
      ],
      [
        "¼ıå",
        "ı¯ä»¥"
      ],
      [
        "½åĬ¨æĢģ",
        "åħ³æ³¨æľĢ"
      ],
      [
        "¿åºıåĪĹ",
        "æĹ¶èĥ"
      ],
      [
        "åĮ",
        "ºåĪ«"
      ],
      [
        "åı",
        "įæ¸Ĺ"
      ],
      [
        "å®ĥ",
        "å¯¹éĶ"
      ],
      [
        "æĪ",
        "ĳæĺ¯"
      ],
      [
        "æĴ",
        "Ńç´¯ç§¯"
      ],
      [
        "æķ",
        "Ī"
      ],
      [
        "æľ",
        "ºåĪ¶"
      ],
      [
        "æ¨¡æ",
        "ĭŁå¤"
      ],
      [
        "èĳ",
        "Ĺæį"
      ],
      [
        "è¦ģ",
        "æ³¨æĦıåĬĽ"
      ],
      [
        "Ģåį",
        "ķ"
      ],
      [
        "ģæĺ¾",
        "åŃĺ"
      ],
      [
        "ģä½İ",
        "çļĦæ°´"
      ],
      [
        "Ĥçľ",
        "ģæĺ¾åŃĺ"
      ],
      [
        "Ħç®",
        "Ģåįķ"
      ],
      [
        "ħåĨ",
        "µä¸ĭèĬ"
      ],
      [
        "ĩå¯¹",
        "åºıåĪĹçĲĨè§£"
      ],
      [
        "ĩæĿ",
        "Ĥè´¨åĲ«éĩ"
      ],
      [
        "Īå°ı",
        "æ¨¡åŀĭ"
      ],
      [
        "īį",
        "åĲĳä¼ł"
      ],
      [
        "ĬçĽ¸",
        "å¯¹ä½įç½®"
      ],
      [
        "Įåľ",
        "¨ä¸įæĺ¾"
      ],
      [
        "įæĿ",
        "ĥéĩįè®©æ¨¡åŀĭåħ³æ³¨éĩ"
      ],
      [
        "įåºıå",
        "ħ³ç³»"
      ],
      [
        "ıæŀ",
        "ģä½İçļĦæ°´"
      ],
      [
        "Ļä½",
        "įåºıåħ³ç³»"
      ],
      [
        "Ŀĩæĸ",
        "¹æł¹è¿Ľè¡Į"
      ],
      [
        "ŁCP",
        "Uè®¡ç®Ĺå¹¶åĩıå"
      ],
      [
        "ŃĮæıĲ",
        "åĩºçļĦ"
      ],
      [
        "åĬłéĢ",
        "ŁCPUè®¡ç®Ĺå¹¶åĩıå"
      ],
      [
        "çĶ±Tan",
        "gChengè®Ńç»ĥ"
      ],
      [
        "ä½łæĺ¯",
        "è°ģ"
      ],
      [
        "ä¸Ķé«ĺ",
        "æķĪ"
      ],
      [
        "ä»İèĢ",
        "Įåľ¨ä¸įæĺ¾"
      ],
      [
        "çļĦä½ľ",
        "çĶ¨"
      ],
      [
        "çļĦGP",
        "Tæ¼Ķç"
      ],
      [
        "çļĦé¡º",
        "åºıä¿¡æģ¯"
      ],
      [
        "éĢĤåĲ",
        "Īå°ıæ¨¡åŀĭ"
      ],
      [
        "éĢıçŃ",
        "ī"
      ],
      [
        "ä»Ģä¹Īæĺ¯æ³¨æĦıåĬĽ",
        "æľºåĪ¶"
      ],
      [
        "ansform",
        "eræıĲä¾Ľ"
      ],
      [
        "åĪ¶å¤",
        "ĩæĸ¹å"
      ],
      [
        "ä¸ºäºĨ",
        "è®©æ¨¡åŀĭåľ¨å"
      ],
      [
        "ä¸ºä»Ģä¹ĪéľĢ",
        "è¦ģæ³¨æĦıåĬĽ"
      ],
      [
        "èĴ¸é¦ıèİ",
        "·å¾Ĺ"
      ],
      [
        "éĢļè¿ĩéĩıåĮĸåĩıå",
        "°ĳæİ¨çĲĨ"
      ],
      [
        "æ³¨æĦıåĬĽéĢļè¿ĩåĪĨéħ",
        "įæĿĥéĩįè®©æ¨¡åŀĭåħ³æ³¨éĩ"
      ],
      [
        "ä¿Ŀçķ",
        "Ļä½įåºıåħ³ç³»"
      ],
      [
        "ç»ĵæŀ",
        "Ħç®Ģåįķ"
      ],
      [
        "åºıåĪĹä¸Ńè¯į",
        "çļĦé¡ºåºıä¿¡æģ¯"
      ],
      [
        "æıĲåį",
        "ĩå¯¹åºıåĪĹçĲĨè§£"
      ],
      [
        "è®¡ç®ĹæĽ",
        "´å¿«"
      ],
      [
        "KVç¼ĵåŃĺ",
        "åİĭç¼"
      ],
      [
        "åİ»éĻ",
        "¤äºĨå¤§éĥ¨åĪ"
      ],
      [
        "çº¯æ°´æĺ¯æĮ",
        "ĩæĿĤè´¨åĲ«éĩ"
      ],
      [
        "è°·æ",
        "ŃĮæıĲåĩºçļĦ"
      ],
      [
        "éĻĲåĨħåŃĺ",
        "ä¸ĭéĢļè¿ĩå¤ļæ¬¡å"
      ],
      [
        "Łå¤±ç",
        "²¾åº¦çļĦæĥ"
      ],
      [
        "è¿Ľè¡Įä½İæ¯Ķç",
        "ī¹éĩıåĮĸ"
      ],
      [
        "èĴ¸é¦ıæ°´æĺ¯éĢļè¿ĩ",
        "èĴ¸é¦ıèİ·å¾Ĺ"
      ],
      [
        "ä¿¡æģ¯æ³¨å",
        "ħ¥æ³¨æĦıåĬĽ"
      ],
      [
        "è§£éĩĬRoPE",
        "çļĦä½ľçĶ¨"
      ],
      [
        "è§£éĩĬèĴ¸é¦ıæ°´ä¸İçº¯æ°´",
        "åĮºåĪ«"
      ],
      [
        "åĬ¨æĢģéĩıåĮĸåľ¨æİ¨çĲĨ",
        "æĹ¶å°ĨæĿ"
      ],
      [
        "æ¢¯åº¦ç´¯ç§¯åľ¨åıĹ",
        "éĻĲåĨħåŃĺä¸ĭéĢļè¿ĩå¤ļæ¬¡å"
      ],
      [
        "RoPEæĬ",
        "ĬçĽ¸å¯¹ä½įç½®"
      ],
      [
        "RMSNormçĶ¨å",
        "Ŀĩæĸ¹æł¹è¿Ľè¡Į"
      ],
      [
        "çĽ¸åħ³çļĦéĥ¨åĪ",
        "Ĩ"
      ],
      [
        "ĥéĩįè½¬ä¸º",
        "INT"
      ],
      [
        "ä½įç½®ç¼ĸçłģä¸ºTr",
        "ansformeræıĲä¾Ľ"
      ],
      [
        "TurboQuantå¦Ĥ",
        "ä½ķå·¥ä½ľ"
      ],
      [
        "¤ĦçĲĨéķ",
        "¿åºıåĪĹæĹ¶èĥ"
      ],
      [
        "§æī¹æ",
        "¬¡è®Ńç»ĥ"
      ],
      [
        "¼ıåı¯ä»¥",
        "æĺ¯èĴ¸é¦ı"
      ],
      [
        "½åĬ¨æĢģåħ³æ³¨æľĢ",
        "çĽ¸åħ³çļĦéĥ¨åĪĨ"
      ],
      [
        "åıįæ¸Ĺ",
        "éĢıçŃī"
      ],
      [
        "å®ĥå¯¹éĶ",
        "®åĢ¼å¯¹"
      ],
      [
        "æĪĳæĺ¯",
        "çĶ±TangChengè®Ńç»ĥ"
      ],
      [
        "æĴŃç´¯ç§¯",
        "æ¢¯åº¦"
      ],
      [
        "æ¨¡æĭŁå¤",
        "§æī¹æ¬¡è®Ńç»ĥ"
      ],
      [
        "èĳĹæį",
        "Łå¤±ç²¾åº¦çļĦæĥ"
      ],
      [
        "ħåĨµä¸ĭèĬ",
        "Ĥçľģæĺ¾åŃĺ"
      ],
      [
        "īįåĲĳä¼ł",
        "æĴŃç´¯ç§¯æ¢¯åº¦"
      ],
      [
        "åĬłéĢŁCPUè®¡ç®Ĺå¹¶åĩıå",
        "°ıä½ĵç§¯"
      ],
      [
        "ä»İèĢĮåľ¨ä¸įæĺ¾",
        "èĳĹæįŁå¤±ç²¾åº¦çļĦæĥ"
      ],
      [
        "çļĦGPTæ¼Ķç",
        "¤ºæ¨¡åŀĭ"
      ],
      [
        "åĪ¶å¤ĩæĸ¹å",
        "¼ıåı¯ä»¥æĺ¯èĴ¸é¦ı"
      ],
      [
        "ä¸ºäºĨè®©æ¨¡åŀĭåľ¨å",
        "¤ĦçĲĨéķ¿åºıåĪĹæĹ¶èĥ"
      ],
      [
        "éĢļè¿ĩéĩıåĮĸåĩıå°ĳæİ¨çĲĨ",
        "åĨħåŃĺ"
      ],
      [
        "æ³¨æĦıåĬĽéĢļè¿ĩåĪĨéħįæĿĥéĩįè®©æ¨¡åŀĭåħ³æ³¨éĩ",
        "įçĤ¹"
      ],
      [
        "ä¿ĿçķĻä½įåºıåħ³ç³»",
        "ä¸Ķé«ĺæķĪ"
      ],
      [
        "KVç¼ĵåŃĺåİĭç¼",
        "©ç®Ĺæ³ķ"
      ],
      [
        "åİ»éĻ¤äºĨå¤§éĥ¨åĪ",
        "ĨæĿĤè´¨"
      ],
      [
        "çº¯æ°´æĺ¯æĮĩæĿĤè´¨åĲ«éĩ",
        "ıæŀģä½İçļĦæ°´"
      ],
      [
        "è°·æŃĮæıĲåĩºçļĦ",
        "KVç¼ĵåŃĺåİĭç¼©ç®Ĺæ³ķ"
      ],
      [
        "èĴ¸é¦ıæ°´æĺ¯éĢļè¿ĩèĴ¸é¦ıèİ·å¾Ĺ",
        "çļĦæ°´"
      ],
      [
        "åĬ¨æĢģéĩıåĮĸåľ¨æİ¨çĲĨæĹ¶å°ĨæĿ",
        "ĥéĩįè½¬ä¸ºINT"
      ],
      [
        "æ¢¯åº¦ç´¯ç§¯åľ¨åıĹéĻĲåĨħåŃĺä¸ĭéĢļè¿ĩå¤ļæ¬¡å",
        "īįåĲĳä¼łæĴŃç´¯ç§¯æ¢¯åº¦"
      ],
      [
        "RoPEæĬĬçĽ¸å¯¹ä½įç½®",
        "ä¿¡æģ¯æ³¨åħ¥æ³¨æĦıåĬĽ"
      ],
      [
        "RMSNormçĶ¨åĿĩæĸ¹æł¹è¿Ľè¡Į",
        "ç¼©æĶ¾"
      ],
      [
        "ä½įç½®ç¼ĸçłģä¸ºTransformeræıĲä¾Ľ",
        "åºıåĪĹä¸Ńè¯įçļĦé¡ºåºıä¿¡æģ¯"
      ],
      [
        "æĪĳæĺ¯çĶ±TangChengè®Ńç»ĥ",
        "çļĦGPTæ¼Ķç¤ºæ¨¡åŀĭ"
      ],
      [
        "ä»İèĢĮåľ¨ä¸įæĺ¾èĳĹæįŁå¤±ç²¾åº¦çļĦæĥ",
        "ħåĨµä¸ĭèĬĤçľģæĺ¾åŃĺ"
      ],
      [
        "ä¸ºäºĨè®©æ¨¡åŀĭåľ¨å¤ĦçĲĨéķ¿åºıåĪĹæĹ¶èĥ",
        "½åĬ¨æĢģåħ³æ³¨æľĢçĽ¸åħ³çļĦéĥ¨åĪĨ"
      ],
      [
        "1",
        "0"
      ],
      [
        "1",
        "2"
      ],
      [
        "2",
        "2"
      ],
      [
        "2",
        "5"
      ],
      [
        "ĺ",
        "ä»¥"
      ],
      [
        "ä¹",
        "ĺä»¥"
      ]
    ]
  }
}