{
  "version": "1.0",
  "truncation": null,
  "padding": null,
  "added_tokens": [
    {
      "id": 0,
      "content": "<bos>",
      "single_word": false,
      "lstrip": false,
      "rstrip": false,
      "normalized": false,
      "special": true
    },
    {
      "id": 1,
      "content": "<eos>",
      "single_word": false,
      "lstrip": false,
      "rstrip": false,
      "normalized": false,
      "special": true
    },
    {
      "id": 2,
      "content": "<pad>",
      "single_word": false,
      "lstrip": false,
      "rstrip": false,
      "normalized": false,
      "special": true
    },
    {
      "id": 3,
      "content": "<unk>",
      "single_word": false,
      "lstrip": false,
      "rstrip": false,
      "normalized": false,
      "special": true
    }
  ],
  "normalizer": null,
  "pre_tokenizer": {
    "type": "ByteLevel",
    "add_prefix_space": false,
    "trim_offsets": true,
    "use_regex": true
  },
  "post_processor": {
    "type": "TemplateProcessing",
    "single": [
      {
        "SpecialToken": {
          "id": "<bos>",
          "type_id": 0
        }
      },
      {
        "Sequence": {
          "id": "A",
          "type_id": 0
        }
      },
      {
        "SpecialToken": {
          "id": "<eos>",
          "type_id": 0
        }
      }
    ],
    "pair": [
      {
        "Sequence": {
          "id": "A",
          "type_id": 0
        }
      },
      {
        "Sequence": {
          "id": "B",
          "type_id": 1
        }
      }
    ],
    "special_tokens": {
      "<bos>": {
        "id": "<bos>",
        "ids": [
          0
        ],
        "tokens": [
          "<bos>"
        ]
      },
      "<eos>": {
        "id": "<eos>",
        "ids": [
          1
        ],
        "tokens": [
          "<eos>"
        ]
      }
    }
  },
  "decoder": {
    "type": "ByteLevel",
    "add_prefix_space": true,
    "trim_offsets": true,
    "use_regex": true
  },
  "model": {
    "type": "BPE",
    "dropout": null,
    "unk_token": "<unk>",
    "continuing_subword_prefix": null,
    "end_of_word_suffix": null,
    "fuse_unk": false,
    "byte_fallback": false,
    "ignore_merges": false,
    "vocab": {
      "<bos>": 0,
      "<eos>": 1,
      "<pad>": 2,
      "<unk>": 3,
      "0": 4,
      "1": 5,
      "2": 6,
      "3": 7,
      "5": 8,
      "6": 9,
      "9": 10,
      ":": 11,
      "E": 12,
      "G": 13,
      "L": 14,
      "M": 15,
      "N": 16,
      "P": 17,
      "R": 18,
      "S": 19,
      "T": 20,
      "a": 21,
      "e": 22,
      "f": 23,
      "h": 24,
      "m": 25,
      "n": 26,
      "o": 27,
      "r": 28,
      "s": 29,
      "t": 30,
      "y": 31,
      "¡": 32,
      "¢": 33,
      "£": 34,
      "¤": 35,
      "¥": 36,
      "¦": 37,
      "§": 38,
      "¨": 39,
      "©": 40,
      "ª": 41,
      "«": 42,
      "¬": 43,
      "®": 44,
      "¯": 45,
      "°": 46,
      "±": 47,
      "²": 48,
      "³": 49,
      "´": 50,
      "µ": 51,
      "¶": 52,
      "·": 53,
      "¸": 54,
      "¹": 55,
      "º": 56,
      "»": 57,
      "¼": 58,
      "½": 59,
      "¾": 60,
      "¿": 61,
      "ã": 62,
      "ä": 63,
      "å": 64,
      "æ": 65,
      "ç": 66,
      "è": 67,
      "é": 68,
      "ï": 69,
      "Ċ": 70,
      "Ġ": 71,
      "Ģ": 72,
      "ģ": 73,
      "Ĥ": 74,
      "ĥ": 75,
      "Ħ": 76,
      "ħ": 77,
      "Ĩ": 78,
      "ĩ": 79,
      "Ī": 80,
      "ī": 81,
      "Ĭ": 82,
      "ĭ": 83,
      "Į": 84,
      "į": 85,
      "İ": 86,
      "ı": 87,
      "Ĳ": 88,
      "ĳ": 89,
      "Ĵ": 90,
      "ĵ": 91,
      "Ķ": 92,
      "ķ": 93,
      "ĸ": 94,
      "Ĺ": 95,
      "ĺ": 96,
      "Ļ": 97,
      "ļ": 98,
      "Ľ": 99,
      "ľ": 100,
      "Ŀ": 101,
      "ŀ": 102,
      "Ł": 103,
      "ł": 104,
      "Ń": 105,
      "ï¼": 106,
      "æĺ": 107,
      "¨æ": 108,
      "ä¸": 109,
      "åĬ": 110,
      "ãĢ": 111,
      "ï¼Į": 112,
      "ä»": 113,
      "ä½": 114,
      "çĶ": 115,
      "©æ": 116,
      "æĺ¯": 117,
      "ä¹": 118,
      "Ī·": 119,
      "īĭ": 120,
      "¨æĪ·": 121,
      "åĬ©æ": 122,
      "ãĢĤ": 123,
      "çĶ¨æĪ·": 124,
      "åĬ©æīĭ": 125,
      "åħ": 126,
      "ï¼Ł": 127,
      "æľ": 128,
      "įç": 129,
      "å¤": 130,
      "åĪ": 131,
      "½®": 132,
      "ä½įç": 133,
      "ä½įç½®": 134,
      "ĭè": 135,
      "ç¼": 136,
      "æĹ": 137,
      "Ģä¹": 138,
      "ä»Ģä¹": 139,
      "ä»Ģä¹Ī": 140,
      "çļ": 141,
      "çļĦ": 142,
      "ç¼ĸ": 143,
      "æ³": 144,
      "½¬": 145,
      "ĭè½¬": 146,
      "æĹĭè½¬": 147,
      "æĺŁ": 148,
      "éĢ": 149,
      "ç¼ĸç": 150,
      "łģ": 151,
      "æķ": 152,
      "ä»¥": 153,
      "è®": 154,
      "ä¸Ģ": 155,
      "¿ĩ": 156,
      "è¿ĩ": 157,
      "ļè¿ĩ": 158,
      "éĢļè¿ĩ": 159,
      "PE": 160,
      "Ro": 161,
      "ä¿": 162,
      "RoPE": 163,
      "ä½įç½®ç¼ĸç": 164,
      "ä½įç½®ç¼ĸçłģ": 165,
      "å°": 166,
      "Ġæĺ¯": 167,
      "ãĢģ": 168,
      "éĩ": 169,
      "è¯": 170,
      "ä¸ĭ": 171,
      "åĪ¶": 172,
      "å¯": 173,
      "æĿ": 174,
      "æľº": 175,
      "æķ°": 176,
      "åħ¥": 177,
      "äº": 178,
      "è§": 179,
      "°´": 180,
      "æ°´": 181,
      "¡æ": 182,
      "ģ¯": 183,
      "ä¿¡æ": 184,
      "ä¿¡æģ¯": 185,
      "åı": 186,
      "æ³¨æ": 187,
      "å¯¹": 188,
      "çĽ": 189,
      "çĽ¸": 190,
      "åŀ": 191,
      "æĹĭè½¬ä½įç½®ç¼ĸçłģ": 192,
      "åŀĭ": 193,
      "æľī": 194,
      "Ġ5": 195,
      "or": 196,
      "orm": 197,
      "åĩ": 198,
      "ä»Ģä¹Īæĺ¯": 199,
      "Ħı": 200,
      "Ľæľº": 201,
      "åĬĽæľº": 202,
      "æ³¨æĦı": 203,
      "åĬĽæľºåĪ¶": 204,
      "æ³¨æĦıåĬĽæľºåĪ¶": 205,
      "¨åħ¥": 206,
      "æ¯": 207,
      "ç§": 208,
      "įæķ°": 209,
      "å¤įæķ°": 210,
      "ä½įç½®ä¿¡æģ¯": 211,
      "æ³¨åħ¥": 212,
      "éĢļè¿ĩå¤įæķ°": 213,
      "éĢļè¿ĩå¤įæķ°æĹĭè½¬": 214,
      "¡åŀĭ": 215,
      "¨¡åŀĭ": 216,
      "çŃ": 217,
      "çŃī": 218,
      "åĴ": 219,
      "äºİ": 220,
      "åĴĮ": 221,
      "Norm": 222,
      "çŁ": 223,
      "ä½ł": 224,
      "çº": 225,
      "¦ı": 226,
      "¸é": 227,
      "Ĵ¸é": 228,
      "Ĵ¸é¦ı": 229,
      "éĹ": 230,
      "æİ": 231,
      "æĸ": 232,
      "æĸ¹": 233,
      "åĮ": 234,
      "åŃ": 235,
      "åŃ¦": 236,
      "Ģ§": 237,
      "Ķç": 238,
      "ĠçļĦ": 239,
      "åħ³": 240,
      "å¯¹ä½įç½®ä¿¡æģ¯": 241,
      "çĽ¸å¯¹ä½įç½®ä¿¡æģ¯": 242,
      "æĽ": 243,
      "æ¨¡åŀĭ": 244,
      "ç®": 245,
      "ĥéĩ": 246,
      "æĿĥéĩ": 247,
      "æĽ´": 248,
      "æĿĥéĩį": 249,
      "¥½": 250,
      "å¥½": 251,
      "25": 252,
      "¤ä»¥": 253,
      "éĻ": 254,
      "Ġä¹": 255,
      "ĠéĻ": 256,
      "ĺä»¥": 257,
      "ä¸Ģä¸ĭ": 258,
      "æľīä»Ģä¹Ī": 259,
      "çŃīäºİ": 260,
      "Ġä¹ĺä»¥": 261,
      "ĠéĻ¤ä»¥": 262,
      "er": 263,
      "å°ĳ": 264,
      "¾ĵ": 265,
      "è¾ĵ": 266,
      "¥é": 267,
      "ģĵ": 268,
      "çŁ¥é": 269,
      "ä½łçŁ¥é": 270,
      "ä½łçŁ¥éģĵ": 271,
      "è®²": 272,
      "èĴ¸é¦ı": 273,
      "£éĩ": 274,
      "£éĩĬ": 275,
      "æĪ": 276,
      "æĪĳ": 277,
      "ä¸ī": 278,
      "æĸ¹å": 279,
      "¯æ°´": 280,
      "è´": 281,
      "èĢ": 282,
      "ģæĺ": 283,
      "è§£éĩĬ": 284,
      "çº¯æ°´": 285,
      "èĢĮ": 286,
      "¼ı": 287,
      "å¾": 288,
      "åĨ": 289,
      "æĬ": 290,
      "Ģģ": 291,
      "çļĦé": 292,
      "¨åŃ¦": 293,
      "ä¹ł": 294,
      "è§Ħ": 295,
      "¨åŃ¦ä¹ł": 296,
      "¡ç®": 297,
      "©ç": 298,
      "«ĺ": 299,
      "·éĹ": 300,
      "»Ŀ": 301,
      "æ´": 302,
      "éĺ": 303,
      "ĠRoPE": 304,
      "Ģæ´": 305,
      "ĨçĽ¸å¯¹ä½įç½®ä¿¡æģ¯": 306,
      "ĸæİ": 307,
      "ľĢ": 308,
      "¨æĢ§": 309,
      "å¤ĸæİ": 310,
      "è®¡ç®": 311,
      "å°ĨçĽ¸å¯¹ä½įç½®ä¿¡æģ¯": 312,
      "è¯·éĹ": 313,
      "å¯¹ä½įç½®ç¼ĸçłģ": 314,
      "æ¯Ķç": 315,
      "æ³¨åħ¥æ³¨æĦıåĬĽæľºåĪ¶": 316,
      "éĢļè¿ĩå¤įæķ°æĹĭè½¬å°ĨçĽ¸å¯¹ä½įç½®ä¿¡æģ¯": 317,
      "æĽ´å¥½": 318,
      "»Ŀå¯¹ä½įç½®ç¼ĸçłģ": 319,
      "å¤ĸæİ¨æĢ§": 320,
      "è®¡ç®Ĺ": 321,
      "è¯·éĹ®": 322,
      "æ¯Ķç»Ŀå¯¹ä½įç½®ç¼ĸçłģ": 323,
      "éĢļè¿ĩå¤įæķ°æĹĭè½¬å°ĨçĽ¸å¯¹ä½įç½®ä¿¡æģ¯æ³¨åħ¥æ³¨æĦıåĬĽæľºåĪ¶": 324,
      "¨ç§": 325,
      "°æĺ¯": 326,
      "ºåĪ": 327,
      "¾ä¸": 328,
      "åħ¨ç§": 329,
      "åĪĨ": 330,
      "åıª": 331,
      "çĽ¸åħ³": 332,
      "åĮºåĪ": 333,
      "ĠçļĦåħ¨ç§": 334,
      "æľīä»Ģä¹ĪåĮºåĪ": 335,
      "ĠçļĦåħ¨ç§°æĺ¯": 336,
      "æľīä»Ģä¹ĪåĮºåĪ«": 337,
      "®ĥ": 338,
      "å®ĥ": 339,
      "ä¿Ŀ": 340,
      "éĢļè¿ĩå¤įæķ°æĹĭè½¬æ³¨åħ¥": 341,
      "15": 342,
      "20": 343,
      "30": 344,
      "90": 345,
      "¡Į": 346,
      "åľ": 347,
      "èĩ": 348,
      "è¡Į": 349,
      "ĠçŃīäºİ": 350,
      "Ġ90": 351,
      "ĭæĺŁ": 352,
      "İĭæĺŁ": 353,
      "ļå°ĳ": 354,
      "å¤ļå°ĳ": 355,
      "è¡ĮæĺŁ": 356,
      "La": 357,
      "MS": 358,
      "RMS": 359,
      "yer": 360,
      "åĿ": 361,
      "ĠLa": 362,
      "RMSNorm": 363,
      "yerNorm": 364,
      "åĿĩ": 365,
      "ĠLayerNorm": 366,
      "åĩı": 367,
      "è®²ä¸Ģä¸ĭ": 368,
      "±Ĥ": 369,
      "å±Ĥ": 370,
      "åħ±": 371,
      "åĩº": 372,
      "è¾ĵåĩº": 373,
      "ä¸Ģä¸": 374,
      "èĴ¸é¦ıæ°´": 375,
      "®æĪĳ": 376,
      "¸®æĪĳ": 377,
      "å¸®æĪĳ": 378,
      "è§£éĩĬä¸ĭ": 379,
      "å¸®æĪĳè§£éĩĬä¸ĭ": 380,
      "½è¯": 381,
      "èĥ": 382,
      "½è¯´": 383,
      "èĥ½è¯´": 384,
      "Py": 385,
      "ho": 386,
      "tho": 387,
      "§ç¼ĸç": 388,
      "¨Ģ": 389,
      "¨ĭè": 390,
      "¬¬": 391,
      "®Ģæ´": 392,
      "¯Ń": 393,
      "°å¯": 394,
      "ºĵ": 395,
      "»å": 396,
      "»çļĦé": 397,
      "æĢģ": 398,
      "ç¬¬": 399,
      "è¨Ģ": 400,
      "ĠPy": 401,
      "ĮçļĦ": 402,
      "Ĳį": 403,
      "ĵè¯": 404,
      "ŁæĢģ": 405,
      "ä¸°å¯": 406,
      "çĶŁæĢģ": 407,
      "įç®Ģæ´": 408,
      "ä»¥ä¸°å¯": 409,
      "ä¸Ģç§": 410,
      "çº§ç¼ĸç": 411,
      "éĹ»å": 412,
      "ä¸īæĸ¹å": 413,
      "ģæĺĵè¯": 414,
      "èĢĮéĹ»å": 415,
      "«ĺçº§ç¼ĸç": 416,
      "thon": 417,
      "¨ĭè¯Ń": 418,
      "ºĵçĶŁæĢģ": 419,
      "»çļĦé«ĺçº§ç¼ĸç": 420,
      "ç¬¬ä¸īæĸ¹å": 421,
      "ĠPython": 422,
      "ĮçļĦç¬¬ä¸īæĸ¹å": 423,
      "įç®Ģæ´ģæĺĵè¯": 424,
      "ä»¥ä¸°å¯ĮçļĦç¬¬ä¸īæĸ¹å": 425,
      "ä¸Ģç§įç®Ģæ´ģæĺĵè¯": 426,
      "èĢĮéĹ»åĲį": 427,
      "¨ĭè¯Ńè¨Ģ": 428,
      "ºĵçĶŁæĢģèĢĮéĹ»åĲį": 429,
      "»çļĦé«ĺçº§ç¼ĸç¨ĭè¯Ńè¨Ģ": 430,
      "ä»¥ä¸°å¯ĮçļĦç¬¬ä¸īæĸ¹åºĵçĶŁæĢģèĢĮéĹ»åĲį": 431,
      "ä¸Ģç§įç®Ģæ´ģæĺĵè¯»çļĦé«ĺçº§ç¼ĸç¨ĭè¯Ńè¨Ģ": 432,
      "¡®": 433,
      "¥ä½įç½®": 434,
      "©·": 435,
      "©éĺ": 436,
      "ªæĿ": 437,
      "¬åı": 438,
      "°å": 439,
      "²ä¿¡æģ¯": 440,
      "³æĹĭè½¬ä½įç½®ç¼ĸçłģ": 441,
      "·æľī": 442,
      "·åĩ": 443,
      "¸Ĺ": 444,
      "ºè´": 445,
      "åį": 446,
      "åĽ": 447,
      "æĭ": 448,
      "æŀ": 449,
      "æ¸Ĺ": 450,
      "çľ": 451,
      "ç¡®": 452,
      "ç©·": 453,
      "Ġåį": 454,
      "ģä½": 455,
      "Ĥè´": 456,
      "ħæĭ": 457,
      "Ĩåı": 458,
      "ĩæĸ¹å": 459,
      "Ĭæľ": 460,
      "ĭåĪ": 461,
      "įæ¸Ĺ": 462,
      "İĨåı": 463,
      "ıçŃī": 464,
      "ĴçŁ": 465,
      "ľæİ": 466,
      "ĿåĪ¶": 467,
      "ŀģä½": 468,
      "ŁæĹ": 469,
      "łæŀ": 470,
      "łç©·": 471,
      "¨æŀģä½": 472,
      "åħ·æľī": 473,
      "å¤ĩæĸ¹å": 474,
      "çļĦå¤ĸæİ¨æĢ§": 475,
      "éĢıçŃī": 476,
      "è®¾ä¸": 477,
      "éĢļè¿ĩèĴ¸é¦ı": 478,
      "ä¸ĭä¸ī": 479,
      "åĪ¶å¤ĩæĸ¹å": 480,
      "æĿĤè´": 481,
      "è§ĴçŁ": 482,
      "ä»Ģä¹Īæĺ¯åĽ": 483,
      "åĴĮçº¯æ°´": 484,
      "åĮħæĭ": 485,
      "æ¨¡åŀĭåıª": 486,
      "æĿĥéĩįè®¾ä¸": 487,
      "çº¯æ°´æĿĤè´": 488,
      "¼ıåĮħæĭ": 489,
      "å¾Ĺ": 490,
      "åĨ·åĩ": 491,
      "æĬĬæľ": 492,
      "©çłģ": 493,
      "æĽ´å¥½çļĦå¤ĸæİ¨æĢ§": 494,
      "æ¯Ķç»Ŀå¯¹ä½įç½®ç¼ĸçłģåħ·æľī": 495,
      "ä¿Ŀæ¨¡åŀĭåıª": 496,
      "èĴ¸é¦ıæ°´éĢļè¿ĩèĴ¸é¦ı": 497,
      "¥ä½įç½®æĿĥéĩįè®¾ä¸": 498,
      "©éĺµ": 499,
      "ªæĿ¥ä½įç½®æĿĥéĩįè®¾ä¸": 500,
      "¬åıįæ¸Ĺ": 501,
      "°åİĨåı": 502,
      "ºè´ŁæĹ": 503,
      "çľĭåĪ": 504,
      "ç¡®ä¿Ŀæ¨¡åŀĭåıª": 505,
      "Ġåį³æĹĭè½¬ä½įç½®ç¼ĸçłģ": 506,
      "ľæİ©çłģ": 507,
      "ĿåĪ¶å¾Ĺ": 508,
      "łæŀľæİ©çłģ": 509,
      "¨æŀģä½İ": 510,
      "ä¸ĭä¸īè§ĴçŁ": 511,
      "åĪ¶å¤ĩæĸ¹å¼ıåĮħæĭ": 512,
      "ä»Ģä¹Īæĺ¯åĽłæŀľæİ©çłģ": 513,
      "åĴĮçº¯æ°´æľīä»Ģä¹ĪåĮºåĪ«": 514,
      "çº¯æ°´æĿĤè´¨æŀģä½İ": 515,
      "åĨ·åĩĿåĪ¶å¾Ĺ": 516,
      "æĬĬæľªæĿ¥ä½įç½®æĿĥéĩįè®¾ä¸": 517,
      "æ¯Ķç»Ŀå¯¹ä½įç½®ç¼ĸçłģåħ·æľīæĽ´å¥½çļĦå¤ĸæİ¨æĢ§": 518,
      "èĴ¸é¦ıæ°´éĢļè¿ĩèĴ¸é¦ıåĨ·åĩĿåĪ¶å¾Ĺ": 519,
      "¬åıįæ¸ĹéĢıçŃī": 520,
      "°åİĨåı²ä¿¡æģ¯": 521,
      "ºè´ŁæĹłç©·": 522,
      "çľĭåĪ°åİĨåı²ä¿¡æģ¯": 523,
      "ç¡®ä¿Ŀæ¨¡åŀĭåıªçľĭåĪ°åİĨåı²ä¿¡æģ¯": 524,
      "ä¸ĭä¸īè§ĴçŁ©éĺµ": 525,
      "åĪ¶å¤ĩæĸ¹å¼ıåĮħæĭ¬åıįæ¸ĹéĢıçŃī": 526,
      "æĬĬæľªæĿ¥ä½įç½®æĿĥéĩįè®¾ä¸ºè´ŁæĹłç©·": 527,
      "¡è§Ħ": 528,
      "¦ģæĺ": 529,
      "©è®¡ç®Ĺ": 530,
      "ªåĬ": 531,
      "®èĩ": 532,
      "¾å": 533,
      "åĻ": 534,
      "æį": 535,
      "è¦ģæĺ": 536,
      "éľĢ": 537,
      "Ģæľ": 538,
      "įéľĢ": 539,
      "ıä¸Ģ": 540,
      "ĻçļĦ": 541,
      "Ļæ¯": 542,
      "ä¸įéľĢ": 543,
      "åĪĻçļĦ": 544,
      "ç¼ĸåĨ": 545,
      "è®©è®¡ç®Ĺ": 546,
      "éĢļè¿ĩæķ°": 547,
      "æĿ¡è§Ħ": 548,
      "æľºåĻ": 549,
      "æľºéĢļè¿ĩæķ°": 550,
      "ä»Ģä¹Īæĺ¯æľºåĻ": 551,
      "èĢĮä¸įéľĢ": 552,
      "¼ıç¼ĸåĨ": 553,
      "å¾ĭ": 554,
      "æĬĢæľ": 555,
      "è§Ħå¾ĭ": 556,
      "¨åŃ¦ä¹łè§Ħå¾ĭ": 557,
      "ªåĬ¨åŃ¦ä¹łè§Ħå¾ĭ": 558,
      "®èĩªåĬ¨åŃ¦ä¹łè§Ħå¾ĭ": 559,
      "¾å¼ıç¼ĸåĨ": 560,
      "æį®èĩªåĬ¨åŃ¦ä¹łè§Ħå¾ĭ": 561,
      "è¦ģæĺ¾å¼ıç¼ĸåĨ": 562,
      "ıä¸ĢæĿ¡è§Ħ": 563,
      "Ļæ¯ıä¸ĢæĿ¡è§Ħ": 564,
      "åĪĻçļĦæĬĢæľ": 565,
      "è®©è®¡ç®ĹæľºéĢļè¿ĩæķ°": 566,
      "ä»Ģä¹Īæĺ¯æľºåĻ¨åŃ¦ä¹ł": 567,
      "èĢĮä¸įéľĢè¦ģæĺ¾å¼ıç¼ĸåĨ": 568,
      "Ļæ¯ıä¸ĢæĿ¡è§ĦåĪĻçļĦæĬĢæľ": 569,
      "è®©è®¡ç®ĹæľºéĢļè¿ĩæķ°æį®èĩªåĬ¨åŃ¦ä¹łè§Ħå¾ĭ": 570,
      "èĢĮä¸įéľĢè¦ģæĺ¾å¼ıç¼ĸåĨĻæ¯ıä¸ĢæĿ¡è§ĦåĪĻçļĦæĬĢæľ": 571,
      "èĢĮä¸įéľĢè¦ģæĺ¾å¼ıç¼ĸåĨĻæ¯ıä¸ĢæĿ¡è§ĦåĪĻçļĦæĬĢæľ¯": 572,
      "GP": 573,
      "Tr": 574,
      "an": 575,
      "form": 576,
      "sform": 577,
      "¢åĴĮ": 578,
      "¤º": 579,
      "¥è¯": 580,
      "¨åĪĨ": 581,
      "ªå": 582,
      "®çļĦ": 583,
      "°ģ": 584,
      "ºäºİ": 585,
      "¼Ķç": 586,
      "æŁ": 587,
      "æĢ§": 588,
      "æ¼Ķç": 589,
      "è°ģ": 590,
      "éħ": 591,
      "éĶ": 592,
      "Ġæķ": 593,
      "ĠGP": 594,
      "ĠTr": 595,
      "ĥ¨åĪĨ": 596,
      "įæĿĥéĩį": 597,
      "ıåŀĭ": 598,
      "ĻåŃ¦": 599,
      "Łºäºİ": 600,
      "¨æĢģ": 601,
      "åĬ¨æĢģ": 602,
      "©æ¨¡åŀĭ": 603,
      "æĺ¯ä¸Ģä¸": 604,
      "æĺ¯è°ģ": 605,
      "è®©æ¨¡åŀĭ": 606,
      "éĢļè¿ĩè®¡ç®Ĺ": 607,
      "å°ıåŀĭ": 608,
      "æ³¨æľĢ": 609,
      "ä»Ģä¹Īæĺ¯æ³¨æĦıåĬĽæľºåĪ¶": 610,
      "æ³¨æĦıåĬĽæľºåĪ¶éĢļè¿ĩè®¡ç®Ĺ": 611,
      "ä½łæĺ¯è°ģ": 612,
      "ĠçļĦå°ıåŀĭ": 613,
      "åħ³æ³¨æľĢ": 614,
      "æĪĳæĺ¯ä¸Ģä¸": 615,
      "çļĦéĥ¨åĪĨ": 616,
      "åĪĨéħ": 617,
      "çĽ¸åħ³æĢ§": 618,
      "çĽ¸åħ³çļĦéĥ¨åĪĨ": 619,
      "ĠçļĦåħ¨ç§°æĺ¯ä»Ģä¹Ī": 620,
      "ĠçļĦåħ¨ç§°æĺ¯æĹĭè½¬ä½įç½®ç¼ĸçłģ": 621,
      "å®ĥéĢļè¿ĩå¤įæķ°æĹĭè½¬æ³¨åħ¥": 622,
      "ansform": 623,
      "¢åĴĮéĶ": 624,
      "¤ºæ¨¡åŀĭ": 625,
      "¥è¯¢åĴĮéĶ": 626,
      "ªåŁºäºİ": 627,
      "®çļĦçĽ¸åħ³æĢ§": 628,
      "æŁ¥è¯¢åĴĮéĶ": 629,
      "æ¼Ķç¤ºæ¨¡åŀĭ": 630,
      "ĠæķĻåŃ¦": 631,
      "ĠGPT": 632,
      "ĠTransform": 633,
      "åĬ¨æĢģåħ³æ³¨æľĢ": 634,
      "è®©æ¨¡åŀĭåĬ¨æĢģåħ³æ³¨æľĢ": 635,
      "æ³¨æĦıåĬĽæľºåĪ¶éĢļè¿ĩè®¡ç®ĹæŁ¥è¯¢åĴĮéĶ": 636,
      "æĪĳæĺ¯ä¸Ģä¸ªåŁºäºİ": 637,
      "åĪĨéħįæĿĥéĩį": 638,
      "å®ĥéĢļè¿ĩå¤įæķ°æĹĭè½¬æ³¨åħ¥ä½įç½®ä¿¡æģ¯": 639,
      "®çļĦçĽ¸åħ³æĢ§åĪĨéħįæĿĥéĩį": 640,
      "ĠæķĻåŃ¦æ¼Ķç¤ºæ¨¡åŀĭ": 641,
      "ĠTransformer": 642,
      "è®©æ¨¡åŀĭåĬ¨æĢģåħ³æ³¨æľĢçĽ¸åħ³çļĦéĥ¨åĪĨ": 643,
      "æ³¨æĦıåĬĽæľºåĪ¶éĢļè¿ĩè®¡ç®ĹæŁ¥è¯¢åĴĮéĶ®çļĦçĽ¸åħ³æĢ§åĪĨéħįæĿĥéĩį": 644,
      "00": 645,
      "125": 646,
      "100": 647,
      "§è¡ĮæĺŁ": 648,
      "¨æĺŁ": 649,
      "ªäº": 650,
      "ªéĺ": 651,
      "«å¤": 652,
      "«æĺŁ": 653,
      "°ç": 654,
      "±æĺ¯": 655,
      "³»": 656,
      "³ç": 657,
      "µ·": 658,
      "åĵ": 659,
      "æī": 660,
      "æµ·": 661,
      "çģ": 662,
      "çİĭæĺŁ": 663,
      "Ġ2": 664,
      "Ġ3": 665,
      "Ġ6": 666,
      "ĠåĬ": 667,
      "Ġ25": 668,
      "Ġ20": 669,
      "Ġ30": 670,
      "Ģä»¥": 671,
      "Ĳĥ": 672,
      "ĳæĺŁ": 673,
      "Ľè¡ĮæĺŁ": 674,
      "ŁæĺŁ": 675,
      "ï¼ļ": 676,
      "æĺ¯ä»Ģä¹Ī": 677,
      "åħ«å¤": 678,
      "æľ¨æĺŁ": 679,
      "å¤©ç": 680,
      "å¤ªéĺ": 681,
      "å°±æĺ¯": 682,
      "Ġæĺ¯ä»Ģä¹Ī": 683,
      "Ġæĺ¯æĹĭè½¬ä½įç½®ç¼ĸçłģ": 684,
      "Ġæĺ¯å¤ļå°ĳ": 685,
      "éĩĳæĺŁ": 686,
      "æ°´æĺŁ": 687,
      "æĹĭè½¬ä½įç½®ç¼ĸçłģæĺ¯ä»Ģä¹Ī": 688,
      "æĹĭè½¬ä½įç½®ç¼ĸçłģå°±æĺ¯": 689,
      "æľīåĵ": 690,
      "å¤ĸæİ¨æĢ§æĽ´å¥½": 691,
      "æ¯Ķç»Ŀå¯¹ä½įç½®ç¼ĸçłģå¤ĸæİ¨æĢ§æĽ´å¥½": 692,
      "å®ĥéĢļè¿ĩå¤įæķ°æĹĭè½¬å°ĨçĽ¸å¯¹ä½įç½®ä¿¡æģ¯æ³¨åħ¥æ³¨æĦıåĬĽæľºåĪ¶": 693,
      "éĢļè¿ĩå¤įæķ°æĹĭè½¬æ³¨åħ¥çĽ¸å¯¹ä½įç½®ä¿¡æģ¯": 694,
      "åľ°ç": 695,
      "åľŁæĺŁ": 696,
      "ĠçŃīäºİå¤ļå°ĳ": 697,
      "ªäºĽè¡ĮæĺŁ": 698,
      "³»æľīåĵ": 699,
      "³ç³»æľīåĵ": 700,
      "æīĢä»¥": 701,
      "æµ·çİĭæĺŁ": 702,
      "çģ«æĺŁ": 703,
      "ĠåĬł": 704,
      "åħ«å¤§è¡ĮæĺŁ": 705,
      "å¤©çİĭæĺŁ": 706,
      "å¤ªéĺ³ç³»æľīåĵ": 707,
      "åľ°çĲĥ": 708,
      "æīĢä»¥çŃīäºİ": 709,
      "å¤ªéĺ³ç³»æľīåĵªäºĽè¡ĮæĺŁ": 710,
      "¹ç¼": 711,
      "åĢ": 712,
      "åģ": 713,
      "æł": 714,
      "é«ĺ": 715,
      "ĠåĴĮ": 716,
      "ĠæĽ´": 717,
      "Ġåıª": 718,
      "Ġæľīä»Ģä¹ĪåĮºåĪ«": 719,
      "ģé«ĺ": 720,
      "įåĩı": 721,
      "Ķ¾ä¸": 722,
      "ļåĿĩ": 723,
      "©æĶ¾ä¸": 724,
      "æķĪ": 725,
      "æ¯Ķ": 726,
      "æĸ¹æł": 727,
      "ç®Ģæ´": 728,
      "åĿĩåĢ": 729,
      "èĥ½è¯´ä¸ĭ": 730,
      "¹ç¼©æĶ¾ä¸": 731,
      "åģļåĿĩ": 732,
      "ĠæĽ´ç®Ģæ´": 733,
      "ĠåıªåģļåĿĩ": 734,
      "ģé«ĺæķĪ": 735,
      "įåĩıåĿĩåĢ": 736,
      "æĸ¹æł¹ç¼©æĶ¾ä¸": 737,
      "ĠæĽ´ç®Ģæ´ģé«ĺæķĪ": 738,
      "ĠåıªåģļåĿĩæĸ¹æł¹ç¼©æĶ¾ä¸": 739,
      "įåĩıåĿĩåĢ¼": 740,
      "ĠåıªåģļåĿĩæĸ¹æł¹ç¼©æĶ¾ä¸įåĩıåĿĩåĢ¼": 741,
      "¨åı": 742,
      "«æľīä»Ģä¹Ī": 743,
      "¯å": 744,
      "µĮ": 745,
      "¶ä¿Ŀ": 746,
      "¹¶ä¿Ŀ": 747,
      "åµĮ": 748,
      "æĮ": 749,
      "ģè¾ĵ": 750,
      "Ĥæķ°": 751,
      "īä¸Ģ": 752,
      "ĵç§": 753,
      "Ńä¹": 754,
      "ä½ĵç§": 755,
      "çĶ¨åı": 756,
      "å¤Ħ": 757,
      "è¯Ńä¹": 758,
      "åħ¥å±Ĥ": 759,
      "åħ¥è¾ĵåĩº": 760,
      "äº«æľīä»Ģä¹Ī": 761,
      "åĴĮè¾ĵåĩº": 762,
      "æ¨¡åŀĭä½ĵç§": 763,
      "æĿĥéĩįåħ±": 764,
      "å¥½å¤Ħ": 765,
      "å°ĳæ¨¡åŀĭä½ĵç§": 766,
      "èĩ´": 767,
      "åĩıå°ĳæ¨¡åŀĭä½ĵç§": 768,
      "å±Ĥåħ±": 769,
      "¯å¹¶ä¿Ŀ": 770,
      "åµĮåħ¥å±Ĥ": 771,
      "æĮģè¾ĵ": 772,
      "īä¸Ģèĩ´": 773,
      "çĶ¨åıĤæķ°": 774,
      "è¯Ńä¹īä¸Ģèĩ´": 775,
      "åħ¥è¾ĵåĩºè¯Ńä¹īä¸Ģèĩ´": 776,
      "äº«æľīä»Ģä¹Īå¥½å¤Ħ": 777,
      "åĴĮè¾ĵåĩºå±Ĥåħ±": 778,
      "æĿĥéĩįåħ±äº«æľīä»Ģä¹Īå¥½å¤Ħ": 779,
      "åĩıå°ĳæ¨¡åŀĭä½ĵç§¯å¹¶ä¿Ŀ": 780,
      "åµĮåħ¥å±ĤåĴĮè¾ĵåĩºå±Ĥåħ±": 781,
      "æĮģè¾ĵåħ¥è¾ĵåĩºè¯Ńä¹īä¸Ģèĩ´": 782,
      "åĩıå°ĳæ¨¡åŀĭä½ĵç§¯å¹¶ä¿ĿæĮģè¾ĵåħ¥è¾ĵåĩºè¯Ńä¹īä¸Ģèĩ´": 783,
      "åµĮåħ¥å±ĤåĴĮè¾ĵåĩºå±Ĥåħ±çĶ¨åıĤæķ°": 784,
      "è§£éĩĬä¸Ģä¸ĭ": 785,
      "ĭèĴ¸é¦ı": 786,
      "æ°´åĴĮçº¯æ°´æľīä»Ģä¹ĪåĮºåĪ«": 787,
      "è®²ä¸Ģä¸": 788,
      "ĭèĴ¸é¦ıæ°´åĴĮçº¯æ°´æľīä»Ģä¹ĪåĮºåĪ«": 789,
      "èĴ¸é¦ıæ°´åĴĮçº¯æ°´æľīä»Ģä¹ĪåĮºåĪ«": 790,
      "ä½łçŁ¥éģĵä»Ģä¹Īæĺ¯åĽłæŀľæİ©çłģ": 791,
      "ä½łçŁ¥éģĵè§£éĩĬä¸Ģä¸ĭ": 792,
      "è¯·éĹ®RoPE": 793,
      "å¸®æĪĳè§£éĩĬä¸ĭä»Ģä¹Īæĺ¯": 794,
      "§£éĩĬ": 795,
      "ä¸ĭèĴ¸é¦ıæ°´åĴĮçº¯æ°´æľīä»Ģä¹ĪåĮºåĪ«": 796,
      "ĭè§£éĩĬ": 797,
      "ä½łçŁ¥éģĵä»Ģä¹Īæĺ¯æľºåĻ¨åŃ¦ä¹ł": 798,
      "ä½łçŁ¥éģĵä½łæĺ¯è°ģ": 799,
      "ä½łçŁ¥éģĵå¤ªéĺ³ç³»æľīåĵªäºĽè¡ĮæĺŁ": 800,
      "è¯·éĹ®ä»Ģä¹Īæĺ¯æ³¨æĦıåĬĽæľºåĪ¶": 801,
      "è®²ä¸Ģä¸ĭä»Ģä¹Īæĺ¯": 802,
      "å¸®æĪĳè§£éĩĬä¸ĭRoPE": 803,
      "å¸®æĪĳè§£éĩĬä¸ĭä½łæĺ¯è°ģ": 804,
      "èĥ½è¯´ä¸ĭèĴ¸é¦ıæ°´åĴĮçº¯æ°´æľīä»Ģä¹ĪåĮºåĪ«": 805,
      "è®²ä¸Ģä¸ĭè§£éĩĬ": 806,
      "è®²ä¸Ģä¸ĭè§£éĩĬä¸Ģä¸ĭ": 807,
      "ä½łçŁ¥éģĵRoPE": 808,
      "è¯·éĹ®ä»Ģä¹Īæĺ¯åĽłæŀľæİ©çłģ": 809,
      "è¯·éĹ®æĿĥéĩįåħ±äº«æľīä»Ģä¹Īå¥½å¤Ħ": 810,
      "è®²ä¸Ģä¸ĭRoPE": 811,
      "è®²ä¸Ģä¸ĭRMSNorm": 812,
      "è®²ä¸Ģä¸ĭæĹĭè½¬ä½įç½®ç¼ĸçłģæĺ¯ä»Ģä¹Ī": 813,
      "èĥ½è¯´ä¸ĭä»Ģä¹Īæĺ¯æľºåĻ¨åŃ¦ä¹ł": 814,
      "èĥ½è¯´ä¸ĭæĹĭè½¬ä½įç½®ç¼ĸçłģæĺ¯ä»Ģä¹Ī": 815,
      "ä½łçŁ¥éģĵæĿĥéĩįåħ±äº«æľīä»Ģä¹Īå¥½å¤Ħ": 816,
      "è¯·éĹ®RMSNorm": 817,
      "è®²ä¸Ģä¸ĭä»Ģä¹Īæĺ¯æ³¨æĦıåĬĽæľºåĪ¶": 818,
      "è®²ä¸Ģä¸ĭèĴ¸é¦ıæ°´åĴĮçº¯æ°´æľīä»Ģä¹ĪåĮºåĪ«": 819,
      "è®²ä¸Ģä¸ĭå¤ªéĺ³ç³»æľīåĵªäºĽè¡ĮæĺŁ": 820
    },
    "merges": [
      [
        "ï",
        "¼"
      ],
      [
        "æ",
        "ĺ"
      ],
      [
        "¨",
        "æ"
      ],
      [
        "ä",
        "¸"
      ],
      [
        "å",
        "Ĭ"
      ],
      [
        "ã",
        "Ģ"
      ],
      [
        "ï¼",
        "Į"
      ],
      [
        "ä",
        "»"
      ],
      [
        "ä",
        "½"
      ],
      [
        "ç",
        "Ķ"
      ],
      [
        "©",
        "æ"
      ],
      [
        "æĺ",
        "¯"
      ],
      [
        "ä",
        "¹"
      ],
      [
        "Ī",
        "·"
      ],
      [
        "ī",
        "ĭ"
      ],
      [
        "¨æ",
        "Ī·"
      ],
      [
        "åĬ",
        "©æ"
      ],
      [
        "ãĢ",
        "Ĥ"
      ],
      [
        "çĶ",
        "¨æĪ·"
      ],
      [
        "åĬ©æ",
        "īĭ"
      ],
      [
        "å",
        "ħ"
      ],
      [
        "ï¼",
        "Ł"
      ],
      [
        "æ",
        "ľ"
      ],
      [
        "į",
        "ç"
      ],
      [
        "å",
        "¤"
      ],
      [
        "å",
        "Ī"
      ],
      [
        "½",
        "®"
      ],
      [
        "ä½",
        "įç"
      ],
      [
        "ä½įç",
        "½®"
      ],
      [
        "ĭ",
        "è"
      ],
      [
        "ç",
        "¼"
      ],
      [
        "æ",
        "Ĺ"
      ],
      [
        "Ģ",
        "ä¹"
      ],
      [
        "ä»",
        "Ģä¹"
      ],
      [
        "ä»Ģä¹",
        "Ī"
      ],
      [
        "ç",
        "ļ"
      ],
      [
        "çļ",
        "Ħ"
      ],
      [
        "ç¼",
        "ĸ"
      ],
      [
        "æ",
        "³"
      ],
      [
        "½",
        "¬"
      ],
      [
        "ĭè",
        "½¬"
      ],
      [
        "æĹ",
        "ĭè½¬"
      ],
      [
        "æĺ",
        "Ł"
      ],
      [
        "é",
        "Ģ"
      ],
      [
        "ç¼ĸ",
        "ç"
      ],
      [
        "ł",
        "ģ"
      ],
      [
        "æ",
        "ķ"
      ],
      [
        "ä»",
        "¥"
      ],
      [
        "è",
        "®"
      ],
      [
        "ä¸",
        "Ģ"
      ],
      [
        "¿",
        "ĩ"
      ],
      [
        "è",
        "¿ĩ"
      ],
      [
        "ļ",
        "è¿ĩ"
      ],
      [
        "éĢ",
        "ļè¿ĩ"
      ],
      [
        "P",
        "E"
      ],
      [
        "R",
        "o"
      ],
      [
        "ä",
        "¿"
      ],
      [
        "Ro",
        "PE"
      ],
      [
        "ä½įç½®",
        "ç¼ĸç"
      ],
      [
        "ä½įç½®ç¼ĸç",
        "łģ"
      ],
      [
        "å",
        "°"
      ],
      [
        "Ġ",
        "æĺ¯"
      ],
      [
        "ãĢ",
        "ģ"
      ],
      [
        "é",
        "ĩ"
      ],
      [
        "è",
        "¯"
      ],
      [
        "ä¸",
        "ĭ"
      ],
      [
        "åĪ",
        "¶"
      ],
      [
        "å",
        "¯"
      ],
      [
        "æ",
        "Ŀ"
      ],
      [
        "æľ",
        "º"
      ],
      [
        "æķ",
        "°"
      ],
      [
        "åħ",
        "¥"
      ],
      [
        "ä",
        "º"
      ],
      [
        "è",
        "§"
      ],
      [
        "°",
        "´"
      ],
      [
        "æ",
        "°´"
      ],
      [
        "¡",
        "æ"
      ],
      [
        "ģ",
        "¯"
      ],
      [
        "ä¿",
        "¡æ"
      ],
      [
        "ä¿¡æ",
        "ģ¯"
      ],
      [
        "å",
        "ı"
      ],
      [
        "æ³",
        "¨æ"
      ],
      [
        "å¯",
        "¹"
      ],
      [
        "ç",
        "Ľ"
      ],
      [
        "çĽ",
        "¸"
      ],
      [
        "å",
        "ŀ"
      ],
      [
        "æĹĭè½¬",
        "ä½įç½®ç¼ĸçłģ"
      ],
      [
        "åŀ",
        "ĭ"
      ],
      [
        "æľ",
        "ī"
      ],
      [
        "Ġ",
        "5"
      ],
      [
        "o",
        "r"
      ],
      [
        "or",
        "m"
      ],
      [
        "å",
        "ĩ"
      ],
      [
        "ä»Ģä¹Ī",
        "æĺ¯"
      ],
      [
        "Ħ",
        "ı"
      ],
      [
        "Ľ",
        "æľº"
      ],
      [
        "åĬ",
        "Ľæľº"
      ],
      [
        "æ³¨æ",
        "Ħı"
      ],
      [
        "åĬĽæľº",
        "åĪ¶"
      ],
      [
        "æ³¨æĦı",
        "åĬĽæľºåĪ¶"
      ],
      [
        "¨",
        "åħ¥"
      ],
      [
        "æ",
        "¯"
      ],
      [
        "ç",
        "§"
      ],
      [
        "į",
        "æķ°"
      ],
      [
        "å¤",
        "įæķ°"
      ],
      [
        "ä½įç½®",
        "ä¿¡æģ¯"
      ],
      [
        "æ³",
        "¨åħ¥"
      ],
      [
        "éĢļè¿ĩ",
        "å¤įæķ°"
      ],
      [
        "éĢļè¿ĩå¤įæķ°",
        "æĹĭè½¬"
      ],
      [
        "¡",
        "åŀĭ"
      ],
      [
        "¨",
        "¡åŀĭ"
      ],
      [
        "ç",
        "Ń"
      ],
      [
        "çŃ",
        "ī"
      ],
      [
        "å",
        "Ĵ"
      ],
      [
        "äº",
        "İ"
      ],
      [
        "åĴ",
        "Į"
      ],
      [
        "N",
        "orm"
      ],
      [
        "ç",
        "Ł"
      ],
      [
        "ä½",
        "ł"
      ],
      [
        "ç",
        "º"
      ],
      [
        "¦",
        "ı"
      ],
      [
        "¸",
        "é"
      ],
      [
        "Ĵ",
        "¸é"
      ],
      [
        "Ĵ¸é",
        "¦ı"
      ],
      [
        "é",
        "Ĺ"
      ],
      [
        "æ",
        "İ"
      ],
      [
        "æ",
        "ĸ"
      ],
      [
        "æĸ",
        "¹"
      ],
      [
        "å",
        "Į"
      ],
      [
        "å",
        "Ń"
      ],
      [
        "åŃ",
        "¦"
      ],
      [
        "Ģ",
        "§"
      ],
      [
        "Ķ",
        "ç"
      ],
      [
        "Ġ",
        "çļĦ"
      ],
      [
        "åħ",
        "³"
      ],
      [
        "å¯¹",
        "ä½įç½®ä¿¡æģ¯"
      ],
      [
        "çĽ¸",
        "å¯¹ä½įç½®ä¿¡æģ¯"
      ],
      [
        "æ",
        "Ľ"
      ],
      [
        "æ",
        "¨¡åŀĭ"
      ],
      [
        "ç",
        "®"
      ],
      [
        "ĥ",
        "éĩ"
      ],
      [
        "æĿ",
        "ĥéĩ"
      ],
      [
        "æĽ",
        "´"
      ],
      [
        "æĿĥéĩ",
        "į"
      ],
      [
        "¥",
        "½"
      ],
      [
        "å",
        "¥½"
      ],
      [
        "2",
        "5"
      ],
      [
        "¤",
        "ä»¥"
      ],
      [
        "é",
        "Ļ"
      ],
      [
        "Ġ",
        "ä¹"
      ],
      [
        "Ġ",
        "éĻ"
      ],
      [
        "ĺ",
        "ä»¥"
      ],
      [
        "ä¸Ģ",
        "ä¸ĭ"
      ],
      [
        "æľī",
        "ä»Ģä¹Ī"
      ],
      [
        "çŃī",
        "äºİ"
      ],
      [
        "Ġä¹",
        "ĺä»¥"
      ],
      [
        "ĠéĻ",
        "¤ä»¥"
      ],
      [
        "e",
        "r"
      ],
      [
        "å°",
        "ĳ"
      ],
      [
        "¾",
        "ĵ"
      ],
      [
        "è",
        "¾ĵ"
      ],
      [
        "¥",
        "é"
      ],
      [
        "ģ",
        "ĵ"
      ],
      [
        "çŁ",
        "¥é"
      ],
      [
        "ä½ł",
        "çŁ¥é"
      ],
      [
        "ä½łçŁ¥é",
        "ģĵ"
      ],
      [
        "è®",
        "²"
      ],
      [
        "è",
        "Ĵ¸é¦ı"
      ],
      [
        "£",
        "éĩ"
      ],
      [
        "£éĩ",
        "Ĭ"
      ],
      [
        "æ",
        "Ī"
      ],
      [
        "æĪ",
        "ĳ"
      ],
      [
        "ä¸",
        "ī"
      ],
      [
        "æĸ¹",
        "å"
      ],
      [
        "¯",
        "æ°´"
      ],
      [
        "è",
        "´"
      ],
      [
        "è",
        "Ģ"
      ],
      [
        "ģ",
        "æĺ"
      ],
      [
        "è§",
        "£éĩĬ"
      ],
      [
        "çº",
        "¯æ°´"
      ],
      [
        "èĢ",
        "Į"
      ],
      [
        "¼",
        "ı"
      ],
      [
        "å",
        "¾"
      ],
      [
        "å",
        "Ĩ"
      ],
      [
        "æ",
        "Ĭ"
      ],
      [
        "Ģ",
        "ģ"
      ],
      [
        "çļĦ",
        "é"
      ],
      [
        "¨",
        "åŃ¦"
      ],
      [
        "ä¹",
        "ł"
      ],
      [
        "è§",
        "Ħ"
      ],
      [
        "¨åŃ¦",
        "ä¹ł"
      ],
      [
        "¡",
        "ç®"
      ],
      [
        "©",
        "ç"
      ],
      [
        "«",
        "ĺ"
      ],
      [
        "·",
        "éĹ"
      ],
      [
        "»",
        "Ŀ"
      ],
      [
        "æ",
        "´"
      ],
      [
        "é",
        "ĺ"
      ],
      [
        "Ġ",
        "RoPE"
      ],
      [
        "Ģ",
        "æ´"
      ],
      [
        "Ĩ",
        "çĽ¸å¯¹ä½įç½®ä¿¡æģ¯"
      ],
      [
        "ĸ",
        "æİ"
      ],
      [
        "ľ",
        "Ģ"
      ],
      [
        "¨æ",
        "Ģ§"
      ],
      [
        "å¤",
        "ĸæİ"
      ],
      [
        "è®",
        "¡ç®"
      ],
      [
        "å°",
        "ĨçĽ¸å¯¹ä½įç½®ä¿¡æģ¯"
      ],
      [
        "è¯",
        "·éĹ"
      ],
      [
        "å¯¹",
        "ä½įç½®ç¼ĸçłģ"
      ],
      [
        "æ¯",
        "Ķç"
      ],
      [
        "æ³¨åħ¥",
        "æ³¨æĦıåĬĽæľºåĪ¶"
      ],
      [
        "éĢļè¿ĩå¤įæķ°æĹĭè½¬",
        "å°ĨçĽ¸å¯¹ä½įç½®ä¿¡æģ¯"
      ],
      [
        "æĽ´",
        "å¥½"
      ],
      [
        "»Ŀ",
        "å¯¹ä½įç½®ç¼ĸçłģ"
      ],
      [
        "å¤ĸæİ",
        "¨æĢ§"
      ],
      [
        "è®¡ç®",
        "Ĺ"
      ],
      [
        "è¯·éĹ",
        "®"
      ],
      [
        "æ¯Ķç",
        "»Ŀå¯¹ä½įç½®ç¼ĸçłģ"
      ],
      [
        "éĢļè¿ĩå¤įæķ°æĹĭè½¬å°ĨçĽ¸å¯¹ä½įç½®ä¿¡æģ¯",
        "æ³¨åħ¥æ³¨æĦıåĬĽæľºåĪ¶"
      ],
      [
        "¨",
        "ç§"
      ],
      [
        "°",
        "æĺ¯"
      ],
      [
        "º",
        "åĪ"
      ],
      [
        "¾",
        "ä¸"
      ],
      [
        "åħ",
        "¨ç§"
      ],
      [
        "åĪ",
        "Ĩ"
      ],
      [
        "åı",
        "ª"
      ],
      [
        "çĽ¸",
        "åħ³"
      ],
      [
        "åĮ",
        "ºåĪ"
      ],
      [
        "ĠçļĦ",
        "åħ¨ç§"
      ],
      [
        "æľīä»Ģä¹Ī",
        "åĮºåĪ"
      ],
      [
        "ĠçļĦåħ¨ç§",
        "°æĺ¯"
      ],
      [
        "æľīä»Ģä¹ĪåĮºåĪ",
        "«"
      ],
      [
        "®",
        "ĥ"
      ],
      [
        "å",
        "®ĥ"
      ],
      [
        "ä¿",
        "Ŀ"
      ],
      [
        "éĢļè¿ĩå¤įæķ°æĹĭè½¬",
        "æ³¨åħ¥"
      ],
      [
        "1",
        "5"
      ],
      [
        "2",
        "0"
      ],
      [
        "3",
        "0"
      ],
      [
        "9",
        "0"
      ],
      [
        "¡",
        "Į"
      ],
      [
        "å",
        "ľ"
      ],
      [
        "è",
        "ĩ"
      ],
      [
        "è",
        "¡Į"
      ],
      [
        "Ġ",
        "çŃīäºİ"
      ],
      [
        "Ġ",
        "90"
      ],
      [
        "ĭ",
        "æĺŁ"
      ],
      [
        "İ",
        "ĭæĺŁ"
      ],
      [
        "ļ",
        "å°ĳ"
      ],
      [
        "å¤",
        "ļå°ĳ"
      ],
      [
        "è¡Į",
        "æĺŁ"
      ],
      [
        "L",
        "a"
      ],
      [
        "M",
        "S"
      ],
      [
        "R",
        "MS"
      ],
      [
        "y",
        "er"
      ],
      [
        "å",
        "Ŀ"
      ],
      [
        "Ġ",
        "La"
      ],
      [
        "RMS",
        "Norm"
      ],
      [
        "yer",
        "Norm"
      ],
      [
        "åĿ",
        "ĩ"
      ],
      [
        "ĠLa",
        "yerNorm"
      ],
      [
        "åĩ",
        "ı"
      ],
      [
        "è®²",
        "ä¸Ģä¸ĭ"
      ],
      [
        "±",
        "Ĥ"
      ],
      [
        "å",
        "±Ĥ"
      ],
      [
        "åħ",
        "±"
      ],
      [
        "åĩ",
        "º"
      ],
      [
        "è¾ĵ",
        "åĩº"
      ],
      [
        "ä¸Ģ",
        "ä¸"
      ],
      [
        "èĴ¸é¦ı",
        "æ°´"
      ],
      [
        "®",
        "æĪĳ"
      ],
      [
        "¸",
        "®æĪĳ"
      ],
      [
        "å",
        "¸®æĪĳ"
      ],
      [
        "è§£éĩĬ",
        "ä¸ĭ"
      ],
      [
        "å¸®æĪĳ",
        "è§£éĩĬä¸ĭ"
      ],
      [
        "½",
        "è¯"
      ],
      [
        "è",
        "ĥ"
      ],
      [
        "½è¯",
        "´"
      ],
      [
        "èĥ",
        "½è¯´"
      ],
      [
        "P",
        "y"
      ],
      [
        "h",
        "o"
      ],
      [
        "t",
        "ho"
      ],
      [
        "§",
        "ç¼ĸç"
      ],
      [
        "¨",
        "Ģ"
      ],
      [
        "¨",
        "ĭè"
      ],
      [
        "¬",
        "¬"
      ],
      [
        "®",
        "Ģæ´"
      ],
      [
        "¯",
        "Ń"
      ],
      [
        "°",
        "å¯"
      ],
      [
        "º",
        "ĵ"
      ],
      [
        "»",
        "å"
      ],
      [
        "»",
        "çļĦé"
      ],
      [
        "æ",
        "Ģģ"
      ],
      [
        "ç",
        "¬¬"
      ],
      [
        "è",
        "¨Ģ"
      ],
      [
        "Ġ",
        "Py"
      ],
      [
        "Į",
        "çļĦ"
      ],
      [
        "Ĳ",
        "į"
      ],
      [
        "ĵ",
        "è¯"
      ],
      [
        "Ł",
        "æĢģ"
      ],
      [
        "ä¸",
        "°å¯"
      ],
      [
        "çĶ",
        "ŁæĢģ"
      ],
      [
        "įç",
        "®Ģæ´"
      ],
      [
        "ä»¥",
        "ä¸°å¯"
      ],
      [
        "ä¸Ģ",
        "ç§"
      ],
      [
        "çº",
        "§ç¼ĸç"
      ],
      [
        "éĹ",
        "»å"
      ],
      [
        "ä¸ī",
        "æĸ¹å"
      ],
      [
        "ģæĺ",
        "ĵè¯"
      ],
      [
        "èĢĮ",
        "éĹ»å"
      ],
      [
        "«ĺ",
        "çº§ç¼ĸç"
      ],
      [
        "tho",
        "n"
      ],
      [
        "¨ĭè",
        "¯Ń"
      ],
      [
        "ºĵ",
        "çĶŁæĢģ"
      ],
      [
        "»çļĦé",
        "«ĺçº§ç¼ĸç"
      ],
      [
        "ç¬¬",
        "ä¸īæĸ¹å"
      ],
      [
        "ĠPy",
        "thon"
      ],
      [
        "ĮçļĦ",
        "ç¬¬ä¸īæĸ¹å"
      ],
      [
        "įç®Ģæ´",
        "ģæĺĵè¯"
      ],
      [
        "ä»¥ä¸°å¯",
        "ĮçļĦç¬¬ä¸īæĸ¹å"
      ],
      [
        "ä¸Ģç§",
        "įç®Ģæ´ģæĺĵè¯"
      ],
      [
        "èĢĮéĹ»å",
        "Ĳį"
      ],
      [
        "¨ĭè¯Ń",
        "è¨Ģ"
      ],
      [
        "ºĵçĶŁæĢģ",
        "èĢĮéĹ»åĲį"
      ],
      [
        "»çļĦé«ĺçº§ç¼ĸç",
        "¨ĭè¯Ńè¨Ģ"
      ],
      [
        "ä»¥ä¸°å¯ĮçļĦç¬¬ä¸īæĸ¹å",
        "ºĵçĶŁæĢģèĢĮéĹ»åĲį"
      ],
      [
        "ä¸Ģç§įç®Ģæ´ģæĺĵè¯",
        "»çļĦé«ĺçº§ç¼ĸç¨ĭè¯Ńè¨Ģ"
      ],
      [
        "¡",
        "®"
      ],
      [
        "¥",
        "ä½įç½®"
      ],
      [
        "©",
        "·"
      ],
      [
        "©",
        "éĺ"
      ],
      [
        "ª",
        "æĿ"
      ],
      [
        "¬",
        "åı"
      ],
      [
        "°",
        "å"
      ],
      [
        "²",
        "ä¿¡æģ¯"
      ],
      [
        "³",
        "æĹĭè½¬ä½įç½®ç¼ĸçłģ"
      ],
      [
        "·",
        "æľī"
      ],
      [
        "·",
        "åĩ"
      ],
      [
        "¸",
        "Ĺ"
      ],
      [
        "º",
        "è´"
      ],
      [
        "å",
        "į"
      ],
      [
        "å",
        "Ľ"
      ],
      [
        "æ",
        "ĭ"
      ],
      [
        "æ",
        "ŀ"
      ],
      [
        "æ",
        "¸Ĺ"
      ],
      [
        "ç",
        "ľ"
      ],
      [
        "ç",
        "¡®"
      ],
      [
        "ç",
        "©·"
      ],
      [
        "Ġ",
        "åį"
      ],
      [
        "ģ",
        "ä½"
      ],
      [
        "Ĥ",
        "è´"
      ],
      [
        "ħ",
        "æĭ"
      ],
      [
        "Ĩ",
        "åı"
      ],
      [
        "ĩ",
        "æĸ¹å"
      ],
      [
        "Ĭ",
        "æľ"
      ],
      [
        "ĭ",
        "åĪ"
      ],
      [
        "į",
        "æ¸Ĺ"
      ],
      [
        "İ",
        "Ĩåı"
      ],
      [
        "ı",
        "çŃī"
      ],
      [
        "Ĵ",
        "çŁ"
      ],
      [
        "ľ",
        "æİ"
      ],
      [
        "Ŀ",
        "åĪ¶"
      ],
      [
        "ŀ",
        "ģä½"
      ],
      [
        "Ł",
        "æĹ"
      ],
      [
        "ł",
        "æŀ"
      ],
      [
        "ł",
        "ç©·"
      ],
      [
        "¨æ",
        "ŀģä½"
      ],
      [
        "åħ",
        "·æľī"
      ],
      [
        "å¤",
        "ĩæĸ¹å"
      ],
      [
        "çļĦ",
        "å¤ĸæİ¨æĢ§"
      ],
      [
        "éĢ",
        "ıçŃī"
      ],
      [
        "è®",
        "¾ä¸"
      ],
      [
        "éĢļè¿ĩ",
        "èĴ¸é¦ı"
      ],
      [
        "ä¸ĭ",
        "ä¸ī"
      ],
      [
        "åĪ¶",
        "å¤ĩæĸ¹å"
      ],
      [
        "æĿ",
        "Ĥè´"
      ],
      [
        "è§",
        "ĴçŁ"
      ],
      [
        "ä»Ģä¹Īæĺ¯",
        "åĽ"
      ],
      [
        "åĴĮ",
        "çº¯æ°´"
      ],
      [
        "åĮ",
        "ħæĭ"
      ],
      [
        "æ¨¡åŀĭ",
        "åıª"
      ],
      [
        "æĿĥéĩį",
        "è®¾ä¸"
      ],
      [
        "çº¯æ°´",
        "æĿĤè´"
      ],
      [
        "¼ı",
        "åĮħæĭ"
      ],
      [
        "å¾",
        "Ĺ"
      ],
      [
        "åĨ",
        "·åĩ"
      ],
      [
        "æĬ",
        "Ĭæľ"
      ],
      [
        "©ç",
        "łģ"
      ],
      [
        "æĽ´å¥½",
        "çļĦå¤ĸæİ¨æĢ§"
      ],
      [
        "æ¯Ķç»Ŀå¯¹ä½įç½®ç¼ĸçłģ",
        "åħ·æľī"
      ],
      [
        "ä¿Ŀ",
        "æ¨¡åŀĭåıª"
      ],
      [
        "èĴ¸é¦ıæ°´",
        "éĢļè¿ĩèĴ¸é¦ı"
      ],
      [
        "¥ä½įç½®",
        "æĿĥéĩįè®¾ä¸"
      ],
      [
        "©éĺ",
        "µ"
      ],
      [
        "ªæĿ",
        "¥ä½įç½®æĿĥéĩįè®¾ä¸"
      ],
      [
        "¬åı",
        "įæ¸Ĺ"
      ],
      [
        "°å",
        "İĨåı"
      ],
      [
        "ºè´",
        "ŁæĹ"
      ],
      [
        "çľ",
        "ĭåĪ"
      ],
      [
        "ç¡®",
        "ä¿Ŀæ¨¡åŀĭåıª"
      ],
      [
        "Ġåį",
        "³æĹĭè½¬ä½įç½®ç¼ĸçłģ"
      ],
      [
        "ľæİ",
        "©çłģ"
      ],
      [
        "ĿåĪ¶",
        "å¾Ĺ"
      ],
      [
        "łæŀ",
        "ľæİ©çłģ"
      ],
      [
        "¨æŀģä½",
        "İ"
      ],
      [
        "ä¸ĭä¸ī",
        "è§ĴçŁ"
      ],
      [
        "åĪ¶å¤ĩæĸ¹å",
        "¼ıåĮħæĭ"
      ],
      [
        "ä»Ģä¹Īæĺ¯åĽ",
        "łæŀľæİ©çłģ"
      ],
      [
        "åĴĮçº¯æ°´",
        "æľīä»Ģä¹ĪåĮºåĪ«"
      ],
      [
        "çº¯æ°´æĿĤè´",
        "¨æŀģä½İ"
      ],
      [
        "åĨ·åĩ",
        "ĿåĪ¶å¾Ĺ"
      ],
      [
        "æĬĬæľ",
        "ªæĿ¥ä½įç½®æĿĥéĩįè®¾ä¸"
      ],
      [
        "æ¯Ķç»Ŀå¯¹ä½įç½®ç¼ĸçłģåħ·æľī",
        "æĽ´å¥½çļĦå¤ĸæİ¨æĢ§"
      ],
      [
        "èĴ¸é¦ıæ°´éĢļè¿ĩèĴ¸é¦ı",
        "åĨ·åĩĿåĪ¶å¾Ĺ"
      ],
      [
        "¬åıįæ¸Ĺ",
        "éĢıçŃī"
      ],
      [
        "°åİĨåı",
        "²ä¿¡æģ¯"
      ],
      [
        "ºè´ŁæĹ",
        "łç©·"
      ],
      [
        "çľĭåĪ",
        "°åİĨåı²ä¿¡æģ¯"
      ],
      [
        "ç¡®ä¿Ŀæ¨¡åŀĭåıª",
        "çľĭåĪ°åİĨåı²ä¿¡æģ¯"
      ],
      [
        "ä¸ĭä¸īè§ĴçŁ",
        "©éĺµ"
      ],
      [
        "åĪ¶å¤ĩæĸ¹å¼ıåĮħæĭ",
        "¬åıįæ¸ĹéĢıçŃī"
      ],
      [
        "æĬĬæľªæĿ¥ä½įç½®æĿĥéĩįè®¾ä¸",
        "ºè´ŁæĹłç©·"
      ],
      [
        "¡",
        "è§Ħ"
      ],
      [
        "¦",
        "ģæĺ"
      ],
      [
        "©",
        "è®¡ç®Ĺ"
      ],
      [
        "ª",
        "åĬ"
      ],
      [
        "®",
        "èĩ"
      ],
      [
        "¾",
        "å"
      ],
      [
        "å",
        "Ļ"
      ],
      [
        "æ",
        "į"
      ],
      [
        "è",
        "¦ģæĺ"
      ],
      [
        "é",
        "ľĢ"
      ],
      [
        "Ģ",
        "æľ"
      ],
      [
        "į",
        "éľĢ"
      ],
      [
        "ı",
        "ä¸Ģ"
      ],
      [
        "Ļ",
        "çļĦ"
      ],
      [
        "Ļ",
        "æ¯"
      ],
      [
        "ä¸",
        "įéľĢ"
      ],
      [
        "åĪ",
        "ĻçļĦ"
      ],
      [
        "ç¼ĸ",
        "åĨ"
      ],
      [
        "è®",
        "©è®¡ç®Ĺ"
      ],
      [
        "éĢļè¿ĩ",
        "æķ°"
      ],
      [
        "æĿ",
        "¡è§Ħ"
      ],
      [
        "æľº",
        "åĻ"
      ],
      [
        "æľº",
        "éĢļè¿ĩæķ°"
      ],
      [
        "ä»Ģä¹Īæĺ¯",
        "æľºåĻ"
      ],
      [
        "èĢĮ",
        "ä¸įéľĢ"
      ],
      [
        "¼ı",
        "ç¼ĸåĨ"
      ],
      [
        "å¾",
        "ĭ"
      ],
      [
        "æĬ",
        "Ģæľ"
      ],
      [
        "è§Ħ",
        "å¾ĭ"
      ],
      [
        "¨åŃ¦ä¹ł",
        "è§Ħå¾ĭ"
      ],
      [
        "ªåĬ",
        "¨åŃ¦ä¹łè§Ħå¾ĭ"
      ],
      [
        "®èĩ",
        "ªåĬ¨åŃ¦ä¹łè§Ħå¾ĭ"
      ],
      [
        "¾å",
        "¼ıç¼ĸåĨ"
      ],
      [
        "æį",
        "®èĩªåĬ¨åŃ¦ä¹łè§Ħå¾ĭ"
      ],
      [
        "è¦ģæĺ",
        "¾å¼ıç¼ĸåĨ"
      ],
      [
        "ıä¸Ģ",
        "æĿ¡è§Ħ"
      ],
      [
        "Ļæ¯",
        "ıä¸ĢæĿ¡è§Ħ"
      ],
      [
        "åĪĻçļĦ",
        "æĬĢæľ"
      ],
      [
        "è®©è®¡ç®Ĺ",
        "æľºéĢļè¿ĩæķ°"
      ],
      [
        "ä»Ģä¹Īæĺ¯æľºåĻ",
        "¨åŃ¦ä¹ł"
      ],
      [
        "èĢĮä¸įéľĢ",
        "è¦ģæĺ¾å¼ıç¼ĸåĨ"
      ],
      [
        "Ļæ¯ıä¸ĢæĿ¡è§Ħ",
        "åĪĻçļĦæĬĢæľ"
      ],
      [
        "è®©è®¡ç®ĹæľºéĢļè¿ĩæķ°",
        "æį®èĩªåĬ¨åŃ¦ä¹łè§Ħå¾ĭ"
      ],
      [
        "èĢĮä¸įéľĢè¦ģæĺ¾å¼ıç¼ĸåĨ",
        "Ļæ¯ıä¸ĢæĿ¡è§ĦåĪĻçļĦæĬĢæľ"
      ],
      [
        "èĢĮä¸įéľĢè¦ģæĺ¾å¼ıç¼ĸåĨĻæ¯ıä¸ĢæĿ¡è§ĦåĪĻçļĦæĬĢæľ",
        "¯"
      ],
      [
        "G",
        "P"
      ],
      [
        "T",
        "r"
      ],
      [
        "a",
        "n"
      ],
      [
        "f",
        "orm"
      ],
      [
        "s",
        "form"
      ],
      [
        "¢",
        "åĴĮ"
      ],
      [
        "¤",
        "º"
      ],
      [
        "¥",
        "è¯"
      ],
      [
        "¨",
        "åĪĨ"
      ],
      [
        "ª",
        "å"
      ],
      [
        "®",
        "çļĦ"
      ],
      [
        "°",
        "ģ"
      ],
      [
        "º",
        "äºİ"
      ],
      [
        "¼",
        "Ķç"
      ],
      [
        "æ",
        "Ł"
      ],
      [
        "æ",
        "Ģ§"
      ],
      [
        "æ",
        "¼Ķç"
      ],
      [
        "è",
        "°ģ"
      ],
      [
        "é",
        "ħ"
      ],
      [
        "é",
        "Ķ"
      ],
      [
        "Ġ",
        "æķ"
      ],
      [
        "Ġ",
        "GP"
      ],
      [
        "Ġ",
        "Tr"
      ],
      [
        "ĥ",
        "¨åĪĨ"
      ],
      [
        "į",
        "æĿĥéĩį"
      ],
      [
        "ı",
        "åŀĭ"
      ],
      [
        "Ļ",
        "åŃ¦"
      ],
      [
        "Ł",
        "ºäºİ"
      ],
      [
        "¨æ",
        "Ģģ"
      ],
      [
        "åĬ",
        "¨æĢģ"
      ],
      [
        "©æ",
        "¨¡åŀĭ"
      ],
      [
        "æĺ¯",
        "ä¸Ģä¸"
      ],
      [
        "æĺ¯",
        "è°ģ"
      ],
      [
        "è®",
        "©æ¨¡åŀĭ"
      ],
      [
        "éĢļè¿ĩ",
        "è®¡ç®Ĺ"
      ],
      [
        "å°",
        "ıåŀĭ"
      ],
      [
        "æ³¨æ",
        "ľĢ"
      ],
      [
        "ä»Ģä¹Īæĺ¯",
        "æ³¨æĦıåĬĽæľºåĪ¶"
      ],
      [
        "æ³¨æĦıåĬĽæľºåĪ¶",
        "éĢļè¿ĩè®¡ç®Ĺ"
      ],
      [
        "ä½ł",
        "æĺ¯è°ģ"
      ],
      [
        "ĠçļĦ",
        "å°ıåŀĭ"
      ],
      [
        "åħ³",
        "æ³¨æľĢ"
      ],
      [
        "æĪĳ",
        "æĺ¯ä¸Ģä¸"
      ],
      [
        "çļĦé",
        "ĥ¨åĪĨ"
      ],
      [
        "åĪĨ",
        "éħ"
      ],
      [
        "çĽ¸åħ³",
        "æĢ§"
      ],
      [
        "çĽ¸åħ³",
        "çļĦéĥ¨åĪĨ"
      ],
      [
        "ĠçļĦåħ¨ç§°æĺ¯",
        "ä»Ģä¹Ī"
      ],
      [
        "ĠçļĦåħ¨ç§°æĺ¯",
        "æĹĭè½¬ä½įç½®ç¼ĸçłģ"
      ],
      [
        "å®ĥ",
        "éĢļè¿ĩå¤įæķ°æĹĭè½¬æ³¨åħ¥"
      ],
      [
        "an",
        "sform"
      ],
      [
        "¢åĴĮ",
        "éĶ"
      ],
      [
        "¤º",
        "æ¨¡åŀĭ"
      ],
      [
        "¥è¯",
        "¢åĴĮéĶ"
      ],
      [
        "ªå",
        "Łºäºİ"
      ],
      [
        "®çļĦ",
        "çĽ¸åħ³æĢ§"
      ],
      [
        "æŁ",
        "¥è¯¢åĴĮéĶ"
      ],
      [
        "æ¼Ķç",
        "¤ºæ¨¡åŀĭ"
      ],
      [
        "Ġæķ",
        "ĻåŃ¦"
      ],
      [
        "ĠGP",
        "T"
      ],
      [
        "ĠTr",
        "ansform"
      ],
      [
        "åĬ¨æĢģ",
        "åħ³æ³¨æľĢ"
      ],
      [
        "è®©æ¨¡åŀĭ",
        "åĬ¨æĢģåħ³æ³¨æľĢ"
      ],
      [
        "æ³¨æĦıåĬĽæľºåĪ¶éĢļè¿ĩè®¡ç®Ĺ",
        "æŁ¥è¯¢åĴĮéĶ"
      ],
      [
        "æĪĳæĺ¯ä¸Ģä¸",
        "ªåŁºäºİ"
      ],
      [
        "åĪĨéħ",
        "įæĿĥéĩį"
      ],
      [
        "å®ĥéĢļè¿ĩå¤įæķ°æĹĭè½¬æ³¨åħ¥",
        "ä½įç½®ä¿¡æģ¯"
      ],
      [
        "®çļĦçĽ¸åħ³æĢ§",
        "åĪĨéħįæĿĥéĩį"
      ],
      [
        "ĠæķĻåŃ¦",
        "æ¼Ķç¤ºæ¨¡åŀĭ"
      ],
      [
        "ĠTransform",
        "er"
      ],
      [
        "è®©æ¨¡åŀĭåĬ¨æĢģåħ³æ³¨æľĢ",
        "çĽ¸åħ³çļĦéĥ¨åĪĨ"
      ],
      [
        "æ³¨æĦıåĬĽæľºåĪ¶éĢļè¿ĩè®¡ç®ĹæŁ¥è¯¢åĴĮéĶ",
        "®çļĦçĽ¸åħ³æĢ§åĪĨéħįæĿĥéĩį"
      ],
      [
        "0",
        "0"
      ],
      [
        "1",
        "25"
      ],
      [
        "1",
        "00"
      ],
      [
        "§",
        "è¡ĮæĺŁ"
      ],
      [
        "¨",
        "æĺŁ"
      ],
      [
        "ª",
        "äº"
      ],
      [
        "ª",
        "éĺ"
      ],
      [
        "«",
        "å¤"
      ],
      [
        "«",
        "æĺŁ"
      ],
      [
        "°",
        "ç"
      ],
      [
        "±",
        "æĺ¯"
      ],
      [
        "³",
        "»"
      ],
      [
        "³",
        "ç"
      ],
      [
        "µ",
        "·"
      ],
      [
        "å",
        "ĵ"
      ],
      [
        "æ",
        "ī"
      ],
      [
        "æ",
        "µ·"
      ],
      [
        "ç",
        "ģ"
      ],
      [
        "ç",
        "İĭæĺŁ"
      ],
      [
        "Ġ",
        "2"
      ],
      [
        "Ġ",
        "3"
      ],
      [
        "Ġ",
        "6"
      ],
      [
        "Ġ",
        "åĬ"
      ],
      [
        "Ġ",
        "25"
      ],
      [
        "Ġ",
        "20"
      ],
      [
        "Ġ",
        "30"
      ],
      [
        "Ģ",
        "ä»¥"
      ],
      [
        "Ĳ",
        "ĥ"
      ],
      [
        "ĳ",
        "æĺŁ"
      ],
      [
        "Ľ",
        "è¡ĮæĺŁ"
      ],
      [
        "Ł",
        "æĺŁ"
      ],
      [
        "ï¼",
        "ļ"
      ],
      [
        "æĺ¯",
        "ä»Ģä¹Ī"
      ],
      [
        "åħ",
        "«å¤"
      ],
      [
        "æľ",
        "¨æĺŁ"
      ],
      [
        "å¤",
        "©ç"
      ],
      [
        "å¤",
        "ªéĺ"
      ],
      [
        "å°",
        "±æĺ¯"
      ],
      [
        "Ġæĺ¯",
        "ä»Ģä¹Ī"
      ],
      [
        "Ġæĺ¯",
        "æĹĭè½¬ä½įç½®ç¼ĸçłģ"
      ],
      [
        "Ġæĺ¯",
        "å¤ļå°ĳ"
      ],
      [
        "éĩ",
        "ĳæĺŁ"
      ],
      [
        "æ°´",
        "æĺŁ"
      ],
      [
        "æĹĭè½¬ä½įç½®ç¼ĸçłģ",
        "æĺ¯ä»Ģä¹Ī"
      ],
      [
        "æĹĭè½¬ä½įç½®ç¼ĸçłģ",
        "å°±æĺ¯"
      ],
      [
        "æľī",
        "åĵ"
      ],
      [
        "å¤ĸæİ¨æĢ§",
        "æĽ´å¥½"
      ],
      [
        "æ¯Ķç»Ŀå¯¹ä½įç½®ç¼ĸçłģ",
        "å¤ĸæİ¨æĢ§æĽ´å¥½"
      ],
      [
        "å®ĥ",
        "éĢļè¿ĩå¤įæķ°æĹĭè½¬å°ĨçĽ¸å¯¹ä½įç½®ä¿¡æģ¯æ³¨åħ¥æ³¨æĦıåĬĽæľºåĪ¶"
      ],
      [
        "éĢļè¿ĩå¤įæķ°æĹĭè½¬æ³¨åħ¥",
        "çĽ¸å¯¹ä½įç½®ä¿¡æģ¯"
      ],
      [
        "åľ",
        "°ç"
      ],
      [
        "åľ",
        "ŁæĺŁ"
      ],
      [
        "ĠçŃīäºİ",
        "å¤ļå°ĳ"
      ],
      [
        "ªäº",
        "Ľè¡ĮæĺŁ"
      ],
      [
        "³»",
        "æľīåĵ"
      ],
      [
        "³ç",
        "³»æľīåĵ"
      ],
      [
        "æī",
        "Ģä»¥"
      ],
      [
        "æµ·",
        "çİĭæĺŁ"
      ],
      [
        "çģ",
        "«æĺŁ"
      ],
      [
        "ĠåĬ",
        "ł"
      ],
      [
        "åħ«å¤",
        "§è¡ĮæĺŁ"
      ],
      [
        "å¤©ç",
        "İĭæĺŁ"
      ],
      [
        "å¤ªéĺ",
        "³ç³»æľīåĵ"
      ],
      [
        "åľ°ç",
        "Ĳĥ"
      ],
      [
        "æīĢä»¥",
        "çŃīäºİ"
      ],
      [
        "å¤ªéĺ³ç³»æľīåĵ",
        "ªäºĽè¡ĮæĺŁ"
      ],
      [
        "¹",
        "ç¼"
      ],
      [
        "å",
        "Ģ"
      ],
      [
        "å",
        "ģ"
      ],
      [
        "æ",
        "ł"
      ],
      [
        "é",
        "«ĺ"
      ],
      [
        "Ġ",
        "åĴĮ"
      ],
      [
        "Ġ",
        "æĽ´"
      ],
      [
        "Ġ",
        "åıª"
      ],
      [
        "Ġ",
        "æľīä»Ģä¹ĪåĮºåĪ«"
      ],
      [
        "ģ",
        "é«ĺ"
      ],
      [
        "į",
        "åĩı"
      ],
      [
        "Ķ",
        "¾ä¸"
      ],
      [
        "ļ",
        "åĿĩ"
      ],
      [
        "©æ",
        "Ķ¾ä¸"
      ],
      [
        "æķ",
        "Ī"
      ],
      [
        "æ¯",
        "Ķ"
      ],
      [
        "æĸ¹",
        "æł"
      ],
      [
        "ç®",
        "Ģæ´"
      ],
      [
        "åĿĩ",
        "åĢ"
      ],
      [
        "èĥ½è¯´",
        "ä¸ĭ"
      ],
      [
        "¹ç¼",
        "©æĶ¾ä¸"
      ],
      [
        "åģ",
        "ļåĿĩ"
      ],
      [
        "ĠæĽ´",
        "ç®Ģæ´"
      ],
      [
        "Ġåıª",
        "åģļåĿĩ"
      ],
      [
        "ģé«ĺ",
        "æķĪ"
      ],
      [
        "įåĩı",
        "åĿĩåĢ"
      ],
      [
        "æĸ¹æł",
        "¹ç¼©æĶ¾ä¸"
      ],
      [
        "ĠæĽ´ç®Ģæ´",
        "ģé«ĺæķĪ"
      ],
      [
        "ĠåıªåģļåĿĩ",
        "æĸ¹æł¹ç¼©æĶ¾ä¸"
      ],
      [
        "įåĩıåĿĩåĢ",
        "¼"
      ],
      [
        "ĠåıªåģļåĿĩæĸ¹æł¹ç¼©æĶ¾ä¸",
        "įåĩıåĿĩåĢ¼"
      ],
      [
        "¨",
        "åı"
      ],
      [
        "«",
        "æľīä»Ģä¹Ī"
      ],
      [
        "¯",
        "å"
      ],
      [
        "µ",
        "Į"
      ],
      [
        "¶",
        "ä¿Ŀ"
      ],
      [
        "¹",
        "¶ä¿Ŀ"
      ],
      [
        "å",
        "µĮ"
      ],
      [
        "æ",
        "Į"
      ],
      [
        "ģ",
        "è¾ĵ"
      ],
      [
        "Ĥ",
        "æķ°"
      ],
      [
        "ī",
        "ä¸Ģ"
      ],
      [
        "ĵ",
        "ç§"
      ],
      [
        "Ń",
        "ä¹"
      ],
      [
        "ä½",
        "ĵç§"
      ],
      [
        "çĶ",
        "¨åı"
      ],
      [
        "å¤",
        "Ħ"
      ],
      [
        "è¯",
        "Ńä¹"
      ],
      [
        "åħ¥",
        "å±Ĥ"
      ],
      [
        "åħ¥",
        "è¾ĵåĩº"
      ],
      [
        "äº",
        "«æľīä»Ģä¹Ī"
      ],
      [
        "åĴĮ",
        "è¾ĵåĩº"
      ],
      [
        "æ¨¡åŀĭ",
        "ä½ĵç§"
      ],
      [
        "æĿĥéĩį",
        "åħ±"
      ],
      [
        "å¥½",
        "å¤Ħ"
      ],
      [
        "å°ĳ",
        "æ¨¡åŀĭä½ĵç§"
      ],
      [
        "èĩ",
        "´"
      ],
      [
        "åĩı",
        "å°ĳæ¨¡åŀĭä½ĵç§"
      ],
      [
        "å±Ĥ",
        "åħ±"
      ],
      [
        "¯å",
        "¹¶ä¿Ŀ"
      ],
      [
        "åµĮ",
        "åħ¥å±Ĥ"
      ],
      [
        "æĮ",
        "ģè¾ĵ"
      ],
      [
        "īä¸Ģ",
        "èĩ´"
      ],
      [
        "çĶ¨åı",
        "Ĥæķ°"
      ],
      [
        "è¯Ńä¹",
        "īä¸Ģèĩ´"
      ],
      [
        "åħ¥è¾ĵåĩº",
        "è¯Ńä¹īä¸Ģèĩ´"
      ],
      [
        "äº«æľīä»Ģä¹Ī",
        "å¥½å¤Ħ"
      ],
      [
        "åĴĮè¾ĵåĩº",
        "å±Ĥåħ±"
      ],
      [
        "æĿĥéĩįåħ±",
        "äº«æľīä»Ģä¹Īå¥½å¤Ħ"
      ],
      [
        "åĩıå°ĳæ¨¡åŀĭä½ĵç§",
        "¯å¹¶ä¿Ŀ"
      ],
      [
        "åµĮåħ¥å±Ĥ",
        "åĴĮè¾ĵåĩºå±Ĥåħ±"
      ],
      [
        "æĮģè¾ĵ",
        "åħ¥è¾ĵåĩºè¯Ńä¹īä¸Ģèĩ´"
      ],
      [
        "åĩıå°ĳæ¨¡åŀĭä½ĵç§¯å¹¶ä¿Ŀ",
        "æĮģè¾ĵåħ¥è¾ĵåĩºè¯Ńä¹īä¸Ģèĩ´"
      ],
      [
        "åµĮåħ¥å±ĤåĴĮè¾ĵåĩºå±Ĥåħ±",
        "çĶ¨åıĤæķ°"
      ],
      [
        "è§£éĩĬ",
        "ä¸Ģä¸ĭ"
      ],
      [
        "ĭè",
        "Ĵ¸é¦ı"
      ],
      [
        "æ°´",
        "åĴĮçº¯æ°´æľīä»Ģä¹ĪåĮºåĪ«"
      ],
      [
        "è®²",
        "ä¸Ģä¸"
      ],
      [
        "ĭèĴ¸é¦ı",
        "æ°´åĴĮçº¯æ°´æľīä»Ģä¹ĪåĮºåĪ«"
      ],
      [
        "èĴ¸é¦ıæ°´",
        "åĴĮçº¯æ°´æľīä»Ģä¹ĪåĮºåĪ«"
      ],
      [
        "ä½łçŁ¥éģĵ",
        "ä»Ģä¹Īæĺ¯åĽłæŀľæİ©çłģ"
      ],
      [
        "ä½łçŁ¥éģĵ",
        "è§£éĩĬä¸Ģä¸ĭ"
      ],
      [
        "è¯·éĹ®",
        "RoPE"
      ],
      [
        "å¸®æĪĳè§£éĩĬä¸ĭ",
        "ä»Ģä¹Īæĺ¯"
      ],
      [
        "§",
        "£éĩĬ"
      ],
      [
        "ä¸",
        "ĭèĴ¸é¦ıæ°´åĴĮçº¯æ°´æľīä»Ģä¹ĪåĮºåĪ«"
      ],
      [
        "ĭè",
        "§£éĩĬ"
      ],
      [
        "ä½łçŁ¥éģĵ",
        "ä»Ģä¹Īæĺ¯æľºåĻ¨åŃ¦ä¹ł"
      ],
      [
        "ä½łçŁ¥éģĵ",
        "ä½łæĺ¯è°ģ"
      ],
      [
        "ä½łçŁ¥éģĵ",
        "å¤ªéĺ³ç³»æľīåĵªäºĽè¡ĮæĺŁ"
      ],
      [
        "è¯·éĹ®",
        "ä»Ģä¹Īæĺ¯æ³¨æĦıåĬĽæľºåĪ¶"
      ],
      [
        "è®²ä¸Ģä¸ĭ",
        "ä»Ģä¹Īæĺ¯"
      ],
      [
        "å¸®æĪĳè§£éĩĬä¸ĭ",
        "RoPE"
      ],
      [
        "å¸®æĪĳè§£éĩĬä¸ĭ",
        "ä½łæĺ¯è°ģ"
      ],
      [
        "èĥ½è¯´",
        "ä¸ĭèĴ¸é¦ıæ°´åĴĮçº¯æ°´æľīä»Ģä¹ĪåĮºåĪ«"
      ],
      [
        "è®²ä¸Ģä¸",
        "ĭè§£éĩĬ"
      ],
      [
        "è®²ä¸Ģä¸ĭè§£éĩĬ",
        "ä¸Ģä¸ĭ"
      ],
      [
        "ä½łçŁ¥éģĵ",
        "RoPE"
      ],
      [
        "è¯·éĹ®",
        "ä»Ģä¹Īæĺ¯åĽłæŀľæİ©çłģ"
      ],
      [
        "è¯·éĹ®",
        "æĿĥéĩįåħ±äº«æľīä»Ģä¹Īå¥½å¤Ħ"
      ],
      [
        "è®²ä¸Ģä¸ĭ",
        "RoPE"
      ],
      [
        "è®²ä¸Ģä¸ĭ",
        "RMSNorm"
      ],
      [
        "è®²ä¸Ģä¸ĭ",
        "æĹĭè½¬ä½įç½®ç¼ĸçłģæĺ¯ä»Ģä¹Ī"
      ],
      [
        "èĥ½è¯´ä¸ĭ",
        "ä»Ģä¹Īæĺ¯æľºåĻ¨åŃ¦ä¹ł"
      ],
      [
        "èĥ½è¯´ä¸ĭ",
        "æĹĭè½¬ä½įç½®ç¼ĸçłģæĺ¯ä»Ģä¹Ī"
      ],
      [
        "ä½łçŁ¥éģĵ",
        "æĿĥéĩįåħ±äº«æľīä»Ģä¹Īå¥½å¤Ħ"
      ],
      [
        "è¯·éĹ®",
        "RMSNorm"
      ],
      [
        "è®²ä¸Ģä¸ĭ",
        "ä»Ģä¹Īæĺ¯æ³¨æĦıåĬĽæľºåĪ¶"
      ],
      [
        "è®²ä¸Ģä¸",
        "ĭèĴ¸é¦ıæ°´åĴĮçº¯æ°´æľīä»Ģä¹ĪåĮºåĪ«"
      ],
      [
        "è®²ä¸Ģä¸ĭ",
        "å¤ªéĺ³ç³»æľīåĵªäºĽè¡ĮæĺŁ"
      ]
    ]
  }
}