{
  "version": "1.0",
  "truncation": null,
  "padding": null,
  "added_tokens": [
    {
      "id": 0,
      "content": "<bos>",
      "single_word": false,
      "lstrip": false,
      "rstrip": false,
      "normalized": false,
      "special": true
    },
    {
      "id": 1,
      "content": "<eos>",
      "single_word": false,
      "lstrip": false,
      "rstrip": false,
      "normalized": false,
      "special": true
    },
    {
      "id": 2,
      "content": "<pad>",
      "single_word": false,
      "lstrip": false,
      "rstrip": false,
      "normalized": false,
      "special": true
    },
    {
      "id": 3,
      "content": "<unk>",
      "single_word": false,
      "lstrip": false,
      "rstrip": false,
      "normalized": false,
      "special": true
    }
  ],
  "normalizer": null,
  "pre_tokenizer": {
    "type": "ByteLevel",
    "add_prefix_space": false,
    "trim_offsets": true,
    "use_regex": true
  },
  "post_processor": {
    "type": "TemplateProcessing",
    "single": [
      {
        "SpecialToken": {
          "id": "<bos>",
          "type_id": 0
        }
      },
      {
        "Sequence": {
          "id": "A",
          "type_id": 0
        }
      },
      {
        "SpecialToken": {
          "id": "<eos>",
          "type_id": 0
        }
      }
    ],
    "pair": [
      {
        "Sequence": {
          "id": "A",
          "type_id": 0
        }
      },
      {
        "Sequence": {
          "id": "B",
          "type_id": 1
        }
      }
    ],
    "special_tokens": {
      "<bos>": {
        "id": "<bos>",
        "ids": [
          0
        ],
        "tokens": [
          "<bos>"
        ]
      },
      "<eos>": {
        "id": "<eos>",
        "ids": [
          1
        ],
        "tokens": [
          "<eos>"
        ]
      }
    }
  },
  "decoder": {
    "type": "ByteLevel",
    "add_prefix_space": true,
    "trim_offsets": true,
    "use_regex": true
  },
  "model": {
    "type": "BPE",
    "dropout": null,
    "unk_token": "<unk>",
    "continuing_subword_prefix": null,
    "end_of_word_suffix": null,
    "fuse_unk": false,
    "byte_fallback": false,
    "ignore_merges": false,
    "vocab": {
      "<bos>": 0,
      "<eos>": 1,
      "<pad>": 2,
      "<unk>": 3,
      "!": 4,
      "\"": 5,
      "'": 6,
      "(": 7,
      ")": 8,
      "*": 9,
      "+": 10,
      ",": 11,
      "-": 12,
      ".": 13,
      "/": 14,
      "0": 15,
      "1": 16,
      "2": 17,
      "3": 18,
      "4": 19,
      "5": 20,
      "6": 21,
      "7": 22,
      "8": 23,
      "9": 24,
      ":": 25,
      "<": 26,
      "=": 27,
      ">": 28,
      "@": 29,
      "A": 30,
      "B": 31,
      "C": 32,
      "D": 33,
      "E": 34,
      "F": 35,
      "G": 36,
      "H": 37,
      "I": 38,
      "J": 39,
      "K": 40,
      "L": 41,
      "M": 42,
      "N": 43,
      "O": 44,
      "P": 45,
      "Q": 46,
      "R": 47,
      "S": 48,
      "T": 49,
      "U": 50,
      "W": 51,
      "X": 52,
      "Y": 53,
      "[": 54,
      "]": 55,
      "_": 56,
      "a": 57,
      "b": 58,
      "c": 59,
      "d": 60,
      "e": 61,
      "f": 62,
      "g": 63,
      "h": 64,
      "i": 65,
      "j": 66,
      "k": 67,
      "l": 68,
      "m": 69,
      "n": 70,
      "o": 71,
      "p": 72,
      "q": 73,
      "r": 74,
      "s": 75,
      "t": 76,
      "u": 77,
      "v": 78,
      "w": 79,
      "x": 80,
      "y": 81,
      "{": 82,
      "}": 83,
      "¡": 84,
      "¢": 85,
      "£": 86,
      "¤": 87,
      "¥": 88,
      "¦": 89,
      "§": 90,
      "¨": 91,
      "©": 92,
      "ª": 93,
      "«": 94,
      "¬": 95,
      "®": 96,
      "¯": 97,
      "°": 98,
      "±": 99,
      "²": 100,
      "³": 101,
      "´": 102,
      "µ": 103,
      "¶": 104,
      "·": 105,
      "¸": 106,
      "¹": 107,
      "º": 108,
      "»": 109,
      "¼": 110,
      "½": 111,
      "¾": 112,
      "¿": 113,
      "Â": 114,
      "Ã": 115,
      "â": 116,
      "ã": 117,
      "ä": 118,
      "å": 119,
      "æ": 120,
      "ç": 121,
      "è": 122,
      "é": 123,
      "ï": 124,
      "Ċ": 125,
      "Ġ": 126,
      "Ģ": 127,
      "ģ": 128,
      "Ĥ": 129,
      "ĥ": 130,
      "Ħ": 131,
      "ħ": 132,
      "Ĩ": 133,
      "ĩ": 134,
      "Ī": 135,
      "ī": 136,
      "Ĭ": 137,
      "ĭ": 138,
      "Į": 139,
      "į": 140,
      "İ": 141,
      "ı": 142,
      "Ĳ": 143,
      "ĳ": 144,
      "Ĵ": 145,
      "ĵ": 146,
      "Ķ": 147,
      "ķ": 148,
      "ĸ": 149,
      "Ĺ": 150,
      "ĺ": 151,
      "Ļ": 152,
      "ļ": 153,
      "Ľ": 154,
      "ľ": 155,
      "Ŀ": 156,
      "ŀ": 157,
      "Ł": 158,
      "ł": 159,
      "Ń": 160,
      "ï¼": 161,
      "ãĢ": 162,
      "åĬ": 163,
      "ãĢĤ": 164,
      "çĶ": 165,
      "¨æ": 166,
      "ä¸": 167,
      "©æ": 168,
      "ï¼Į": 169,
      "çĶ¨æ": 170,
      "Ī·": 171,
      "çĶ¨æĪ·": 172,
      "īĭ": 173,
      "åĬ©æ": 174,
      "åĬ©æīĭ": 175,
      "åı": 176,
      "ä½": 177,
      "åĪ": 178,
      "ä»": 179,
      "åħ": 180,
      "éĢ": 181,
      "æĺ": 182,
      "è®": 183,
      "ãĢģ": 184,
      "éĩ": 185,
      "ä¹": 186,
      "æĺ¯": 187,
      "è¯": 188,
      "åº": 189,
      "ï¼Ł": 190,
      "åŃ": 191,
      "įç": 192,
      "ä¹Ī": 193,
      "æ³": 194,
      "ļĦ": 195,
      "æķ": 196,
      "ï¼ļ": 197,
      "Ģä¹Ī": 198,
      "ä»Ģä¹Ī": 199,
      "ä¿": 200,
      "å¤": 201,
      "çļĦ": 202,
      "è¿": 203,
      "æľ": 204,
      "åĨ": 205,
      "åĲ": 206,
      "ç»": 207,
      "çĶ¨": 208,
      "¡å": 209,
      "è§": 210,
      "éĢļ": 211,
      "ç®": 212,
      "ŀĭ": 213,
      "¨¡å": 214,
      "æķ°": 215,
      "äº": 216,
      "Ľ´": 217,
      "¨¡åŀĭ": 218,
      "å°": 219,
      "ä»Ģä¹Īæĺ¯": 220,
      "æĽ´": 221,
      "Ħı": 222,
      "åºı": 223,
      "æĶ": 224,
      "½®": 225,
      "åŃĲ": 226,
      "å®": 227,
      "¨æĦı": 228,
      "įç½®": 229,
      "ï¼Ī": 230,
      "ï¼ī": 231,
      "åĬĽ": 232,
      "è§£": 233,
      "¨æĦıåĬĽ": 234,
      "åħ³": 235,
      "æ³¨æĦıåĬĽ": 236,
      "ä½įç½®": 237,
      "å¯": 238,
      "æĬ": 239,
      "ç¼": 240,
      "æĸ": 241,
      "éĢļä¿": 242,
      "æł": 243,
      "è®¡": 244,
      "ä¸ĭ": 245,
      "ç®Ĺ": 246,
      "éĢļä¿Ĺ": 247,
      "ıæ": 248,
      "ä¸İ": 249,
      "çĲ": 250,
      "æĬĬ": 251,
      "çĲĨ": 252,
      "¦Ĥ": 253,
      "åĩ": 254,
      "åį": 255,
      "å®ļ": 256,
      "¥åŃĲ": 257,
      "°´": 258,
      "æİ": 259,
      "ä¸º": 260,
      "åı¥åŃĲ": 261,
      "æĶ¹": 262,
      "éĩį": 263,
      "æĿ": 264,
      "éĿ": 265,
      "å¦Ĥ": 266,
      "çł": 267,
      "åĪ¶": 268,
      "åº¦": 269,
      "å¯¹": 270,
      "è®¡ç®Ĺ": 271,
      "çłģ": 272,
      "åıĤ": 273,
      "åĪĨ": 274,
      "åĨĻ": 275,
      "å¼": 276,
      "éĿ¢": 277,
      "¦ģ": 278,
      "è¦ģ": 279,
      "åĮ": 280,
      "æĽ´éĢļä¿Ĺ": 281,
      "ä¸ĭéĿ¢": 282,
      "æĬĬä¸ĭéĿ¢": 283,
      "åı¥åŃĲæĶ¹": 284,
      "åĨĻæĽ´éĢļä¿Ĺ": 285,
      "æĬĬä¸ĭéĿ¢åı¥åŃĲæĶ¹": 286,
      "æĬĬä¸ĭéĿ¢åı¥åŃĲæĶ¹åĨĻæĽ´éĢļä¿Ĺ": 287,
      "Ĥ¹": 288,
      "æį": 289,
      "è´": 290,
      "è¶": 291,
      "åĽ": 292,
      "è¡": 293,
      "åĬł": 294,
      "ä¸Ģ": 295,
      "è¯į": 296,
      "ä¼": 297,
      "æ¯": 298,
      "æĢ": 299,
      "©æ¨¡åŀĭ": 300,
      "è®©æ¨¡åŀĭ": 301,
      "or": 302,
      "èĢ": 303,
      "åĪĹ": 304,
      "å¤§": 305,
      "³»": 306,
      "åł": 307,
      "ç³»": 308,
      "é¦": 309,
      "åı¯": 310,
      "éĩĬ": 311,
      "è¶Ĭ": 312,
      "è¿ĩ": 313,
      "åĲĪ": 314,
      "è§£éĩĬ": 315,
      "æĸ¹": 316,
      "å¿": 317,
      "æı": 318,
      "Ńç»": 319,
      "è®Ńç»": 320,
      "åħ³ç³»": 321,
      "è®Ńç»ĥ": 322,
      "æŀ": 323,
      "ĥ½": 324,
      "ä½ķ": 325,
      "åħ¥": 326,
      "ç¼ĸ": 327,
      "å¦Ĥä½ķ": 328,
      "¸é¦": 329,
      "æ°´": 330,
      "èĴ": 331,
      "éķ": 332,
      "åħĪ": 333,
      "ä½įç½®ç¼ĸ": 334,
      "èĴ¸é¦": 335,
      "ä½įç½®ç¼ĸçłģ": 336,
      "éĩı": 337,
      "¡æ": 338,
      "¤º": 339,
      "¾åł": 340,
      "ç¤º": 341,
      "è¯¾åł": 342,
      "æľī": 343,
      "ï¼īãĢģ": 344,
      "è¯¾åłĤ": 345,
      "åİ": 346,
      "çº": 347,
      "éĹ": 348,
      "orm": 349,
      "æıĲ": 350,
      "éķ¿": 351,
      "å¾": 352,
      "åĴ": 353,
      "çİ": 354,
      "åĴĮ": 355,
      "er": 356,
      "ģ¯": 357,
      "æ³¨": 358,
      "ç®Ģ": 359,
      "æŃ": 360,
      "èĥ½": 361,
      "é¡": 362,
      "ç»ĵ": 363,
      "åºıåĪĹ": 364,
      "å¹": 365,
      "éĶ": 366,
      "Ł¥": 367,
      "ç»ĵæŀ": 368,
      "ç§": 369,
      "çĽ": 370,
      "éĻ": 371,
      "éĢĤ": 372,
      "éĩįç": 373,
      "ä¿¡æ": 374,
      "å°ı": 375,
      "ä¸ºä»Ģä¹Ī": 376,
      "æĢ§": 377,
      "éĩįçĤ¹": 378,
      "ä¿¡æģ¯": 379,
      "å½": 380,
      "é¢": 381,
      "ĥéĩį": 382,
      "åŃĺ": 383,
      "ç¨": 384,
      "è¾": 385,
      "ä¸ª": 386,
      "ä¸Ĭ": 387,
      "è¿Ľ": 388,
      "éĢļè¿ĩ": 389,
      "äºİ": 390,
      "åıĤæķ°": 391,
      "æ¯Ķ": 392,
      "å¿«": 393,
      "³å®ļ": 394,
      "æĪ": 395,
      "æī": 396,
      "ä½¿": 397,
      "æľº": 398,
      "å°ıæ": 399,
      "çĲĨè§£": 400,
      "åĮĸ": 401,
      "CP": 402,
      "ç´": 403,
      "èĩ": 404,
      "ä¸Ń": 405,
      "ä½ľ": 406,
      "å°ıæ¨¡åŀĭ": 407,
      "Norm": 408,
      "«ĺ": 409,
      "åľ": 410,
      "é«ĺ": 411,
      "ä¿Ŀ": 412,
      "åĲİ": 413,
      "æķ°æį": 414,
      "æĿĤ": 415,
      "è´¨": 416,
      "éĹ®": 417,
      "æķ°æį®": 418,
      "éĥ": 419,
      "éĢŁ": 420,
      "æ³ķ": 421,
      "æľĢ": 422,
      "éĢĤåĲĪ": 423,
      "MS": 424,
      "ºåºı": 425,
      "éģ": 426,
      "ä»¥": 427,
      "çİĩ": 428,
      "é¡ºåºı": 429,
      "çĽ¸": 430,
      "PE": 431,
      "Ro": 432,
      "RMS": 433,
      "¼Ķ": 434,
      "æ¸": 435,
      "æ¼Ķ": 436,
      "çŃ": 437,
      "éª": 438,
      "īæ": 439,
      "å¹¶": 440,
      "éĥ¨": 441,
      "RoPE": 442,
      "RMSNorm": 443,
      "æ¼Ķç¤º": 444,
      "±Ĥ": 445,
      "ä¾": 446,
      "åĪ°": 447,
      "è¯ģ": 448,
      "äºĨ": 449,
      "åıĤèĢ": 450,
      "éĩįçĤ¹åıĤèĢ": 451,
      "éĩįçĤ¹åıĤèĢĥ": 452,
      "on": 453,
      "å·": 454,
      "åģ": 455,
      "åĻ": 456,
      "åĿ": 457,
      "è°": 458,
      "éħ": 459,
      "éĺ": 460,
      "ĩæĸ¹": 461,
      "å¤į": 462,
      "ä½įç½®ä¿¡æģ¯": 463,
      "ç¼©æ": 464,
      "å¼ı": 465,
      "è¡Į": 466,
      "åı¯ä»¥": 467,
      "å¾Ĺ": 468,
      "é¢ĺ": 469,
      "æľºåĪ¶": 470,
      "åľ¨": 471,
      "æĮ": 472,
      "ĵį": 473,
      "ä½İ": 474,
      "æķĪ": 475,
      "åĨħ": 476,
      "æĿĥéĩį": 477,
      "è¡¨": 478,
      "æŃ¥": 479,
      "è¾ĵ": 480,
      "CPU": 481,
      "¢¯": 482,
      "¯æ°´": 483,
      "ºå®ļ": 484,
      "æĹ": 485,
      "åıĳ": 486,
      "è®©": 487,
      "åŃ¦": 488,
      "çļĦæ°´": 489,
      "ıæ°´": 490,
      "åĽŀ": 491,
      "åĽºå®ļ": 492,
      "èĴ¸é¦ı": 493,
      "èĴ¸é¦ıæ°´": 494,
      "çº¯æ°´": 495,
      "ç§į": 496,
      "ä½¿çĶ¨": 497,
      "æĿĤè´¨": 498,
      "éĹ®é¢ĺ": 499,
      "éªĮ": 500,
      "¢¯åº¦": 501,
      "å¢": 502,
      "çķ": 503,
      "ľĢ": 504,
      "ä½į": 505,
      "åĪ«": 506,
      "åĨį": 507,
      "ï¼īãĢĤ": 508,
      "åħ³æ³¨": 509,
      "åĩº": 510,
      "åįĩ": 511,
      "åįķ": 512,
      "æİ¨": 513,
      "ä¼ĺ": 514,
      "ç»ĵæŀĦ": 515,
      "éĻ¤": 516,
      "æĪĲ": 517,
      "å¥": 518,
      "æ·": 519,
      "æ¢¯åº¦": 520,
      "çľ": 521,
      "åıĺ": 522,
      "æĺİ": 523,
      "äºĮ": 524,
      "å°ĳ": 525,
      "æ³¨æĦıåĬĽæľºåĪ¶": 526,
      "åĮº": 527,
      "æıĲåįĩ": 528,
      "éĶ®": 529,
      "åĻ¨": 530,
      "åĨħåŃĺ": 531,
      "å¢ŀ": 532,
      "en": 533,
      "op": 534,
      "çĤ¹": 535,
      "éľĢ": 536,
      "ï¼Ľ": 537,
      "ä¸į": 538,
      "ä»£": 539,
      "è¿°": 540,
      "æĶ¶": 541,
      "æł¹": 542,
      "ä¼ļ": 543,
      "è¯¾åłĤç®Ģ": 544,
      "ç¨³å®ļ": 545,
      "èĩª": 546,
      "ä¾¿": 547,
      "æİ¨çĲĨ": 548,
      "éľĢè¦ģ": 549,
      "è¯¾åłĤç®Ģè¿°": 550,
      "±å": 551,
      "½æķ°": 552,
      "æµ": 553,
      "æŁ¥": 554,
      "è½": 555,
      "åĬ¨æ": 556,
      "å¤±": 557,
      "çļĦä½ľ": 558,
      "è§Ĥ": 559,
      "åºıåħ³ç³»": 560,
      "åħ³éĶ®": 561,
      "éĢļä¿Ĺè§£éĩĬ": 562,
      "åĩ½æķ°": 563,
      "æİĴ": 564,
      "ä¿Ŀçķ": 565,
      "çŃī": 566,
      "éħį": 567,
      "ç§įåŃĲ": 568,
      "å¥½": 569,
      "åĮºåĪ«": 570,
      "ä¿ĿçķĻ": 571,
      "»º": 572,
      "åĢ": 573,
      "åī": 574,
      "å»º": 575,
      "çŁ¥": 576,
      "łçİĩ": 577,
      "ä¹łçİĩ": 578,
      "ä»Ģä¹Īæĺ¯æ³¨æĦıåĬĽæľºåĪ¶": 579,
      "æĽ´å¿«": 580,
      "åĩı": 581,
      "æ³¨åħ¥": 582,
      "ç®Ģåįķ": 583,
      "éģĵ": 584,
      "åŃ¦ä¹łçİĩ": 585,
      "éªĮè¯ģ": 586,
      "ar": 587,
      "å¸": 588,
      "æħ": 589,
      "èİ": 590,
      "éĽ": 591,
      "Ģģ": 592,
      "Łå¤±": 593,
      "è¯įç": 594,
      "æłĳ": 595,
      "æİ¥": 596,
      "æįŁå¤±": 597,
      "ç»ĵæŀľ": 598,
      "å½±å": 599,
      "æ¯Ķå¦Ĥ": 600,
      "ç´¢": 601,
      "é«ĺæķĪ": 602,
      "çĽ¸å¯¹": 603,
      "éĥ¨åĪĨ": 604,
      "æĹ¶": 605,
      "çľĭ": 606,
      "ä»£çłģ": 607,
      "ä¾¿äºİ": 608,
      "åĬ¨æĢģ": 609,
      "çļĦä½ľçĶ¨": 610,
      "çŁ¥éģĵ": 611,
      "æħ¢": 612,
      "èİ·": 613,
      "éĽĨ": 614,
      "è¯įçļĦ": 615,
      "å½±åĵį": 616,
      "li": 617,
      "ra": 618,
      "ç½": 619,
      "İ°": 620,
      "åĬ¡": 621,
      "æĺ¾": 622,
      "įçİ°": 623,
      "å¤ļ": 624,
      "å¤įçİ°": 625,
      "çļĦçĲĨè§£": 626,
      "è¿ĳ": 627,
      "åĲĮ": 628,
      "æ³¨æĦıåĬĽéĢļè¿ĩ": 629,
      "æĸĩ": 630,
      "æł·": 631,
      "åįł": 632,
      "éĩįè¦ģ": 633,
      "å¯¹åºıåĪĹ": 634,
      "å¯¹æ¯Ķ": 635,
      "åĪĨéħį": 636,
      "æ¯ı": 637,
      "è®©æ¨¡åŀĭéĩįçĤ¹åıĤèĢĥ": 638,
      "åı¯å¤įçİ°": 639,
      "è¶Ĭéķ¿": 640,
      "åħ³ç³»çļĦçĲĨè§£": 641,
      "éĩıåĮĸ": 642,
      "éķ¿åº¦": 643,
      "åºıåĪĹè¶Ĭéķ¿": 644,
      "ç¨ĭ": 645,
      "è¿Ľè¡Į": 646,
      "æĿĥéĩįè®©æ¨¡åŀĭéĩįçĤ¹åıĤèĢĥ": 647,
      "åĽºå®ļç§įåŃĲ": 648,
      "åıĺæħ¢": 649,
      "æĺİæĺ¾": 650,
      "æıĲåįĩå¯¹åºıåĪĹ": 651,
      "åħ³éĶ®ä½įç½®": 652,
      "åĩıå°ĳ": 653,
      "æ³¨æĦıåĬĽéĢļè¿ĩåĪĨéħį": 654,
      "æĿĥéĩįè®©æ¨¡åŀĭéĩįçĤ¹åıĤèĢĥåħ³éĶ®ä½įç½®": 655,
      "æıĲåįĩå¯¹åºıåĪĹåħ³ç³»çļĦçĲĨè§£": 656,
      "æ³¨æĦıåĬĽéĢļè¿ĩåĪĨéħįæĿĥéĩįè®©æ¨¡åŀĭéĩįçĤ¹åıĤèĢĥåħ³éĶ®ä½įç½®": 657,
      "in": 658,
      "st": 659,
      "th": 660,
      "¶ä»": 661,
      "æ¨¡åŀĭ": 662,
      "Ķ¾": 663,
      "çĶŁ": 664,
      "ä¸Ķ": 665,
      "åħ¨": 666,
      "åħ±": 667,
      "åħ¶ä»": 668,
      "è®¾": 669,
      "åĨ³å®ļ": 670,
      "çĶ¨åĿ": 671,
      "å®ŀ": 672,
      "æĸ°": 673,
      "æĬĬçĽ¸å¯¹": 674,
      "è®¡ç®ĹæĽ´å¿«": 675,
      "èĢĮ": 676,
      "è§£éĩĬRoPE": 677,
      "åħĪçľĭ": 678,
      "åİĭ": 679,
      "çº¿": 680,
      "å½Ĵ": 681,
      "éĢĤåĲĪå°ıæ¨¡åŀĭ": 682,
      "RMSNormçĶ¨åĿ": 683,
      "ĩæĸ¹æł¹": 684,
      "ä½įç½®ä¿¡æģ¯æ³¨åħ¥": 685,
      "ç¼©æĶ¾": 686,
      "å¾ĹåĪ°": 687,
      "ä½įåºıåħ³ç³»": 688,
      "å¢ŀåĬł": 689,
      "ä¿ĿçķĻä½įåºıåħ³ç³»": 690,
      "åĬ¨æĢģéĩıåĮĸ": 691,
      "æ¯ıä¸ª": 692,
      "åħ¶ä»ĸ": 693,
      "æĬĬçĽ¸å¯¹ä½įç½®ä¿¡æģ¯æ³¨åħ¥": 694,
      "RMSNormçĶ¨åĿĩæĸ¹æł¹": 695,
      "ä¿ĿçķĻä½įåºıåħ³ç³»ä¸Ķ": 696,
      "æĬĬçĽ¸å¯¹ä½įç½®ä¿¡æģ¯æ³¨åħ¥æ³¨æĦıåĬĽ": 697,
      "10": 698,
      "Py": 699,
      "at": 700,
      "re": 701,
      "åĳ": 702,
      "å±Ĥ": 703,
      "æĭ": 704,
      "è£": 705,
      "èµ": 706,
      "åıª": 707,
      "äº«": 708,
      "æłĩ": 709,
      "ç®Ĺæ³ķ": 710,
      "ä¸ºäºĨ": 711,
      "å¼Ģ": 712,
      "å¼ķ": 713,
      "åİ»": 714,
      "ä¸ºä»Ģä¹ĪéľĢè¦ģ": 715,
      "è¿ĽåĪ¶": 716,
      "å¿«éĢŁ": 717,
      "èĩ´": 718,
      "åģļ": 719,
      "è°ĥ": 720,
      "è¾ĵåĩº": 721,
      "ent": 722,
      "ran": 723,
      "åįłçĶ¨": 724,
      "thon": 725,
      "Python": 726,
      "Tran": 727,
      "form": 728,
      "sform": 729,
      "¥éĩįçĤ¹åıĤèĢĥ": 730,
      "«éĩ": 731,
      "»åĬł": 732,
      "å±": 733,
      "åŀĭ": 734,
      "æ±Ĥ": 735,
      "ç«": 736,
      "éļ": 737,
      "ģä½İ": 738,
      "ĩæĿĤè´¨": 739,
      "ī¹": 740,
      "Ĭè¯": 741,
      "įæ¸": 742,
      "İèĢĮ": 743,
      "ıçŃī": 744,
      "ĹéĢ": 745,
      "Ŀĥéĩį": 746,
      "ŀģä½İ": 747,
      "åıįæ¸": 748,
      "ä»İèĢĮ": 749,
      "éĢĢ": 750,
      "æĺ¯éĢļè¿ĩ": 751,
      "æĺ¯æĮ": 752,
      "æĺ¯èĴ¸é¦ı": 753,
      "è¯¥éĩįçĤ¹åıĤèĢĥ": 754,
      "åºĶ": 755,
      "å¤ĩæĸ¹": 756,
      "çļĦé¡ºåºı": 757,
      "è¿ŀ": 758,
      "åĲ«éĩ": 759,
      "¨¡åŀĭè¯į": 760,
      "ä»Ģä¹Īæĺ¯ä½įç½®ç¼ĸçłģ": 761,
      "ä»Ģä¹Īæĺ¯RMSNorm": 762,
      "æĽ´å¥½": 763,
      "æ³¨æĦıåĬĽè®¡ç®Ĺ": 764,
      "ä¸ĭæĸĩ": 765,
      "ıæŀģä½İ": 766,
      "ä¸İçº¯æ°´": 767,
      "ä¸İåĨħåŃĺ": 768,
      "æİ§": 769,
      "åı¥åŃĲä¸Ń": 770,
      "åĪ¶å¤ĩæĸ¹": 771,
      "è®¡ç®Ĺåıĺæħ¢": 772,
      "è®¡ç®Ĺä¸İåĨħåŃĺ": 773,
      "åĬłéĢŁ": 774,
      "è¯įåĴĮ": 775,
      "è®©æ¨¡åŀĭçŁ¥éģĵ": 776,
      "å¤§éĥ¨åĪĨ": 777,
      "è¶Ĭå¤§": 778,
      "è§£éĩĬèĴ¸é¦ıæ°´": 779,
      "è®Ńç»ĥåı¯å¤įçİ°": 780,
      "åħĪåĲİ": 781,
      "ä½įç½®ç¼ĸçłģæ·": 782,
      "ä½įç½®ç¼ĸçłģåĳ": 783,
      "éĩıè¶Ĭå¤§": 784,
      "è¯¾åłĤå¯¹æ¯Ķ": 785,
      "erä½¿çĶ¨": 786,
      "æŃ¢": 787,
      "èĥ½åĬłéĢŁ": 788,
      "éĶģ": 789,
      "ä¸Ĭå½±åĵį": 790,
      "ä¸Ĭä¸ĭæĸĩ": 791,
      "åıĤæķ°å¾ĹåĪ°": 792,
      "çĲĨè§£ä¸Ĭä¸ĭæĸĩ": 793,
      "å°ıæ¨¡åŀĭä¸Ĭå½±åĵį": 794,
      "éĢĤåĲĪæ¼Ķç¤º": 795,
      "çĽ¸è¿ĳ": 796,
      "īæ¨¡åŀĭè¯į": 797,
      "RoPEæĬĬçĽ¸å¯¹ä½įç½®ä¿¡æģ¯æ³¨åħ¥æ³¨æĦıåĬĽ": 798,
      "äºĨå¤§éĥ¨åĪĨ": 799,
      "è°ģ": 800,
      "ç¼©æĿĥéĩį": 801,
      "å¼ıåı¯ä»¥": 802,
      "åı¯ä»¥è®©": 803,
      "å¾ĹçļĦæ°´": 804,
      "åľ¨åı¥åŃĲä¸Ń": 805,
      "CPUæİ¨çĲĨ": 806,
      "è®©è®¡ç®Ĺåıĺæħ¢": 807,
      "èĴ¸é¦ıèİ·": 808,
      "èĴ¸é¦ıæ°´æĺ¯éĢļè¿ĩ": 809,
      "çº¯æ°´æĺ¯æĮ": 810,
      "åĨįåĨ³å®ļ": 811,
      "ç»ĵæŀĦç®Ģåįķ": 812,
      "éĻ¤äºĨå¤§éĥ¨åĪĨ": 813,
      "ä¼ļè®©è®¡ç®Ĺåıĺæħ¢": 814,
      "èĩªæ³¨æĦıåĬĽ": 815,
      "æİĴåºı": 816,
      "åĢ¼": 817,
      "ä¾¿äºİè¯¾åłĤå¯¹æ¯Ķ": 818,
      "è¯įçļĦåħ³ç³»": 819,
      "åĲĮæł·": 820,
      "éķ¿åº¦å¢ŀåĬł": 821,
      "è¿Ľè¡Įç¼©æĶ¾": 822,
      "åĽºå®ļç§įåŃĲåı¯ä»¥è®©": 823,
      "åĩıå°ĳè®¡ç®Ĺä¸İåĨħåŃĺ": 824,
      "çĶŁæĪĲ": 825,
      "åħ±äº«": 826,
      "è§£éĩĬRoPEçļĦä½ľçĶ¨": 827,
      "åħĪçľĭæ¯ıä¸ª": 828,
      "åİĭç¼©æĿĥéĩį": 829,
      "åĬ¨æĢģéĩıåĮĸèĥ½åĬłéĢŁ": 830,
      "åħ¶ä»ĸè¯įçļĦåħ³ç³»": 831,
      "RMSNormçĶ¨åĿĩæĸ¹æł¹è¿Ľè¡Įç¼©æĶ¾": 832,
      "ä¿ĿçķĻä½įåºıåħ³ç³»ä¸Ķé«ĺæķĪ": 833,
      "åİ»éĻ¤äºĨå¤§éĥ¨åĪĨ": 834,
      "Transform": 835,
      "»åĬłä½įç½®ä¿¡æģ¯": 836,
      "ĩæĿĤè´¨åĲ«éĩ": 837,
      "Ĭè¯īæ¨¡åŀĭè¯į": 838,
      "ĹéĢıçŃī": 839,
      "åıįæ¸ĹéĢıçŃī": 840,
      "ä»İèĢĮæĽ´å¥½": 841,
      "è¯¥éĩįçĤ¹åıĤèĢĥè°ģ": 842,
      "æ³¨æĦıåĬĽè®¡ç®Ĺéĩıè¶Ĭå¤§": 843,
      "ıæŀģä½İçļĦæ°´": 844,
      "ä¸İçº¯æ°´åĮºåĪ«": 845,
      "åĪ¶å¤ĩæĸ¹å¼ıåı¯ä»¥": 846,
      "è¯įåĴĮåħ¶ä»ĸè¯įçļĦåħ³ç³»": 847,
      "è®©æ¨¡åŀĭçŁ¥éģĵåħĪåĲİ": 848,
      "è§£éĩĬèĴ¸é¦ıæ°´ä¸İçº¯æ°´åĮºåĪ«": 849,
      "ä½įç½®ç¼ĸçłģæ·»åĬłä½įç½®ä¿¡æģ¯": 850,
      "ä½įç½®ç¼ĸçłģåĳĬè¯īæ¨¡åŀĭè¯į": 851,
      "erä½¿çĶ¨èĩªæ³¨æĦıåĬĽ": 852,
      "åıĤæķ°å¾ĹåĪ°çĽ¸è¿ĳ": 853,
      "å°ıæ¨¡åŀĭä¸Ĭå½±åĵįæĺİæĺ¾": 854,
      "åľ¨åı¥åŃĲä¸ŃçļĦé¡ºåºı": 855,
      "èĴ¸é¦ıèİ·å¾ĹçļĦæ°´": 856,
      "èĴ¸é¦ıæ°´æĺ¯éĢļè¿ĩèĴ¸é¦ıèİ·å¾ĹçļĦæ°´": 857,
      "çº¯æ°´æĺ¯æĮĩæĿĤè´¨åĲ«éĩ": 858,
      "åĨįåĨ³å®ļè¯¥éĩįçĤ¹åıĤèĢĥè°ģ": 859,
      "åĲĮæł·åıĤæķ°å¾ĹåĪ°çĽ¸è¿ĳ": 860,
      "éķ¿åº¦å¢ŀåĬłä¼ļè®©è®¡ç®Ĺåıĺæħ¢": 861,
      "åĽºå®ļç§įåŃĲåı¯ä»¥è®©è®Ńç»ĥåı¯å¤įçİ°": 862,
      "åĩıå°ĳè®¡ç®Ĺä¸İåĨħåŃĺåįłçĶ¨": 863,
      "åħĪçľĭæ¯ıä¸ªè¯įåĴĮåħ¶ä»ĸè¯įçļĦåħ³ç³»": 864,
      "åĬ¨æĢģéĩıåĮĸèĥ½åĬłéĢŁCPUæİ¨çĲĨ": 865,
      "åİ»éĻ¤äºĨå¤§éĥ¨åĪĨæĿĤè´¨": 866,
      "Transformerä½¿çĶ¨èĩªæ³¨æĦıåĬĽ": 867,
      "ä»İèĢĮæĽ´å¥½çĲĨè§£ä¸Ĭä¸ĭæĸĩ": 868,
      "åĪ¶å¤ĩæĸ¹å¼ıåı¯ä»¥æĺ¯èĴ¸é¦ı": 869,
      "è®©æ¨¡åŀĭçŁ¥éģĵåħĪåĲİé¡ºåºı": 870,
      "ä½įç½®ç¼ĸçłģåĳĬè¯īæ¨¡åŀĭè¯įåľ¨åı¥åŃĲä¸ŃçļĦé¡ºåºı": 871,
      "çº¯æ°´æĺ¯æĮĩæĿĤè´¨åĲ«éĩıæŀģä½İçļĦæ°´": 872,
      "åĲĮæł·åıĤæķ°å¾ĹåĪ°çĽ¸è¿ĳç»ĵæŀľ": 873,
      "it": 874,
      "si": 875,
      "¡®": 876,
      "æ£": 877,
      "æĥ": 878,
      "ç¡®": 879,
      "è·": 880,
      "å¤Ħ": 881,
      "æľį": 882,
      "äº¤": 883,
      "æĽ´æĸ°": 884,
      "éĩįå¤į": 885,
      "ä¸Ģä¸ª": 886,
      "ä¸Ģèĩ´": 887,
      "è®©æ¨¡åŀĭèĥ½": 888,
      "è®©æ¨¡åŀĭåħ³æ³¨": 889,
      "æľīä»Ģä¹Ī": 890,
      "è¯¾åłĤæ¼Ķç¤º": 891,
      "åİŁ": 892,
      "æĪĸ": 893,
      "æī¾": 894,
      "ç´¯": 895,
      "æ¸©": 896,
      "éĺŁ": 897,
      "è¡¨ç¤º": 898,
      "è¾ĵåħ¥": 899,
      "åħ³æ³¨éĩįè¦ģ": 900,
      "äºĮåı": 901,
      "arg": 902,
      "ä¸ºäºĨè®©æ¨¡åŀĭèĥ½": 903,
      "ä¸ºä»Ģä¹ĪéľĢè¦ģæ³¨æĦıåĬĽ": 904,
      "æİ§åĪ¶": 905,
      "ä¸Ģèĩ´æĢ§": 906,
      "è®©æ¨¡åŀĭåħ³æ³¨éĩįçĤ¹": 907,
      "åħ³æ³¨éĩįè¦ģä¿¡æģ¯": 908,
      "ä¸ºäºĨè®©æ¨¡åŀĭèĥ½åħ³æ³¨éĩįè¦ģä¿¡æģ¯": 909,
      ")ãĢĤ": 910,
      "50": 911,
      "FS": 912,
      "HT": 913,
      "TP": 914,
      "de": 915,
      "le": 916,
      "top": 917,
      "¬¡": 918,
      "ÃĹ": 919,
      "âĨ": 920,
      "çī¹": 921,
      "ĵåŃĺ": 922,
      "åĬ¨": 923,
      "éĢĴ": 924,
      "éĢīæ": 925,
      "åŃĹ": 926,
      "æķĽ": 927,
      "ç»Ħ": 928,
      "å°Ĩ": 929,
      "ç¼ĵåŃĺ": 930,
      "æĸ¹æ³ķ": 931,
      "çİ°": 932,
      "éĻĲ": 933,
      "é¢Ħ": 934,
      "ä½¿çĶ¨æ": 935,
      "éĺ²": 936,
      "æĮģ": 937,
      "æĶ¶æķĽ": 938,
      "æµĭ": 939,
      "è½¬": 940,
      "100": 941,
      "åºĶçĶ¨": 942,
      "æ£Ģ": 943,
      "args": 944,
      "HTTP": 945,
      "âĨĴ": 946,
      "éĢīæĭ": 947,
      "ed": 948,
      "tu": 949,
      "±»": 950,
      "¶æĢ": 951,
      "¿éĹ®": 952,
      "çĥ": 953,
      "çĪ": 954,
      "ç±»": 955,
      "è±": 956,
      "éĤ": 957,
      "éĥ½": 958,
      "Ĭ¶æĢ": 959,
      "Ĳľ": 960,
      "Ľå»º": 961,
      "åĪĻ": 962,
      "åĪĽå»º": 963,
      "è®¿éĹ®": 964,
      "è¯ķ": 965,
      "å®¹": 966,
      "å¯Ĩ": 967,
      "å¯Ł": 968,
      "æĬĢ": 969,
      "æį¢": 970,
      "è´¨æ": 971,
      "å¤§å°ı": 972,
      "å¿ĥ": 973,
      "ç§¯": 974,
      "ä¸Ńå¦Ĥä½ķ": 975,
      "è´¨éĩı": 976,
      "å¤įæĿĤ": 977,
      "äºĮè¿ĽåĪ¶": 978,
      "è§Ĥå¯Ł": 979,
      "åīª": 980,
      "ç´¢å¼ķ": 981,
      "è¿ŀæİ¥": 982,
      "ç´¯ç§¯": 983,
      "éĢĴå½Ĵ": 984,
      "æ£ĢæŁ¥": 985,
      "tup": 986,
      "çĥŃ": 987,
      "Ĭ¶æĢģ": 988,
      "Ĳľç´¢": 989,
      "()": 990,
      "AC": 991,
      "AP": 992,
      "Cli": 993,
      "ST": 994,
      "TCP": 995,
      "ch": 996,
      "ie": 997,
      "lo": 998,
      "ue": 999,
      "µĮ": 1000,
      "·è´": 1001,
      "·æ±Ĥ": 1002,
      "¿åħ": 1003,
      "åµĮ": 1004,
      "æ®": 1005,
      "æº": 1006,
      "æ¨¡å": 1007,
      "æ¦Ĥ": 1008,
      "æĵį": 1009,
      "çŁ": 1010,
      "çĬ¶æĢģ": 1011,
      "Ģæľī": 1012,
      "ģåīª": 1013,
      "īæłĳ": 1014,
      "Ķç": 1015,
      "ķ°": 1016,
      "Ļå¼": 1017,
      "ä¸»": 1018,
      "ä½Ļå¼": 1019,
      "ä»»": 1020,
      "è¯·æ±Ĥ": 1021,
      "è¿ĺ": 1022,
      "æľ¬": 1023,
      "æľŁ": 1024,
      "åĲĳ": 1025,
      "ç»Ļ": 1026,
      "çĶ¨äºİ": 1027,
      "æł¸": 1028,
      "ä¸İè¾ĵåĩº": 1029,
      "åĩĨ": 1030,
      "å¯¹è±": 1031,
      "åłĨ": 1032,
      "æŀĦ": 1033,
      "éĹ´": 1034,
      "æıĲäº¤": 1035,
      "å¹³": 1036,
      "ä¸ºä»Ģä¹Īè¦ģ": 1037,
      "è¾¾": 1038,
      "åıĤæķ°å¹¶": 1039,
      "éģ¿åħ": 1040,
      "å¹¶åģļ": 1041,
      "éĥ¨ç½": 1042,
      "å·®": 1043,
      "éħįç½®": 1044,
      "CPUä¸Ĭ": 1045,
      "ä¼ĺåħĪ": 1046,
      "æ·±": 1047,
      "æŁ¥æī¾": 1048,
      "è§ĤéĶģ": 1049,
      "éªĮè¯ģæįŁå¤±": 1050,
      "è®¾è®¡": 1051,
      "çº¿æĢ§": 1052,
      "çº¿ç¨ĭ": 1053,
      "æĭ·è´": 1054,
      "è£ģåīª": 1055,
      "æłĩçĤ¹": 1056,
      "ç«ĭ": 1057,
      "æĪĸè¯į": 1058,
      "æ¸©åº¦": 1059,
      "éĺŁåĪĹ": 1060,
      "äºĮåıīæłĳ": 1061,
      "é¢ĦçĥŃ": 1062,
      "éĢīæĭ©": 1063,
      "éĤ»": 1064,
      "è´¨æķ°": 1065,
      "tuple": 1066,
      "Client": 1067,
      "åµĮåħ¥": 1068,
      "æĵįä½ľ": 1069,
      "ä½Ļå¼¦": 1070,
      "éģ¿åħį": 1071,
      "éĥ¨ç½²": 1072,
      "æĭ·è´Ŀ": 1073,
      ")ãĢģ": 1074,
      "ET": 1075,
      "Git": 1076,
      "QL": 1077,
      "Ser": 1078,
      "SQL": 1079,
      "ach": 1080,
      "ip": 1081,
      "ion": 1082,
      "oc": 1083,
      "ver": 1084,
      "®æĶ¹": 1085,
      "»åĩ": 1086,
      "æ¡": 1087,
      "æĦı": 1088,
      "çĭ": 1089,
      "ĥı": 1090,
      "ĺ¯": 1091,
      "ä¸¤": 1092,
      "åı³": 1093,
      "åıĮ": 1094,
      "åĪł": 1095,
      "åħĥ": 1096,
      "éĢģ": 1097,
      "è®®": 1098,
      "è¯»": 1099,
      "è¯Ħ": 1100,
      "æķ´": 1101,
      "ä¿®æĶ¹": 1102,
      "äºĭ": 1103,
      "æĶ¾": 1104,
      "æĶ»åĩ": 1105,
      "æ³¨æĦıåĬĽè®©æ¨¡åŀĭåħ³æ³¨éĩįçĤ¹": 1106,
      "æłĪ": 1107,
      "åįı": 1108,
      "éĿŀ": 1109,
      "èĢ¦": 1110,
      "è¿ĩå¤§": 1111,
      "åĲĪå¹¶": 1112,
      "è®Ńç»ĥä¸İ": 1113,
      "è®Ńç»ĥæŃ¥": 1114,
      "ç¤ºè¯į": 1115,
      "çº§": 1116,
      "æıĲç¤ºè¯į": 1117,
      "å¾®": 1118,
      "æī¹": 1119,
      "æīĢæľī": 1120,
      "ç´ł": 1121,
      "æķ°æį®ä¸İ": 1122,
      "éĢŁåº¦": 1123,
      "æľĢä¼ĺ": 1124,
      "æ¸ħ": 1125,
      "å·¦": 1126,
      "åĿĩ": 1127,
      "æĹł": 1128,
      "åıĳéĢģ": 1129,
      "åĽŀæĶ¶": 1130,
      "ä¼ĺåĮĸ": 1131,
      "æ¢¯åº¦ç´¯ç§¯": 1132,
      "åīį": 1133,
      "åŃ¦ä¹łçİĩä¸İ": 1134,
      "å¸¸": 1135,
      "å¸ĥ": 1136,
      "list": 1137,
      "ing": 1138,
      "å®ŀçİ°": 1139,
      "å±ĤæĿĥéĩį": 1140,
      "è£ħ": 1141,
      "å¼Ģåıĳ": 1142,
      "å±Ģ": 1143,
      "è·¯": 1144,
      "å¤ĦçĲĨ": 1145,
      "æľįåĬ¡": 1146,
      "æİ§åĪ¶è®Ńç»ĥæŃ¥": 1147,
      "éĺ²æŃ¢": 1148,
      "æµĭè¯ķ": 1149,
      "å®¹åĻ¨": 1150,
      "å¤įæĿĤåº¦": 1151,
      "ACK": 1152,
      "çŁŃ": 1153,
      "å¯¹è±¡": 1154,
      "çĭ¬": 1155,
      "æĶ»åĩ»": 1156,
      ")ï¼Į": 1157,
      "..": 1158,
      "11": 1159,
      "BFS": 1160,
      "DFS": 1161,
      "FI": 1162,
      "Red": 1163,
      "al": 1164,
      "cop": 1165,
      "es": 1166,
      "for": 1167,
      "ic": 1168,
      "is": 1169,
      "kw": 1170,
      "ou": 1171,
      "ub": 1172,
      "us": 1173,
      "ure": 1174,
      "¡çĲĨ": 1175,
      "¤æĸ": 1176,
      "¦»": 1177,
      "ªģ": 1178,
      "²ç": 1179,
      "³¨æĦıåĬĽ": 1180,
      "´»": 1181,
      "¶æķ°": 1182,
      "¼ı": 1183,
      "âĢ": 1184,
      "åĵ": 1185,
      "åŁ": 1186,
      "åĥı": 1187,
      "æģ": 1188,
      "æĻ": 1189,
      "æĲľç´¢": 1190,
      "æ´»": 1191,
      "çĤ": 1192,
      "ç½®": 1193,
      "èĬ": 1194,
      "èĮ": 1195,
      "éĵ": 1196,
      "ģè¿ĽåĪ¶": 1197,
      "ĨçĤ": 1198,
      "Īå¸": 1199,
      "ĭå·®": 1200,
      "įåİ": 1201,
      "İä¹Ī": 1202,
      "ıæľº": 1203,
      "ĲæŃ¥": 1204,
      "åĬ¡å": 1205,
      "çĶ±": 1206,
      "åıĸ": 1207,
      "åĪ¤æĸ": 1208,
      "åħ¸": 1209,
      "éĢĲæŃ¥": 1210,
      "éĩĩ": 1211,
      "ä¹¦": 1212,
      "ä¹ī": 1213,
      "æĺ¯åĲ": 1214,
      "æĺ¯ä¸Ģ": 1215,
      "åºĵ": 1216,
      "çļĦåĮºåĪ«": 1217,
      "æľ¯": 1218,
      "åĲ¯": 1219,
      "ç»ı": 1220,
      "ç»Ł": 1221,
      "è§Ħ": 1222,
      "ç®¡çĲĨ": 1223,
      "ä»Ģä¹Īæĺ¯Python": 1224,
      "æĶ¯": 1225,
      "è®¡æķ°": 1226,
      "åįģè¿ĽåĪ¶": 1227,
      "å®ļæľŁ": 1228,
      "åº¦ä¼ĺåħĪ": 1229,
      "åĪĨå¸ĥ": 1230,
      "è¡¡": 1231,
      "ä¸ĢæŃ¥": 1232,
      "è¯įåºıåħ³ç³»": 1233,
      "æĢİä¹Ī": 1234,
      "è®©æ¨¡åŀĭçĲĨè§£": 1235,
      "èĢħ": 1236,
      "é¦ĸ": 1237,
      "å¦Ĥä½ķè®©æ¨¡åŀĭåħ³æ³¨éĩįçĤ¹": 1238,
      "ä½įç½®ç¼ĸçłģéĩįè¦ģ": 1239,
      "éĹŃ": 1240,
      "æıĲé«ĺ": 1241,
      "å¾Ħ": 1242,
      "çĽ®": 1243,
      "éĻį": 1244,
      "ä¸ºä»Ģä¹Īä½įç½®ç¼ĸçłģéĩįè¦ģ": 1245,
      "å½ķ": 1246,
      "éĢļè¿ĩä½įç½®ç¼ĸçłģ": 1247,
      "ä½ľä¸º": 1248,
      "ä¿Ŀè¯ģ": 1249,
      "æľĢå°ı": 1250,
      "æľĢåĲİ": 1251,
      "éģįåİ": 1252,
      "éª¤": 1253,
      "åģľ": 1254,
      "åĻ¨æ": 1255,
      "æŃ¥éª¤": 1256,
      "åĽŀéĢĢ": 1257,
      "æ¢¯åº¦è£ģåīª": 1258,
      "è½»": 1259,
      "åĢº": 1260,
      "çŁ¥éģĵè¯įçļĦ": 1261,
      "èİ·åıĸ": 1262,
      "éĽĨåĲĪ": 1263,
      "éĽĨåŀĭ": 1264,
      "ç½ĳ": 1265,
      "æ¨¡åŀĭæĢİä¹Ī": 1266,
      "åħ¨å±Ģ": 1267,
      "èµ°": 1268,
      "åıªæľī": 1269,
      "è°ĥçĶ¨": 1270,
      "è°ĥåº¦": 1271,
      "ç«Ļ": 1272,
      "éļĶç": 1273,
      "éļıæľº": 1274,
      "æľįåĬ¡å": 1275,
      "åİŁåĪĻ": 1276,
      "ä½¿çĶ¨æ³¨æĦıåĬĽ": 1277,
      "çĪĨçĤ": 1278,
      "éĥ½æĺ¯": 1279,
      "å¯ĨéĽĨåŀĭ": 1280,
      "æĬĢæľ¯": 1281,
      "æ¨¡å¼ı": 1282,
      "æ¦Ĥçİĩ": 1283,
      "ä»»åĬ¡": 1284,
      "æł¸å¿ĥ": 1285,
      "éģ¿åħįéĩįå¤į": 1286,
      "Server": 1287,
      "æ¡Ī": 1288,
      "ä¸¤ä¸ª": 1289,
      "åĪłéĻ¤": 1290,
      "äºĭåĬ¡": 1291,
      "æī¹å¤§å°ı": 1292,
      "è·¯å¾Ħ": 1293,
      "çĭ¬ç«ĭ": 1294,
      "Redis": 1295,
      "copy": 1296,
      "kwargs": 1297,
      "åĵĪå¸": 1298,
      "åŁº": 1299,
      "èĬĤ": 1300,
      "èĮĥ": 1301,
      "åĪ¤æĸŃ": 1302,
      "æĺ¯åĲ¦": 1303,
      "ä»Ģä¹Īæĺ¯PythonçļĦ": 1304,
      "åº¦ä¼ĺåħĪæĲľç´¢": 1305,
      "åĪĨå¸ĥå¼ı": 1306,
      "è®©æ¨¡åŀĭçĲĨè§£è¯įåºıåħ³ç³»": 1307,
      "éģįåİĨ": 1308,
      "çŁ¥éģĵè¯įçļĦé¡ºåºı": 1309,
      "æ¨¡åŀĭæĢİä¹ĪçŁ¥éģĵè¯įçļĦé¡ºåºı": 1310,
      "éļĶç¦»": 1311,
      "ä½¿çĶ¨æ³¨æĦıåĬĽæľºåĪ¶": 1312,
      "çĪĨçĤ¸": 1313,
      "åĵĪå¸Į": 1314,
      "**": 1315,
      "2Â": 1316,
      "=(": 1317,
      "Ba": 1318,
      "CD": 1319,
      "CI": 1320,
      "CS": 1321,
      "Con": 1322,
      "CAP": 1323,
      "Dr": 1324,
      "FO": 1325,
      "GET": 1326,
      "ID": 1327,
      "La": 1328,
      "OST": 1329,
      "POST": 1330,
      "RF": 1331,
      "SO": 1332,
      "SS": 1333,
      "ain": 1334,
      "cr": 1335,
      "cy": 1336,
      "cing": 1337,
      "eat": 1338,
      "each": 1339,
      "fu": 1340,
      "feat": 1341,
      "ly": 1342,
      "main": 1343,
      "nc": 1344,
      "rit": 1345,
      "teach": 1346,
      "va": 1347,
      "vie": 1348,
      "¡æĿ": 1349,
      "¥°": 1350,
      "§è¡Į": 1351,
      "¨¡æĿ": 1352,
      "©åŃĲ": 1353,
      "©äºİ": 1354,
      "©ç½": 1355,
      "ªå¿ĥ": 1356,
      "«éĢĲæŃ¥": 1357,
      "²»": 1358,
      "²è§ĤéĶģ": 1359,
      "¶æĦı": 1360,
      "¼å¹³": 1361,
      "¿Ģ": 1362,
      "åĤ": 1363,
      "æ»": 1364,
      "æĤ": 1365,
      "æ¬¡": 1366,
      "æ¨¡æĿ": 1367,
      "æ²»": 1368,
      "æ¿Ģ": 1369,
      "çģ": 1370,
      "çĦ": 1371,
      "é¥°": 1372,
      "Ġ3": 1373,
      "Ġn": 1374,
      "Ġfor": 1375,
      "ģç¨ĭ": 1376,
      "Ħæº": 1377,
      "ħæĭ·è´Ŀ": 1378,
      "ĩé«ĺ": 1379,
      "īåħ¨": 1380,
      "Ĳè§ĤéĶģ": 1381,
      "Ĵåħ¥": 1382,
      "ĶåĽŀ": 1383,
      "Ķæ¡Ī": 1384,
      "ĸçķ": 1385,
      "Ļ¨": 1386,
      "ĻåŃ¦": 1387,
      "ļä¸İ": 1388,
      "ľåĥı": 1389,
      "Ŀèµ": 1390,
      "Łå®ŀ": 1391,
      "Ń¥": 1392,
      "åĬŁ": 1393,
      "åĬ©äºİ": 1394,
      "ä¸īæ": 1395,
      "ä»¶": 1396,
      "è®º": 1397,
      "ä¹ĺ": 1398,
      "ä¹Ĳè§ĤéĶģ": 1399,
      "è¯¯": 1400,
      "è¯Ń": 1401,
      "åŃ©åŃĲ": 1402,
      "æķ£": 1403,
      "æķĻåŃ¦": 1404,
      "å¤ĩé«ĺ": 1405,
      "çļĦå°ı": 1406,
      "çļĦæķ°æį®": 1407,
      "çļĦè¯¾åłĤæ¼Ķç¤º": 1408,
      "çļĦä¸»": 1409,
      "çļĦåŃ¦ä¹łçİĩä¸İ": 1410,
      "è¿ĶåĽŀ": 1411,
      "åĨ³": 1412,
      "åĨ²ç": 1413,
      "åĲį": 1414,
      "ç»Ī": 1415,
      "çĶ¨å°ıæ¨¡åŀĭ": 1416,
      "çĶ¨çľ": 1417,
      "çĶ¨å¤ļ": 1418,
      "çĶ¨ä½Ļå¼¦": 1419,
      "æķ°åŃĹ": 1420,
      "å°ģ": 1421,
      "ä»Ģä¹Īæĺ¯åŃ¦ä¹łçİĩ": 1422,
      "ä»Ģä¹Īæĺ¯teach": 1423,
      "æĽ´æĺİæĺ¾": 1424,
      "æĽ´æį¢": 1425,
      "å®īåħ¨": 1426,
      "è§£èĢ¦": 1427,
      "è§£åĨ³": 1428,
      "æ³¨æĦıåĬĽå¤įæĿĤåº¦": 1429,
      "å¯¼": 1430,
      "ç¼©": 1431,
      "éĢļä¿¡": 1432,
      "æł¼": 1433,
      "ä¸ĭä¸ĢæŃ¥": 1434,
      "ıæŃ¥": 1435,
      "ä¸İåıĤæķ°": 1436,
      "ä¸İæķĪ": 1437,
      "ä¸İè¯¾åłĤæ¼Ķç¤º": 1438,
      "ä¸İé¢ĦçĥŃ": 1439,
      "ä¸İçŁŃ": 1440,
      "æĶ¹ä»£çłģ": 1441,
      "æĿĥ": 1442,
      "å¯¹çŃ": 1443,
      "å¯¹çĶŁæĪĲ": 1444,
      "è®¡ç®Ĺè¶Ĭ": 1445,
      "è®¡ç®ĹæįŁå¤±": 1446,
      "åĪĨè¯į": 1447,
      "åĪĨæĶ¯": 1448,
      "åĪĨæ²»": 1449,
      "è¦ģè§£éĩĬ": 1450,
      "è´ªå¿ĥ": 1451,
      "è¶ħ": 1452,
      "åĽł": 1453,
      "åĬłåħ¥": 1454,
      "åĬłå¿«": 1455,
      "åĬłç®Ģåįķ": 1456,
      "ä¸ĢåĮĸ": 1457,
      "ä¸Ģä½į": 1458,
      "è¯įåµĮåħ¥": 1459,
      "ä¼°": 1460,
      "ä¼ł": 1461,
      "ä¼¼å¹³": 1462,
      "å¤§è¿Ľè¡Į": 1463,
      "åı¯åıĺ": 1464,
      "è¶Ĭé«ĺ": 1465,
      "è¶Ĭä½İ": 1466,
      "è¶Ĭåıĳ": 1467,
      "è¶Ĭç¡®": 1468,
      "åĲĪéĢĤ": 1469,
      "æĸ¹å¢ŀ": 1470,
      "æĸ¹ä¾¿": 1471,
      "æıĴåħ¥": 1472,
      "è®Ńç»ĥç¨³å®ļ": 1473,
      "è®Ńç»ĥæĹ¶": 1474,
      "è®Ńç»ĥä¸Ńå¦Ĥä½ķ": 1475,
      "è®Ńç»ĥæĺ¯åĲ¦": 1476,
      "è®Ńç»ĥçļĦå°ı": 1477,
      "å¦Ĥä½ķéªĮè¯ģ": 1478,
      "å¦Ĥä½ķè®¾": 1479,
      "å¦Ĥä½ķéĺ²æŃ¢": 1480,
      "å¦Ĥä½ķæıĲé«ĺ": 1481,
      "å¦Ĥä½ķéģ¿åħįéĩįå¤į": 1482,
      "éķľåĥı": 1483,
      "åħĪå°ı": 1484,
      "æľīæķĪ": 1485,
      "æľīåĬ©äºİ": 1486,
      "æıĲé«ĺæķĪ": 1487,
      "çİ¯": 1488,
      "ç®Ģè¦ģè§£éĩĬ": 1489,
      "æŃ£": 1490,
      "èĥ½æıĲé«ĺæķĪ": 1491,
      "é¡¶": 1492,
      "é¡¹": 1493,
      "åºıåĪĹéķ¿åº¦": 1494,
      "éĶĻ": 1495,
      "å°ıæķ°æį®": 1496,
      "ä¸ºä»Ģä¹Īåħ±äº«": 1497,
      "ä¸ºä»Ģä¹ĪåºıåĪĹéķ¿åº¦": 1498,
      "æĢ§èĥ½": 1499,
      "åŃĺåĤ": 1500,
      "è¿Ľç¨ĭ": 1501,
      "æī©": 1502,
      "æī§è¡Į": 1503,
      "å°ıæ¨¡åŀĭçļĦè¯¾åłĤæ¼Ķç¤º": 1504,
      "ä¿ĿæĮģ": 1505,
      "åĲİå¤ĦçĲĨ": 1506,
      "åĲİå¤§è¿Ľè¡Į": 1507,
      "æķ°æį®æĪĸè¯į": 1508,
      "æķ°æį®åºĵ": 1509,
      "çİĩæıĲåįĩ": 1510,
      "çŃĸçķ": 1511,
      "īæĲľç´¢": 1512,
      "å¹¶å®ļæľŁ": 1513,
      "æ¼Ķç¤ºä¸İåıĤæķ°": 1514,
      "ä¾ĭ": 1515,
      "ä¾Ŀèµ": 1516,
      "è¯ģä¹¦": 1517,
      "å·¥": 1518,
      "å·§": 1519,
      "åģ¶æķ°": 1520,
      "åľ¨è®Ńç»ĥæĹ¶": 1521,
      "ä½İæ¸©": 1522,
      "æĿĥéĩįåĩıå°ĳ": 1523,
      "è¡¨ä¸į": 1524,
      "æŃ¥éķ¿": 1525,
      "åıĳçİ°": 1526,
      "åĽŀå¤į": 1527,
      "åĽºå®ļæıĲç¤ºè¯į": 1528,
      "åĽºå®ļéļıæľº": 1529,
      "éªĮä¸İè¯¾åłĤæ¼Ķç¤º": 1530,
      "åĨįçĶ¨ä½Ļå¼¦": 1531,
      "åĩºCPUä¸Ĭ": 1532,
      "æ³¨æĦıåĬĽæľºåĪ¶çļĦä½ľçĶ¨": 1533,
      "opou": 1534,
      "ä¸įæĺ¯": 1535,
      "ä¼ļåıĺæħ¢": 1536,
      "ç¨³å®ļæĢ§": 1537,
      "ç¨³å®ļæİ¨çĲĨ": 1538,
      "ç¨³å®ļè¾ĵåĩº": 1539,
      "ç¨³å®ļæĶ¶æķĽ": 1540,
      "èĩªåĬ¨": 1541,
      "æµģç¨ĭ": 1542,
      "æµħæĭ·è´Ŀ": 1543,
      "è§Ĥæ£ĢæŁ¥": 1544,
      "å¥½å¤Ħ": 1545,
      "å»ºè®®": 1546,
      "åŃ¦ä¹łçİĩæİ§åĪ¶": 1547,
      "art": 1548,
      "æİ¥æĶ¶": 1549,
      "æįŁå¤±åĩ½æķ°": 1550,
      "ç»ĵæŀľåı¯å¤įçİ°": 1551,
      "éĥ¨åĪĨè®¡ç®ĹæįŁå¤±": 1552,
      "ä¾¿äºİå¿«éĢŁ": 1553,
      "éĽĨçļĦä¸»": 1554,
      "è¿ĳä¼¼å¹³": 1555,
      "åºıåĪĹè¶Ĭéķ¿è®¡ç®Ĺè¶Ĭ": 1556,
      "åĽºå®ļç§įåŃĲå¹¶å®ļæľŁ": 1557,
      "å®ŀéªĮä¸İè¯¾åłĤæ¼Ķç¤º": 1558,
      "å½Ĵä¸ĢåĮĸ": 1559,
      "èµĦæº": 1560,
      "åıªå¯¹çŃ": 1561,
      "æłĩä½ľä¸º": 1562,
      "å¼ķçĶ¨": 1563,
      "Pythonä¸Ń": 1564,
      "å±ħ": 1565,
      "éĢĢçģ": 1566,
      "è¿ŀéĢļ": 1567,
      "æŃ¢è¯į": 1568,
      "çĶŁæĪĲæłĩçĤ¹": 1569,
      "åħ±äº«æĿĥéĩįåĩıå°ĳ": 1570,
      "sist": 1571,
      "æĥ³": 1572,
      "æĥ©ç½": 1573,
      "æĽ´æĸ°æŃ¥éķ¿": 1574,
      "éĩįå¤įæĥ©ç½": 1575,
      "æľīä»Ģä¹Īå½±åĵį": 1576,
      "è¯¾åłĤæ¼Ķç¤ºå»ºè®®": 1577,
      "è¡¨ç¤ºä¸Ģèĩ´æĢ§": 1578,
      "äºĮåıīæĲľç´¢": 1579,
      "çī¹çĤ¹": 1580,
      "éĻĲåĪ¶": 1581,
      "éĺ²èĮĥ": 1582,
      "HTTPS": 1583,
      "çĪ¶": 1584,
      "æĬĢå·§": 1585,
      "è´¨éĩıå°ıæķ°æį®": 1586,
      "è§Ĥå¯ŁéªĮè¯ģæįŁå¤±": 1587,
      "è§Ĥå¯Łè®Ńç»ĥä¸İ": 1588,
      "log": 1589,
      "ueue": 1590,
      "æ®ĭå·®": 1591,
      "ç»ĻåĩºCPUä¸Ĭ": 1592,
      "ä¸İè¾ĵåĩºæ¸ħ": 1593,
      "ä¸İè¾ĵåĩºå±ĤæĿĥéĩį": 1594,
      "åĩĨå¤ĩé«ĺ": 1595,
      "ä¸ºä»Ģä¹Īè¦ģè§£èĢ¦": 1596,
      "ä¸ºä»Ģä¹Īè¦ģåĽºå®ļéļıæľº": 1597,
      "åıĤæķ°å¹¶åĬłç®Ģåįķ": 1598,
      "åıĤæķ°å¹¶ä¿ĿæĮģ": 1599,
      "å¹¶åģļé¦ĸ": 1600,
      "å¹¶åģļåĽºå®ļæıĲç¤ºè¯į": 1601,
      "CPUä¸ĬæĽ´æĺİæĺ¾": 1602,
      "æ·±æĭ·è´Ŀ": 1603,
      "éªĮè¯ģæįŁå¤±å¹¶åģļåĽºå®ļæıĲç¤ºè¯į": 1604,
      "æłĩçĤ¹åĽŀéĢĢ": 1605,
      "æ¸©åº¦å¯¹çĶŁæĪĲ": 1606,
      "æ¸©åº¦è¶Ĭé«ĺ": 1607,
      "éĢīæĭ©ç¨³å®ļæİ¨çĲĨ": 1608,
      "éĤ»å±ħ": 1609,
      "ClientåıĳéĢģ": 1610,
      "åµĮåħ¥ä¸İè¾ĵåĩºå±ĤæĿĥéĩį": 1611,
      "ipt": 1612,
      "ock": 1613,
      "åıĮæĸ¹": 1614,
      "åħĥç´ł": 1615,
      "è¯Ħä¼°": 1616,
      "éĿŀçº¿æĢ§": 1617,
      "è¿ĩå¤§ä¼ļåıĺæħ¢": 1618,
      "å¾®éĩįå¤įæĥ©ç½": 1619,
      "æķ°æį®ä¸İåĪĨè¯į": 1620,
      "æ¢¯åº¦ç´¯ç§¯ä¸İé¢ĦçĥŃ": 1621,
      "å¸¸çĶ¨": 1622,
      "è£ħé¥°": 1623,
      "æİ§åĪ¶è®Ńç»ĥæŃ¥æķ°": 1624,
      "æģ¶æĦı": 1625,
      "æ´»åĩ½æķ°": 1626,
      "ç½®åĲĪéĢĤ": 1627,
      "éĵ¾": 1628,
      "æĺ¯ä¸Ģç§į": 1629,
      "åĲ¯åĬ¨": 1630,
      "ç»ıåħ¸": 1631,
      "çĽ®æłĩä½ľä¸º": 1632,
      "éĻįä½İ": 1633,
      "ä¿Ŀè¯ģç»ĵæŀľåı¯å¤įçİ°": 1634,
      "æľĢåĲİä¸Ģä½į": 1635,
      "åģľæŃ¢è¯į": 1636,
      "è½»å¾®éĩįå¤įæĥ©ç½": 1637,
      "æľįåĬ¡åĻ¨": 1638,
      "å¯ĨéĽĨåŀĭä»»åĬ¡": 1639,
      "èĬĤçĤ¹": 1640,
      "CSRF": 1641,
      "Dropou": 1642,
      "cript": 1643,
      "feature": 1644,
      "view": 1645,
      "«éĢĲæŃ¥éĻįä½İ": 1646,
      "æĤ²è§ĤéĶģ": 1647,
      "æ¨¡æĿ¿": 1648,
      "æ¿Ģæ´»åĩ½æķ°": 1649,
      "Ġforcing": 1650,
      "Ķæ¡Īéĥ¨åĪĨè®¡ç®ĹæįŁå¤±": 1651,
      "ļä¸İåģľæŃ¢è¯į": 1652,
      "Łå®ŀçĽ®æłĩä½ľä¸º": 1653,
      "ä¸īæ¬¡": 1654,
      "æķĻåŃ¦æ¼Ķç¤ºä¸İåıĤæķ°": 1655,
      "çļĦåŃ¦ä¹łçİĩä¸İè°ĥåº¦": 1656,
      "åĨ²çªģ": 1657,
      "çĶ¨å°ıæ¨¡åŀĭä¸İçŁŃ": 1658,
      "çĶ¨çľŁå®ŀçĽ®æłĩä½ľä¸º": 1659,
      "ä»Ģä¹Īæĺ¯teacher": 1660,
      "æĽ´æį¢æķ°æį®æĪĸè¯į": 1661,
      "æ³¨æĦıåĬĽå¤įæĿĤåº¦è¿ĳä¼¼å¹³": 1662,
      "ä¸ĭä¸ĢæŃ¥è¾ĵåħ¥": 1663,
      "ä¸İæķĪçİĩæıĲåįĩ": 1664,
      "åĬłåħ¥è½»å¾®éĩįå¤įæĥ©ç½": 1665,
      "è¶Ĭä½İè¶Ĭç¡®": 1666,
      "è¶Ĭåıĳæķ£": 1667,
      "æĸ¹å¢ŀéķ¿": 1668,
      "æĸ¹ä¾¿æķĻåŃ¦æ¼Ķç¤ºä¸İåıĤæķ°": 1669,
      "è®Ńç»ĥç¨³å®ļä¸İæķĪçİĩæıĲåįĩ": 1670,
      "è®Ńç»ĥä¸Ńå¦Ĥä½ķä½¿çĶ¨": 1671,
      "è®Ńç»ĥæĺ¯åĲ¦æĶ¶æķĽ": 1672,
      "è®Ńç»ĥçļĦå°ıæĬĢå·§": 1673,
      "å¦Ĥä½ķéªĮè¯ģè®Ńç»ĥæĺ¯åĲ¦æĶ¶æķĽ": 1674,
      "å¦Ĥä½ķè®¾ç½®åĲĪéĢĤ": 1675,
      "å¦Ĥä½ķæıĲé«ĺå°ıæ¨¡åŀĭçļĦè¯¾åłĤæ¼Ķç¤º": 1676,
      "å¦Ĥä½ķéģ¿åħįéĩįå¤įçĶŁæĪĲæłĩçĤ¹": 1677,
      "åħĪå°ıåĲİå¤§è¿Ľè¡Į": 1678,
      "æľīåĬ©äºİè®Ńç»ĥç¨³å®ļä¸İæķĪçİĩæıĲåįĩ": 1679,
      "ç®Ģè¦ģè§£éĩĬæ³¨æĦıåĬĽæľºåĪ¶çļĦä½ľçĶ¨": 1680,
      "èĥ½æıĲé«ĺæķĪçİĩ": 1681,
      "ä¸ºä»Ģä¹Īåħ±äº«åµĮåħ¥ä¸İè¾ĵåĩºå±ĤæĿĥéĩį": 1682,
      "ä¸ºä»Ģä¹ĪåºıåĪĹéķ¿åº¦è¿ĩå¤§ä¼ļåıĺæħ¢": 1683,
      "çŃĸçķ¥": 1684,
      "ä¾Ŀèµĸ": 1685,
      "åľ¨è®Ńç»ĥæĹ¶çĶ¨çľŁå®ŀçĽ®æłĩä½ľä¸º": 1686,
      "ä½İæ¸©ç¨³å®ļè¾ĵåĩº": 1687,
      "è¡¨ä¸įæĶ¹ä»£çłģ": 1688,
      "åĨįçĶ¨ä½Ļå¼¦éĢĢçģ": 1689,
      "åŃ¦ä¹łçİĩæİ§åĪ¶æĽ´æĸ°æŃ¥éķ¿": 1690,
      "ä¾¿äºİå¿«éĢŁå®ŀéªĮä¸İè¯¾åłĤæ¼Ķç¤º": 1691,
      "éĽĨçļĦä¸»è§Ĥæ£ĢæŁ¥": 1692,
      "åºıåĪĹè¶Ĭéķ¿è®¡ç®Ĺè¶Ĭéĩį": 1693,
      "åĽºå®ļç§įåŃĲå¹¶å®ļæľŁè¯Ħä¼°": 1694,
      "èµĦæºĲ": 1695,
      "åıªå¯¹çŃĶæ¡Īéĥ¨åĪĨè®¡ç®ĹæįŁå¤±": 1696,
      "åħ±äº«æĿĥéĩįåĩıå°ĳåıĤæķ°å¹¶ä¿ĿæĮģ": 1697,
      "è¯¾åłĤæ¼Ķç¤ºå»ºè®®ä½İæ¸©ç¨³å®ļè¾ĵåĩº": 1698,
      "äºĮåıīæĲľç´¢æłĳ": 1699,
      "è§Ĥå¯Łè®Ńç»ĥä¸İéªĮè¯ģæįŁå¤±å¹¶åģļåĽºå®ļæıĲç¤ºè¯į": 1700,
      "ç»ĻåĩºCPUä¸Ĭè®Ńç»ĥçļĦå°ıæĬĢå·§": 1701,
      "ä¸İè¾ĵåĩºæ¸ħçĲĨ": 1702,
      "åĩĨå¤ĩé«ĺè´¨éĩıå°ıæķ°æį®": 1703,
      "ä¸ºä»Ģä¹Īè¦ģåĽºå®ļéļıæľºç§įåŃĲ": 1704,
      "åıĤæķ°å¹¶åĬłç®ĢåįķåĲİå¤ĦçĲĨ": 1705,
      "å¹¶åģļé¦ĸæłĩçĤ¹åĽŀéĢĢ": 1706,
      "æ¸©åº¦å¯¹çĶŁæĪĲæľīä»Ģä¹Īå½±åĵį": 1707,
      "æ¸©åº¦è¶Ĭé«ĺè¶Ĭåıĳæķ£": 1708,
      "éĢīæĭ©ç¨³å®ļæİ¨çĲĨåıĤæķ°å¹¶åĬłç®ĢåįķåĲİå¤ĦçĲĨ": 1709,
      "æķ°æį®ä¸İåĪĨè¯įä¸ºä»Ģä¹Īè¦ģè§£èĢ¦": 1710,
      "Dropout": 1711,
      "çĶ¨å°ıæ¨¡åŀĭä¸İçŁŃåºıåĪĹ": 1712,
      "æĽ´æį¢æķ°æį®æĪĸè¯įè¡¨ä¸įæĶ¹ä»£çłģ": 1713,
      "æ³¨æĦıåĬĽå¤įæĿĤåº¦è¿ĳä¼¼å¹³æĸ¹å¢ŀéķ¿": 1714,
      "åĬłåħ¥è½»å¾®éĩįå¤įæĥ©ç½ļä¸İåģľæŃ¢è¯į": 1715,
      "è¶Ĭä½İè¶Ĭç¡®å®ļ": 1716,
      "æĸ¹ä¾¿æķĻåŃ¦æ¼Ķç¤ºä¸İåıĤæķ°å¯¹æ¯Ķ": 1717,
      "å¦Ĥä½ķè®¾ç½®åĲĪéĢĤçļĦåŃ¦ä¹łçİĩä¸İè°ĥåº¦": 1718,
      "å¦Ĥä½ķæıĲé«ĺå°ıæ¨¡åŀĭçļĦè¯¾åłĤæ¼Ķç¤ºè´¨éĩı": 1719,
      "å¦Ĥä½ķéģ¿åħįéĩįå¤įçĶŁæĪĲæłĩçĤ¹æĪĸè¯į": 1720,
      "åħĪå°ıåĲİå¤§è¿Ľè¡Įé¢ĦçĥŃ": 1721,
      "ä¸ºä»Ģä¹Īåħ±äº«åµĮåħ¥ä¸İè¾ĵåĩºå±ĤæĿĥéĩįèĥ½æıĲé«ĺæķĪçİĩ": 1722,
      "åľ¨è®Ńç»ĥæĹ¶çĶ¨çľŁå®ŀçĽ®æłĩä½ľä¸ºä¸ĭä¸ĢæŃ¥è¾ĵåħ¥": 1723,
      "åĨįçĶ¨ä½Ļå¼¦éĢĢçģ«éĢĲæŃ¥éĻįä½İ": 1724,
      "åħ±äº«æĿĥéĩįåĩıå°ĳåıĤæķ°å¹¶ä¿ĿæĮģè¡¨ç¤ºä¸Ģèĩ´æĢ§": 1725,
      "è§Ĥå¯Łè®Ńç»ĥä¸İéªĮè¯ģæįŁå¤±å¹¶åģļåĽºå®ļæıĲç¤ºè¯įéĽĨçļĦä¸»è§Ĥæ£ĢæŁ¥": 1726,
      "å¹¶åģļé¦ĸæłĩçĤ¹åĽŀéĢĢä¸İè¾ĵåĩºæ¸ħçĲĨ": 1727,
      "!=": 1728,
      "':": 1729,
      ")ÃĹ": 1730,
      "12": 1731,
      "AS": 1732,
      "Ava": 1733,
      "BAS": 1734,
      "CA": 1735,
      "Co": 1736,
      "DE": 1737,
      "Dock": 1738,
      "EST": 1739,
      "Flo": 1740,
      "GI": 1741,
      "Hub": 1742,
      "LET": 1743,
      "LID": 1744,
      "PU": 1745,
      "Po": 1746,
      "Pr": 1747,
      "Re": 1748,
      "REST": 1749,
      "SY": 1750,
      "Th": 1751,
      "Writ": 1752,
      "XSS": 1753,
      "ab": 1754,
      "ad": 1755,
      "cor": 1756,
      "dic": 1757,
      "em": 1758,
      "ep": 1759,
      "et": 1760,
      "ft": 1761,
      "il": 1762,
      "kä»": 1763,
      "kä¸İ": 1764,
      "kä¸ª": 1765,
      "ld": 1766,
      "ok": 1767,
      "ol": 1768,
      "pä¿ĿçķĻ": 1769,
      "péĩĩ": 1770,
      "queue": 1771,
      "se": 1772,
      "ss": 1773,
      "script": 1774,
      "tion": 1775,
      "yer": 1776,
      "yie": 1777,
      "¢«": 1778,
      "¥æ": 1779,
      "¥åįı": 1780,
      "¦¥åįı": 1781,
      "¨ç«Ļ": 1782,
      "ªçİ¯": 1783,
      "¬¡æ": 1784,
      "¯ä¸Ģ": 1785,
      "°åĿ": 1786,
      "´æĺİ": 1787,
      "¶Ī": 1788,
      "º«": 1789,
      "»å½ķ": 1790,
      "¼Ģ": 1791,
      "¼é¡": 1792,
      "½åĿĩ": 1793,
      "¾éĢŁåº¦": 1794,
      "¾åĽŀæĶ¶": 1795,
      "¿æį¢": 1796,
      "¿è¿ĺ": 1797,
      "¿åº¦ä¼ĺåħĪæĲľç´¢": 1798,
      "Ã·": 1799,
      "âī": 1800,
      "åĶ": 1801,
      "åŀ": 1802,
      "å¦¥åįı": 1803,
      "æģ¯": 1804,
      "æ¬¡æ": 1805,
      "æ¶Ī": 1806,
      "ç¥": 1807,
      "è¢«": 1808,
      "èº«": 1809,
      "é£": 1810,
      "Ġ/": 1811,
      "Ġ2": 1812,
      "Ġ4": 1813,
      "ĠâĢ": 1814,
      "ĠFlo": 1815,
      "Ģå°ı": 1816,
      "Ģæ³ķ": 1817,
      "ĥåľ": 1818,
      "ħåĨ": 1819,
      "ħè¦ģ": 1820,
      "ħä¿ĿçķĻ": 1821,
      "ĩè®¾": 1822,
      "ĩè®Ńç»ĥä¸İ": 1823,
      "ĪĲ": 1824,
      "ĪåĻ¨": 1825,
      "ĪåĢ¼": 1826,
      "ĭè½¬": 1827,
      "ĭéĹ´": 1828,
      "Įåħ¨": 1829,
      "Į¥æ": 1830,
      "ıè§": 1831,
      "Ĳè¡Į": 1832,
      "ķè¿ĩ": 1833,
      "Ĺéķ¿": 1834,
      "ĹéĻĲ": 1835,
      "Ĺĭè½¬": 1836,
      "Ļ»å½ķ": 1837,
      "Ľ¿æį¢": 1838,
      "Ľæ¬¡æ": 1839,
      "ĿĹ": 1840,
      "Ŀæĥ³": 1841,
      "ŁåĲĪ": 1842,
      "Łè½": 1843,
      "łĪ": 1844,
      "ä¸²": 1845,
      "çĶ¨æĽ´": 1846,
      "çĶ¨æĺ¯": 1847,
      "çĶ¨æĹĭè½¬": 1848,
      "çĶ¨æłĪ": 1849,
      "çĶ¨æĪ·è®¿éĹ®": 1850,
      "åı£": 1851,
      "åıĹéĻĲ": 1852,
      "åĪĴ": 1853,
      "ä»·": 1854,
      "ä»ĺ": 1855,
      "åħ¬": 1856,
      "åħ·": 1857,
      "åħ¼é¡": 1858,
      "éĢł": 1859,
      "è®¤": 1860,
      "ä¹°": 1861,
      "ä¹ħ": 1862,
      "ä¹ĭéĹ´": 1863,
      "æĺ¯ä»Ģä¹Ī": 1864,
      "æĺ¯ä¸ºäºĨ": 1865,
      "æĺ¯è·": 1866,
      "æĺ¯å®¹åĻ¨": 1867,
      "è¯Ĩ": 1868,
      "è¯´æĺİ": 1869,
      "įç¼Ģ": 1870,
      "ä¹Īåħ¨": 1871,
      "æ³¨æĦı": 1872,
      "çļĦæ¢¯åº¦": 1873,
      "çļĦä»£çłģ": 1874,
      "çļĦæıĲç¤ºè¯į": 1875,
      "çļĦéĢŁåº¦": 1876,
      "çļĦéĽĨåĲĪ": 1877,
      "çļĦæł¸å¿ĥ": 1878,
      "çļĦkä¸ª": 1879,
      "çļĦå¦¥åįı": 1880,
      "è¿Ĳè¡Į": 1881,
      "æľª": 1882,
      "åĨĹéķ¿": 1883,
      "ç»ľ": 1884,
      "ç»Ń": 1885,
      "ç»ĩè®Ńç»ĥä¸İ": 1886,
      "ç»ķè¿ĩ": 1887,
      "è§ģ": 1888,
      "éĢļå°": 1889,
      "æķ°éĩı": 1890,
      "æķ°åģļ": 1891,
      "æķ°ç»Ħ": 1892,
      "äº§": 1893,
      "äºº": 1894,
      "Ľ´æĸ°": 1895,
      "Ľ´ç»Ļ": 1896,
      "ä»Ģä¹Īæĺ¯TCP": 1897,
      "ä»Ģä¹Īæĺ¯æ¢¯åº¦è£ģåīª": 1898,
      "æĽ´ç®Ģåįķ": 1899,
      "åŃĲæłĳ": 1900,
      "å®¡æ": 1901,
      "å®Įåħ¨": 1902,
      "ï¼īï¼Į": 1903,
      "åħ³éĹŃ": 1904,
      "æĬ¤": 1905,
      "è®¡æ¦Ĥçİĩ": 1906,
      "ä¸ĭå¢ŀ": 1907,
      "éĢļä¿ĹçļĦæıĲç¤ºè¯į": 1908,
      "ıæ¬¡": 1909,
      "ä¸İæĶ¶æķĽ": 1910,
      "ä¸İLa": 1911,
      "ä¸İè¶ħ": 1912,
      "æĬĬçº¿æĢ§": 1913,
      "çĲĨè®º": 1914,
      "åĩıæŃ¥": 1915,
      "å®ļä½į": 1916,
      "å®ļä¹ī": 1917,
      "ä¸ºä½İ": 1918,
      "æĿ¥": 1919,
      "è®¡ç®Ĺæľº": 1920,
      "è®¡ç®Ĺå¼Ģ": 1921,
      "åıĤçĶ±": 1922,
      "åĪĨè§£": 1923,
      "åĪĨä¸º": 1924,
      "åĪĨåĮº": 1925,
      "åĪĨç±»": 1926,
      "è¦ģç´ł": 1927,
      "è¦ģä¹Īåħ¨": 1928,
      "åĮħ": 1929,
      "è´Łè½": 1930,
      "åĽ¾": 1931,
      "åĽĽæ¬¡æ": 1932,
      "ä¸Ģç®¡çĲĨ": 1933,
      "æ¯ıæ¬¡": 1934,
      "æĢĿæĥ³": 1935,
      "åĪĹè¡¨": 1936,
      "å¤§äºİ": 1937,
      "å¤§éĹ®é¢ĺ": 1938,
      "å¤§æľīæķĪ": 1939,
      "ç³»ç»Ł": 1940,
      "åı¯èĥ½": 1941,
      "è¶Ĭå°ı": 1942,
      "è¿ĩå¤ļ": 1943,
      "è¿ĩæĭ": 1944,
      "æĸ¹å¼ı": 1945,
      "å¿µ": 1946,
      "å¿ħè¦ģ": 1947,
      "æı¡æ": 1948,
      "è®Ńç»ĥéĹ®é¢ĺ": 1949,
      "å¦Ĥä½ķç»Ħ": 1950,
      "å¦Ĥä½ķè®¾è®¡": 1951,
      "å¦Ĥä½ķæİ§åĪ¶è®Ńç»ĥæŃ¥": 1952,
      "å¦Ĥä½ķåĪ¤æĸŃ": 1953,
      "åħĪåĩº": 1954,
      "ä½įç½®ç¼ĸçłģçļĦæł¸å¿ĥ": 1955,
      "éĩıå½Ĵä¸ĢåĮĸ": 1956,
      "æľīåºı": 1957,
      "æľīä¸¤ä¸ª": 1958,
      "è¯¾åłĤä¸Ńå¦Ĥä½ķ": 1959,
      "å¾ħ": 1960,
      "å¾ªçİ¯": 1961,
      "ers": 1962,
      "èĥ½è¢«": 1963,
      "å¹¿åº¦ä¼ĺåħĪæĲľç´¢": 1964,
      "éĶĢå°ı": 1965,
      "ç§įç": 1966,
      "çĽĺ": 1967,
      "éĢĤçĶ¨äºİ": 1968,
      "å°ıéĹ®é¢ĺ": 1969,
      "ä¸ºä»Ģä¹Īæ¢¯åº¦": 1970,
      "è¿ĽåħĪåĩº": 1971,
      "äºİäºĮè¿ĽåĪ¶": 1972,
      "åıĤæķ°æĽ´æĸ°": 1973,
      "æ¯Ķçī¹": 1974,
      "çĲĨè§£èĢ¦": 1975,
      "ä¸Ńåºı": 1976,
      "ä½ľçĶ¨": 1977,
      "NormçļĦåĮºåĪ«": 1978,
      "åľ°åĿ": 1979,
      "é«ĺçļĦkä¸ª": 1980,
      "ä¿ĿæĬ¤": 1981,
      "éĥ¨æ": 1982,
      "æľĢå¤§": 1983,
      "æľĢçŁŃ": 1984,
      "æľĢç»Ī": 1985,
      "æľĢé«ĺçļĦkä¸ª": 1986,
      "éĢĤåĲĪCPU": 1987,
      "çŃĶç": 1988,
      "å¹¶æİĴåºı": 1989,
      "RoPEçĶ¨æĹĭè½¬": 1990,
      "RMSNormä¸İLa": 1991,
      "åĪ°çĶŁ": 1992,
      "åĪ°è¾¾": 1993,
      "å·±": 1994,
      "å·²": 1995,
      "åģ¿è¿ĺ": 1996,
      "åģĩè®¾": 1997,
      "åĿı": 1998,
      "éĺ¶": 1999,
      "éĺĪåĢ¼": 2000,
      "å¤įåĪ¶": 2001,
      "åľ¨åĩ½æķ°": 2002,
      "åľ¨åıĹéĻĲ": 2003,
      "æĮī": 2004,
      "åĨħéĥ¨": 2005,
      "è¡¨è¾¾": 2006,
      "CPUå¯ĨéĽĨåŀĭä»»åĬ¡": 2007,
      "åĽŀæº": 2008,
      "åĽŀçŃĶç": 2009,
      "éĹ®é¢ĺçļĦ": 2010,
      "éĹ®é¢ĺæ¸ħ": 2011,
      "¢¯åº¦è£ģåīª": 2012,
      "åĨįæŁ¥": 2013,
      "åĨįè®¿éĹ®": 2014,
      "æİ¨çĲĨè§£èĢ¦": 2015,
      "ä¼ĺçĤ¹": 2016,
      "ç»ĵæŀĦæĽ´ç®Ģåįķ": 2017,
      "æ¢¯åº¦å¤§å°ı": 2018,
      "æ¢¯åº¦çĪĨçĤ¸": 2019,
      "æıĲåįĩç¨³å®ļæĢ§": 2020,
      "åĨħåŃĺä¸ĭå¢ŀ": 2021,
      "ency": 2022,
      "ä¸įåĩı": 2023,
      "ä¸įéĢļå°": 2024,
      "ä¼ļçĪĨçĤ¸": 2025,
      "èĩªå·±": 2026,
      "æİ¨çĲĨæĽ´å¿«": 2027,
      "æİ¨çĲĨçļĦä»£çłģ": 2028,
      "æµıè§": 2029,
      "è½¯": 2030,
      "çļĦä½ľçĶ¨æĺ¯": 2031,
      "æİĴåĪĹ": 2032,
      "çŃīå¾ħ": 2033,
      "çŃīäºİäºĮè¿ĽåĪ¶": 2034,
      "åīįç¼Ģ": 2035,
      "åŃ¦ä¹łçİĩæľīä»Ģä¹Ī": 2036,
      "æİ¥åı£": 2037,
      "æįŁå¤±è¶Ĭå°ı": 2038,
      "çĽ¸å¯¹ä½įç½®ç¼ĸçłģçļĦæł¸å¿ĥ": 2039,
      "æĹ¶åĩıæŃ¥": 2040,
      "ä»£çłģæıĲäº¤": 2041,
      "ä»£çłģå®¡æ": 2042,
      "åĬ¨æĢģè§Ħ": 2043,
      "éĽĨæĪĲ": 2044,
      "å¤ļçº¿ç¨ĭ": 2045,
      "æĸĩæľ¬": 2046,
      "æł·æľīä»Ģä¹Ī": 2047,
      "åįłçĶ¨æĽ´": 2048,
      "start": 2049,
      "åĨ³å®ļåıĤæķ°æĽ´æĸ°": 2050,
      "è§£éĩĬRoPEçĽ¸å¯¹ä½įç½®ç¼ĸçłģçļĦæł¸å¿ĥ": 2051,
      "åħĪçľĭæķ°æį®ä¸İ": 2052,
      "åİĭç¼©": 2053,
      "å½Ĵå¹¶æİĴåºı": 2054,
      "åĬ¨æĢģéĩıåĮĸæľīä»Ģä¹Ī": 2055,
      "RMSNormçĶ¨åĿĩæĸ¹æł¹ç¼©æĶ¾": 2056,
      "ä¿ĿçķĻä½įåºıåħ³ç³»ä¸Ķè®¡ç®Ĺå¼Ģ": 2057,
      "ator": 2058,
      "ation": 2059,
      "review": 2060,
      "read": 2061,
      "ç®Ĺæ³ķè¦ģ": 2062,
      "å¼ĢæĶ¾": 2063,
      "å¿«éĢŁéªĮè¯ģ": 2064,
      "å¿«éĢŁæİĴåºı": 2065,
      "å¿«éĢŁå®ļä½į": 2066,
      "è°ĥæķ´": 2067,
      "Pythonä¸Ńå¦Ĥä½ķ": 2068,
      "å±ķ": 2069,
      "æ±Ĥè§£": 2070,
      "æ±ĤåĴĮ": 2071,
      "éĢĢåĮĸ": 2072,
      "æİĴåºıç®Ĺæ³ķ": 2073,
      "åĢ¼è¿ĩå¤§": 2074,
      "çĶŁæĪĲåĻ¨": 2075,
      "sion": 2076,
      "æĥħåĨ": 2077,
      "ç¡®æĢ§": 2078,
      "ç¡®è®¤": 2079,
      "äº¤ä»ĺ": 2080,
      "ä¸Ģä¸ªéĢļä¿ĹçļĦæıĲç¤ºè¯į": 2081,
      "ç´¯è®¡æ¦Ĥçİĩ": 2082,
      "5050": 2083,
      "decor": 2084,
      "çī¹æĢ§": 2085,
      "å°Ĩå¤§éĹ®é¢ĺ": 2086,
      "é¢Ħæµĭ": 2087,
      "ä½¿çĶ¨æ¢¯åº¦è£ģåīª": 2088,
      "æĮģä¹ħ": 2089,
      "æĮģç»Ń": 2090,
      "éĢīæĭ©æ": 2091,
      "ç±»åŀĭ": 2092,
      "äºĮè¿ĽåĪ¶è½¬": 2093,
      "è¿ŀæİ¥éľĢè¦ģ": 2094,
      "ç´¯ç§¯çļĦæ¢¯åº¦": 2095,
      "API": 2096,
      "æ®Ĭ": 2097,
      "æ¨¡åĿĹ": 2098,
      "æ¦Ĥå¿µ": 2099,
      "ä¸»è¦ģ": 2100,
      "ä»»æĦı": 2101,
      "è¿ĺæľī": 2102,
      "åĲĳéĩı": 2103,
      "æŀĦå»º": 2104,
      "éĹ´å¤įæĿĤåº¦": 2105,
      "è¾¾éĺĪåĢ¼": 2106,
      "éħįç½®ç»Ł": 2107,
      "ä¼ĺåħĪçº§": 2108,
      "æ·±åº¦ä¼ĺåħĪæĲľç´¢": 2109,
      "è®¾è®¡æ¨¡å¼ı": 2110,
      "éĤ»æİ¥": 2111,
      "éģ¿åħįåĨĹéķ¿": 2112,
      "GitHub": 2113,
      "SQLæ³¨åħ¥": 2114,
      "oces": 2115,
      "æķ´éĻ¤": 2116,
      "åįıè®®": 2117,
      "æīĢæľīèĬĤçĤ¹": 2118,
      "åĿĩåĢ¼": 2119,
      "æĹłçĬ¶æĢģ": 2120,
      "ä¼ĺåĮĸåĻ¨": 2121,
      "ä¼ĺåĮĸåĻ¨æ": 2122,
      "æ¢¯åº¦ç´¯ç§¯çļĦä½ľçĶ¨æĺ¯": 2123,
      "åŃ¦ä¹łçİĩä¸İæī¹å¤§å°ı": 2124,
      "å¸¸è§ģ": 2125,
      "ingæ¨¡åĿĹ": 2126,
      "å±ĤæĿĥéĩįåİĭç¼©": 2127,
      "è£ħæĪĲ": 2128,
      "æľįåĬ¡åıĳçİ°": 2129,
      "...": 2130,
      "FIN": 2131,
      "FIFO": 2132,
      "ally": 2133,
      "users": 2134,
      "âĢľ": 2135,
      "æĻ°": 2136,
      "éĩĩçĶ¨": 2137,
      "åįģè¿ĽåĪ¶çļĦ": 2138,
      "åĻ¨æĺ¯": 2139,
      "æ¢¯åº¦è£ģåīªéĻĲåĪ¶": 2140,
      "ç½ĳç«Ļ": 2141,
      "ç½ĳç»ľ": 2142,
      "åħ¨å±ĢæľĢä¼ĺ": 2143,
      "èµ°ä¸įéĢļå°": 2144,
      "è°ĥçĶ¨èĩªå·±": 2145,
      "éĥ½æĺ¯O": 2146,
      "æĬĢæľ¯åĢº": 2147,
      "æ¦ĤçİĩæľĢé«ĺçļĦkä¸ª": 2148,
      "æł¸å¿ĥæ¦Ĥå¿µ": 2149,
      "ServeråĽŀå¤į": 2150,
      "è·¯å¾Ħä¸İè¶ħ": 2151,
      "çĭ¬ç«ĭå¼Ģåıĳ": 2152,
      "åŁºä¾ĭ": 2153,
      "åĪĨå¸ĥå¼ıäºĭåĬ¡": 2154,
      "åĵĪå¸Įè¡¨": 2155,
      "Consist": 2156,
      "SOLID": 2157,
      "func": 2158,
      "æ»¡": 2159,
      "çĦ¶": 2160,
      "è¯Ńæ³ķ": 2161,
      "çļĦæķ°æį®ç»ĵæŀĦ": 2162,
      "å°ģè£ħæĪĲ": 2163,
      "å¯¼èĩ´": 2164,
      "æł¼å¼ı": 2165,
      "è´ªå¿ĥç®Ĺæ³ķ": 2166,
      "åĽłä¸º": 2167,
      "åı¯åıĺçļĦ": 2168,
      "å¦Ĥä½ķéĺ²æŃ¢æ¢¯åº¦çĪĨçĤ¸": 2169,
      "éĶĻè¯¯": 2170,
      "åŃĺåĤ¨": 2171,
      "æī©å±ķ": 2172,
      "ä¸įæĺ¯è´¨æķ°": 2173,
      "æİ¥æĶ¶ä»»æĦı": 2174,
      "æ®ĭå·®è¿ŀæİ¥": 2175,
      "åıĮæĸ¹éĥ½": 2176,
      "è£ħé¥°åĻ¨": 2177,
      "éĵ¾è¡¨": 2178,
      "ç»ıåħ¸éĹ®é¢ĺ": 2179,
      "æľĢåĲİä¸Ģä½įæĺ¯": 2180,
      "ä¸īæ¬¡æı¡æ": 2181,
      "123": 2182,
      "Avail": 2183,
      "BASE": 2184,
      "DELET": 2185,
      "Docker": 2186,
      "GIL": 2187,
      "PUT": 2188,
      "SYN": 2189,
      "Write": 2190,
      "dict": 2191,
      "kä»ħä¿ĿçķĻ": 2192,
      "kä¸İtop": 2193,
      "pä¿ĿçķĻç´¯è®¡æ¦Ĥçİĩ": 2194,
      "péĩĩæł·æľīä»Ģä¹Ī": 2195,
      "yerNormçļĦåĮºåĪ«": 2196,
      "yield": 2197,
      "½åĿĩè¡¡": 2198,
      "¾éĢŁåº¦ä¸İæĶ¶æķĽ": 2199,
      "åĶ¯ä¸Ģ": 2200,
      "åŀĥåľ": 2201,
      "æģ¯éĺŁåĪĹ": 2202,
      "æ¶Īæģ¯éĺŁåĪĹ": 2203,
      "ĠâĢĿ": 2204,
      "ĠFlow": 2205,
      "Į¥æīĭ": 2206,
      "åħ¼é¡¾éĢŁåº¦ä¸İæĶ¶æķĽ": 2207,
      "æĺ¯è·¨ç«Ļ": 2208,
      "è¯´æĺİRMSNormä¸İLa": 2209,
      "ç»ĩè®Ńç»ĥä¸İæİ¨çĲĨçļĦä»£çłģ": 2210,
      "æķ°éĩıçļĦ": 2211,
      "æķ°åģļå¿«éĢŁéªĮè¯ģ": 2212,
      "åŃĲæłĳæīĢæľīèĬĤçĤ¹": 2213,
      "å®Įåħ¨äºĮåıīæłĳ": 2214,
      "æĬĬçº¿æĢ§å±ĤæĿĥéĩįåİĭç¼©": 2215,
      "ä¸ºä½İæ¯Ķçī¹": 2216,
      "åıĤçĶ±éħįç½®ç»Ł": 2217,
      "è´Łè½½åĿĩè¡¡": 2218,
      "åĽĽæ¬¡æĮ¥æīĭ": 2219,
      "å¤§æľīæķĪæī¹å¤§å°ı": 2220,
      "åı¯èĥ½çļĦ": 2221,
      "è¿ĩæĭŁåĲĪ": 2222,
      "æĸ¹å¼ıæĬĬçĽ¸å¯¹ä½įç½®ä¿¡æģ¯æ³¨åħ¥æ³¨æĦıåĬĽ": 2223,
      "å¿ħè¦ģæĹ¶åĩıæŃ¥": 2224,
      "å¦Ĥä½ķç»Ħç»ĩè®Ńç»ĥä¸İæİ¨çĲĨçļĦä»£çłģ": 2225,
      "å¦Ĥä½ķè®¾è®¡ä¸Ģä¸ªéĢļä¿ĹçļĦæıĲç¤ºè¯į": 2226,
      "å¦Ĥä½ķæİ§åĪ¶è®Ńç»ĥæŃ¥éķ¿": 2227,
      "è¯¾åłĤä¸Ńå¦Ĥä½ķå¿«éĢŁå®ļä½į": 2228,
      "ä¸ºä»Ģä¹Īæ¢¯åº¦ä¼ļçĪĨçĤ¸": 2229,
      "åľ°åĿĢæ³ķ": 2230,
      "æľĢçŁŃè·¯å¾Ħ": 2231,
      "æľĢç»Īä¸Ģèĩ´æĢ§": 2232,
      "éĢĤåĲĪCPUæ¼Ķç¤º": 2233,
      "RoPEçĶ¨æĹĭè½¬æĸ¹å¼ıæĬĬçĽ¸å¯¹ä½įç½®ä¿¡æģ¯æ³¨åħ¥æ³¨æĦıåĬĽ": 2234,
      "åĪ°çĶŁäº§": 2235,
      "åģĩè®¾åĨ²çªģ": 2236,
      "åľ¨åıĹéĻĲåĨħåŃĺä¸ĭå¢ŀ": 2237,
      "åĽŀæº¯": 2238,
      "åĽŀçŃĶçĽ´ç»Ļ": 2239,
      "éĹ®é¢ĺæ¸ħæĻ°": 2240,
      "åĨįæŁ¥åŃ¦ä¹łçİĩä¸İæī¹å¤§å°ı": 2241,
      "ä¸įåĩıåĿĩåĢ¼": 2242,
      "æµıè§ĪåĻ¨": 2243,
      "çŃīäºİäºĮè¿ĽåĪ¶çļĦ": 2244,
      "åŃ¦ä¹łçİĩæľīä»Ģä¹Īä½ľçĶ¨": 2245,
      "ä»£çłģå®¡æŁ¥": 2246,
      "åĬ¨æĢģè§ĦåĪĴ": 2247,
      "åįłçĶ¨æĽ´å°ı": 2248,
      "åĨ³å®ļåıĤæķ°æĽ´æĸ°çļĦéĢŁåº¦": 2249,
      "è§£éĩĬRoPEçĽ¸å¯¹ä½įç½®ç¼ĸçłģçļĦæł¸å¿ĥæĢĿæĥ³": 2250,
      "åħĪçľĭæķ°æį®ä¸İéħįç½®": 2251,
      "åĬ¨æĢģéĩıåĮĸæľīä»Ģä¹Īå¥½å¤Ħ": 2252,
      "ä¿ĿçķĻä½įåºıåħ³ç³»ä¸Ķè®¡ç®Ĺå¼ĢéĶĢå°ı": 2253,
      "è°ĥæķ´åŃ¦ä¹łçİĩ": 2254,
      "Pythonä¸Ńå¦Ĥä½ķå®ŀçİ°": 2255,
      "æĥħåĨµ": 2256,
      "decorator": 2257,
      "ç´¯ç§¯çļĦæ¢¯åº¦åĢ¼è¿ĩå¤§": 2258,
      "è¾¾éĺĪåĢ¼çļĦéĽĨåĲĪ": 2259,
      "éģ¿åħįåĨĹéķ¿åīįç¼Ģ": 2260,
      "ocess": 2261,
      "ä¼ĺåĮĸåĻ¨æĽ´æĸ°": 2262,
      "æ¢¯åº¦ç´¯ç§¯çļĦä½ľçĶ¨æĺ¯ä»Ģä¹Ī": 2263,
      "æ¢¯åº¦è£ģåīªéĻĲåĪ¶æ¢¯åº¦å¤§å°ı": 2264,
      "èµ°ä¸įéĢļå°±": 2265,
      "è·¯å¾Ħä¸İè¶ħåıĤçĶ±éħįç½®ç»Ł": 2266,
      "Consistency": 2267,
      "æİ¥æĶ¶ä»»æĦıæķ°éĩıçļĦ": 2268,
      "ä¸īæ¬¡æı¡æīĭ": 2269,
      "Availab": 2270,
      "DELETE": 2271,
      "kä»ħä¿ĿçķĻæ¦ĤçİĩæľĢé«ĺçļĦkä¸ª": 2272,
      "pä¿ĿçķĻç´¯è®¡æ¦Ĥçİĩè¾¾éĺĪåĢ¼çļĦéĽĨåĲĪ": 2273,
      "péĩĩæł·æľīä»Ģä¹ĪåĮºåĪ«": 2274,
      "åŀĥåľ¾åĽŀæĶ¶": 2275,
      "è¯´æĺİRMSNormä¸İLayerNormçļĦåĮºåĪ«": 2276,
      "æĬĬçº¿æĢ§å±ĤæĿĥéĩįåİĭç¼©ä¸ºä½İæ¯Ķçī¹": 2277,
      "å¿ħè¦ģæĹ¶åĩıæŃ¥æķ°åģļå¿«éĢŁéªĮè¯ģ": 2278,
      "å¦Ĥä½ķç»Ħç»ĩè®Ńç»ĥä¸İæİ¨çĲĨçļĦä»£çłģç»ĵæŀĦ": 2279,
      "å¦Ĥä½ķè®¾è®¡ä¸Ģä¸ªéĢļä¿ĹçļĦæıĲç¤ºè¯įæ¨¡æĿ¿": 2280,
      "è¯¾åłĤä¸Ńå¦Ĥä½ķå¿«éĢŁå®ļä½įè®Ńç»ĥéĹ®é¢ĺ": 2281,
      "åľ¨åıĹéĻĲåĨħåŃĺä¸ĭå¢ŀå¤§æľīæķĪæī¹å¤§å°ı": 2282,
      "è·¯å¾Ħä¸İè¶ħåıĤçĶ±éħįç½®ç»Łä¸Ģç®¡çĲĨ": 2283,
      "!ï¼Į": 2284,
      "\"(": 2285,
      "')": 2286,
      "'=": 2287,
      "('": 2288,
      "(*": 2289,
      "()ãĢĤ": 2290,
      ")ï¼Ī": 2291,
      ")!ï¼Į": 2292,
      "+...": 2293,
      ",'": 2294,
      ",**": 2295,
      "00": 2296,
      "04": 2297,
      "2â": 2298,
      "200": 2299,
      "49": 2300,
      "404": 2301,
      "51": 2302,
      "98": 2303,
      "99": 2304,
      ":*": 2305,
      "</": 2306,
      "={": 2307,
      ">ï¼Į": 2308,
      "AI": 2309,
      "AO": 2310,
      "AT": 2311,
      "Ac": 2312,
      "At": 2313,
      "Asi": 2314,
      "Be": 2315,
      "Bat": 2316,
      "BST": 2317,
      "CH": 2318,
      "Cach": 2319,
      "DB": 2320,
      "DP": 2321,
      "Di": 2322,
      "Du": 2323,
      "Dä¾Ŀèµĸ": 2324,
      "Dep": 2325,
      "Ev": 2326,
      "Eure": 2327,
      "FU": 2328,
      "GC": 2329,
      "Gen": 2330,
      "Ht": 2331,
      "HBa": 2332,
      "IM": 2333,
      "In": 2334,
      "Is": 2335,
      "IFO": 2336,
      "Iæİ¥åı£": 2337,
      "Ja": 2338,
      "Jen": 2339,
      "JSO": 2340,
      "Kr": 2341,
      "KéĹ®é¢ĺ": 2342,
      "Kar": 2343,
      "Kub": 2344,
      "LR": 2345,
      "LS": 2346,
      "Léĩ": 2347,
      "Lç¡®": 2348,
      "Lè¡¨ç¤º": 2349,
      "Lock": 2350,
      "LFU": 2351,
      "LIFO": 2352,
      "My": 2353,
      "Mem": 2354,
      "OP": 2355,
      "OR": 2356,
      "On": 2357,
      "Oå¼Ģ": 2358,
      "Oå¯ĨéĽĨåŀĭ": 2359,
      "Oå¯ĨéĽĨåŀĭä»»åĬ¡": 2360,
      "PR": 2361,
      "Pre": 2362,
      "Pip": 2363,
      "Part": 2364,
      "PAT": 2365,
      "Queue": 2366,
      "RDB": 2367,
      "RLè¡¨ç¤º": 2368,
      "Se": 2369,
      "So": 2370,
      "St": 2371,
      "Såįķ": 2372,
      "Script": 2373,
      "Tr": 2374,
      "Tok": 2375,
      "TçŃīå¾ħ": 2376,
      "TIM": 2377,
      "TLS": 2378,
      "TOP": 2379,
      "URLè¡¨ç¤º": 2380,
      "WAI": 2381,
      "[]": 2382,
      "anc": 2383,
      "ase": 2384,
      "bu": 2385,
      "cu": 2386,
      "con": 2387,
      "cach": 2388,
      "cally": 2389,
      "do": 2390,
      "el": 2391,
      "ex": 2392,
      "eéĢļä¿¡": 2393,
      "fi": 2394,
      "fer": 2395,
      "ftup": 2396,
      "ge": 2397,
      "gh": 2398,
      "gre": 2399,
      "ho": 2400,
      "hin": 2401,
      "im": 2402,
      "ili": 2403,
      "jk": 2404,
      "jo": 2405,
      "ka": 2406,
      "kin": 2407,
      "kal": 2408,
      "lt": 2409,
      "mu": 2410,
      "ment": 2411,
      "mic": 2412,
      "nk": 2413,
      "nä¸º": 2414,
      "net": 2415,
      "nex": 2416,
      "omic": 2417,
      "pop": 2418,
      "par": 2419,
      "pus": 2420,
      "pOn": 2421,
      "rou": 2422,
      "rocess": 2423,
      "sed": 2424,
      "ses": 2425,
      "sub": 2426,
      "sæĺ¯å®¹åĻ¨": 2427,
      "ty": 2428,
      "tent": 2429,
      "targ": 2430,
      "tol": 2431,
      "tfi": 2432,
      "tpOn": 2433,
      "ually": 2434,
      "unk": 2435,
      "vic": 2436,
      "vel": 2437,
      "wn": 2438,
      "xss": 2439,
      "yment": 2440,
      "}ãĢĤ": 2441,
      "¡éªĮ": 2442,
      "¡èĢĮ": 2443,
      "¡æİĴåºı": 2444,
      "¡ä»¶": 2445,
      "¢å¼": 2446,
      "¢å¤į": 2447,
      "¢åĩº": 2448,
      "¢äºĮ": 2449,
      "¢æµĭ": 2450,
      "¢éĤ": 2451,
      "£°": 2452,
      "£å¥": 2453,
      "¥å¿": 2454,
      "¦ä¸Ģ": 2455,
      "¦ä¸²": 2456,
      "©º": 2457,
      "©éĺ": 2458,
      "©çĶ¨å¤ļ": 2459,
      "ªéĢł": 2460,
      "«ç": 2461,
      "«é¡¹": 2462,
      "¬åı": 2463,
      "¬¦ä¸²": 2464,
      "®éĢļ": 2465,
      "®ĭå·®": 2466,
      "°Ĩ": 2467,
      "°ıæ": 2468,
      "°æĢ§": 2469,
      "°å¯Ĩ": 2470,
      "°å½ķ": 2471,
      "±°": 2472,
      "±å¯¼": 2473,
      "³è·": 2474,
      "³åĽŀæĶ¶": 2475,
      "³ä¸¤ä¸ª": 2476,
      "³è§£åĨ³": 2477,
      "´æĹ¶": 2478,
      "µéĿ¢": 2479,
      "µæİ§åĪ¶": 2480,
      "µè·¯": 2481,
      "¶è¡Į": 2482,
      "¶æŀĦ": 2483,
      "·åĮ": 2484,
      "·è¯·æ±Ĥ": 2485,
      "¹éħį": 2486,
      "¹ç»Ħ": 2487,
      "ºæĻ": 2488,
      "»æĸ¹": 2489,
      "»è¾": 2490,
      "»åħ±": 2491,
      "»æī¾": 2492,
      "»åıªæľī": 2493,
      "¼ķ": 2494,
      "½åĬł": 2495,
      "½åıĳ": 2496,
      "½è±": 2497,
      "½åĲį": 2498,
      "¾¤": 2499,
      "¿èµ°": 2500,
      "âĪ": 2501,
      "åķ": 2502,
      "åĵį": 2503,
      "å£°": 2504,
      "æĩ": 2505,
      "æļ": 2506,
      "æĽ¿æį¢": 2507,
      "æ°ıæ": 2508,
      "æ±°": 2509,
      "çħ": 2510,
      "çĽ´": 2511,
      "çªģ": 2512,
      "çĻ»å½ķ": 2513,
      "ç©º": 2514,
      "ç¬¦ä¸²": 2515,
      "ç¾¤": 2516,
      "èģ": 2517,
      "èĥ": 2518,
      "èĦ": 2519,
      "èı": 2520,
      "èŀ": 2521,
      "éĴ": 2522,
      "Ġ'": 2523,
      "Ġ5": 2524,
      "Ġf": 2525,
      "Ġi": 2526,
      "ĠNorm": 2527,
      "Ġin": 2528,
      "Ġst": 2529,
      "Ġran": 2530,
      "ĠCI": 2531,
      "ĠCo": 2532,
      "ĠPo": 2533,
      "ĠRe": 2534,
      "ĠAPI": 2535,
      "ĠAvailab": 2536,
      "ĠAc": 2537,
      "ĠGC": 2538,
      "ĠOR": 2539,
      "ĠSe": 2540,
      "ĠTok": 2541,
      "Ġcon": 2542,
      "Ġtol": 2543,
      "Ģ§": 2544,
      "Ģä¸ĭ": 2545,
      "Ģä»¥": 2546,
      "ģ°": 2547,
      "ģåıĳ": 2548,
      "ģåĨħåŃĺ": 2549,
      "ģå¯¹è±¡": 2550,
      "ĤæŀĦ": 2551,
      "Ĥåģľ": 2552,
      "Ĥæ¬¡": 2553,
      "ĥäº¤": 2554,
      "ĥéĻĲ": 2555,
      "ĥè¿ŀæİ¥": 2556,
      "ĥæľ¬": 2557,
      "ĥç¥": 2558,
      "ĦåĪ°": 2559,
      "Ħå»º": 2560,
      "ħæĺ¯": 2561,
      "ħéļ": 2562,
      "Ĩä¹": 2563,
      "Ĩå¯¹": 2564,
      "ĨåĪĨä¸º": 2565,
      "ĩæķ°": 2566,
      "ĩåĲİ": 2567,
      "ĩç´¢å¼ķ": 2568,
      "ĪåĪ°è¾¾": 2569,
      "īä¸ª": 2570,
      "īäºİ": 2571,
      "īĢæľī": 2572,
      "īåŁº": 2573,
      "ĭçĽĺ": 2574,
      "ĭĨåĪĨä¸º": 2575,
      "Įè´": 2576,
      "ĮåĮħ": 2577,
      "Įæ°ıæ": 2578,
      "įæĺ¯": 2579,
      "įåĢº": 2580,
      "įçĶ¨å¤ļ": 2581,
      "İĴ": 2582,
      "İŁ": 2583,
      "İæł¼": 2584,
      "Ĳæ³": 2585,
      "Ĳæłĩ": 2586,
      "ĳæĪ": 2587,
      "ĳæİ§": 2588,
      "ĳæİĴåºı": 2589,
      "ĳèŀ": 2590,
      "Ĵæ³": 2591,
      "Ĵçº§": 2592,
      "Ĵç½®": 2593,
      "ĵæī": 2594,
      "ĵåīį": 2595,
      "ĵåºĵ": 2596,
      "ĵåĮħ": 2597,
      "ĵæĩ": 2598,
      "ĸéĥ¨": 2599,
      "ĸĩç´¢å¼ķ": 2600,
      "ĺæ±°": 2601,
      "Ļæĺ¯": 2602,
      "ļæľ¬": 2603,
      "ļĩåĲİ": 2604,
      "Ľå¾ĹåĪ°": 2605,
      "ľçļĦ": 2606,
      "ľéļĶç¦»": 2607,
      "Ŀè¯ķ": 2608,
      "ĿĥéĻĲ": 2609,
      "ŀç»ı": 2610,
      "ŀĦå»º": 2611,
      "Łè°": 2612,
      "ŁéĻĲåĪ¶": 2613,
      "łå°": 2614,
      "łçĽĺ": 2615,
      "Ńä»£": 2616,
      "Ńīäºİ": 2617,
      "çĶµè·¯": 2618,
      "¨æīĢæľī": 2619,
      "¨æĸĩç´¢å¼ķ": 2620,
      "ä¸įç": 2621,
      "ä¸¢å¼": 2622,
      "ä¸´æĹ¶": 2623,
      "ä¸īä¸ª": 2624,
      "©æģ¯": 2625,
      "ï¼Į...": 2626,
      "çĶ¨æĢ§": 2627,
      "çĶ¨æĭĨåĪĨä¸º": 2628,
      "çĶ¨æĪ·åĲį": 2629,
      "çĶ¨æĪ·èº«": 2630,
      "çĶ¨æĪ·åĪĹè¡¨": 2631,
      "åı°": 2632,
      "åı¦ä¸Ģ": 2633,
      "åıĪåĪ°è¾¾": 2634,
      "åıłçĽĺ": 2635,
      "ä½ĵ": 2636,
      "ä½³è§£åĨ³": 2637,
      "ä½Ĩä¹": 2638,
      "åĪ©çĶ¨å¤ļ": 2639,
      "åĪ»åıªæľī": 2640,
      "åĪ©æģ¯": 2641,
      "ä»½åıĳ": 2642,
      "ä»įæĺ¯": 2643,
      "ä»ĵåºĵ": 2644,
      "åħ«ç": 2645,
      "åħ¨æĸĩç´¢å¼ķ": 2646,
      "éĢĶ": 2647,
      "éĢ¢äºĮ": 2648,
      "éĢ»è¾": 2649,
      "éĢīåŁº": 2650,
      "æĺĵæĩ": 2651,
      "æĺłå°": 2652,
      "è®¡å": 2653,
      "è®°å½ķ": 2654,
      "éĩĳèŀ": 2655,
      "æĺ¯å°": 2656,
      "æĺ¯ä¸º": 2657,
      "æĺ¯å¯¹": 2658,
      "æĺ¯éĿ¢": 2659,
      "æĺ¯æķ°æį®": 2660,
      "æĺ¯å¥": 2661,
      "æĺ¯åĨħåŃĺ": 2662,
      "æĺ¯ä¸į": 2663,
      "æĺ¯åĩ½æķ°": 2664,
      "æĺ¯éħį": 2665,
      "æĺ¯åħ¨": 2666,
      "æĺ¯åħ¶ä»ĸ": 2667,
      "æĺ¯å°Ĩ": 2668,
      "æĺ¯æĶ»åĩ»": 2669,
      "æĺ¯åĪĨå¸ĥå¼ı": 2670,
      "æĺ¯è§£åĨ³": 2671,
      "æĺ¯è¶ħ": 2672,
      "æĺ¯åģ¶æķ°": 2673,
      "æĺ¯ä¸įæĺ¯": 2674,
      "æĺ¯å¤§äºİ": 2675,
      "æĺ¯èĥ½è¢«": 2676,
      "æĺ¯æľĢå¤§": 2677,
      "æĺ¯è½¯": 2678,
      "æĺ¯åı¯åıĺçļĦ": 2679,
      "æĺ¯å®Įåħ¨äºĮåıīæłĳ": 2680,
      "æĺ¯ä¸´æĹ¶": 2681,
      "æĺ¯éĢ¢äºĮ": 2682,
      "è¯¢": 2683,
      "è¯±å¯¼": 2684,
      "æķħéļ": 2685,
      "ï¼ļ@": 2686,
      "å¤ĸéĥ¨": 2687,
      "çļĦè¿": 2688,
      "çļĦæķ°": 2689,
      "çļĦè§£": 2690,
      "çļĦåħ³ç³»": 2691,
      "çļĦåħĪ": 2692,
      "çļĦåĴĮ": 2693,
      "çļĦå¹": 2694,
      "çļĦé«ĺ": 2695,
      "çļĦèĩª": 2696,
      "çļĦæĸ¹æ³ķ": 2697,
      "çļĦè¿ŀæİ¥": 2698,
      "çļĦä¿®æĶ¹": 2699,
      "çļĦè§Ħ": 2700,
      "çļĦè®¡æķ°": 2701,
      "çļĦçĽ®": 2702,
      "çļĦéĤ»å±ħ": 2703,
      "çļĦäºº": 2704,
      "çļĦæĥħåĨµ": 2705,
      "çļĦä¸īä¸ª": 2706,
      "è¿½åĬł": 2707,
      "è¿Ļæĺ¯": 2708,
      "æľ«é¡¹": 2709,
      "æľĽå¾ĹåĪ°": 2710,
      "åĨĴæ³": 2711,
      "åĲĹ": 2712,
      "çĶ¨éĺŁåĪĹ": 2713,
      "çĶ¨ver": 2714,
      "çĶ¨è®¡æķ°": 2715,
      "çĶ¨å¼ķçĶ¨": 2716,
      "çĶ¨åĲĳéĩı": 2717,
      "çĶ¨yield": 2718,
      "çĶ¨Queue": 2719,
      "çĶ¨URLè¡¨ç¤º": 2720,
      "çĶ¨éĢĶ": 2721,
      "¡å¼ķ": 2722,
      "éĢļéģĵ": 2723,
      "æķ°åĪĹ": 2724,
      "æķ°åŃ¦": 2725,
      "æķ°çĭ¬": 2726,
      "æķ°ä¹ĺ": 2727,
      "æķ°æĺ¯ä¸įæĺ¯": 2728,
      "å°±å": 2729,
      "ä»Ģä¹Īæĺ¯ç®Ĺæ³ķ": 2730,
      "ä»Ģä¹Īæĺ¯ç¼ĵåŃĺ": 2731,
      "ä»Ģä¹Īæĺ¯HTTP": 2732,
      "ä»Ģä¹Īæĺ¯äºĮè¿ĽåĪ¶": 2733,
      "ä»Ģä¹Īæĺ¯éĢĴå½Ĵ": 2734,
      "ä»Ģä¹Īæĺ¯åłĨ": 2735,
      "ä»Ģä¹Īæĺ¯éĺŁåĪĹ": 2736,
      "ä»Ģä¹Īæĺ¯äºĮåıīæłĳ": 2737,
      "ä»Ģä¹Īæĺ¯è´¨æķ°": 2738,
      "ä»Ģä¹Īæĺ¯Git": 2739,
      "ä»Ģä¹Īæĺ¯æłĪ": 2740,
      "ä»Ģä¹Īæĺ¯å¾®": 2741,
      "ä»Ģä¹Īæĺ¯BFS": 2742,
      "ä»Ģä¹Īæĺ¯äºĭåĬ¡": 2743,
      "ä»Ģä¹Īæĺ¯Redis": 2744,
      "ä»Ģä¹Īæĺ¯CI": 2745,
      "ä»Ģä¹Īæĺ¯CAP": 2746,
      "ä»Ģä¹Īæĺ¯ä¹Ĳè§ĤéĶģ": 2747,
      "ä»Ģä¹Īæĺ¯åĪĨæ²»": 2748,
      "ä»Ģä¹Īæĺ¯è¯įåµĮåħ¥": 2749,
      "ä»Ģä¹Īæĺ¯æįŁå¤±åĩ½æķ°": 2750,
      "ä»Ģä¹Īæĺ¯HTTPS": 2751,
      "ä»Ģä¹Īæĺ¯CSRF": 2752,
      "ä»Ģä¹Īæĺ¯æ¿Ģæ´»åĩ½æķ°": 2753,
      "ä»Ģä¹Īæĺ¯äºĮåıīæĲľç´¢æłĳ": 2754,
      "ä»Ģä¹Īæĺ¯Dropout": 2755,
      "ä»Ģä¹Īæĺ¯REST": 2756,
      "ä»Ģä¹Īæĺ¯XSS": 2757,
      "ä»Ģä¹Īæĺ¯åĽ¾": 2758,
      "ä»Ģä¹Īæĺ¯æİĴåºıç®Ĺæ³ķ": 2759,
      "ä»Ģä¹Īæĺ¯è®¾è®¡æ¨¡å¼ı": 2760,
      "ä»Ģä¹Īæĺ¯SQLæ³¨åħ¥": 2761,
      "ä»Ģä¹Īæĺ¯ä¼ĺåĮĸåĻ¨": 2762,
      "ä»Ģä¹Īæĺ¯æĬĢæľ¯åĢº": 2763,
      "ä»Ģä¹Īæĺ¯åĵĪå¸Įè¡¨": 2764,
      "ä»Ģä¹Īæĺ¯SOLID": 2765,
      "ä»Ģä¹Īæĺ¯è´ªå¿ĥç®Ĺæ³ķ": 2766,
      "ä»Ģä¹Īæĺ¯æ®ĭå·®è¿ŀæİ¥": 2767,
      "ä»Ģä¹Īæĺ¯BASE": 2768,
      "ä»Ģä¹Īæĺ¯Docker": 2769,
      "ä»Ģä¹Īæĺ¯åĽŀæº¯": 2770,
      "ä»Ģä¹Īæĺ¯ä»£çłģå®¡æŁ¥": 2771,
      "ä»Ģä¹Īæĺ¯åĬ¨æĢģè§ĦåĪĴ": 2772,
      "ä»Ģä¹Īæĺ¯Bat": 2773,
      "ä»Ģä¹Īæĺ¯Kub": 2774,
      "ä»Ģä¹Īæĺ¯My": 2775,
      "æĽ´å°ĳ": 2776,
      "åŃĲåºıåĪĹ": 2777,
      "åŃĲæĢ§": 2778,
      "åŃĲéĹ®é¢ĺ": 2779,
      "åŃĲç»ĵæŀĦ": 2780,
      "åŃĲç±»": 2781,
      "å®ĥæľ¬": 2782,
      "åħ³ä¸¤": 2783,
      "ä½įç½®åıĤæķ°": 2784,
      "å¯»æī¾": 2785,
      "æĬ½è±": 2786,
      "æĸĲæ³": 2787,
      "æł¡éªĮ": 2788,
      "è®¡æĹ¶": 2789,
      "ä¸ĭä¸Ģä¸ª": 2790,
      "ä¸ĭéĻį": 2791,
      "ıæĦı": 2792,
      "ıæ±Ĥ": 2793,
      "çĲĨè®¾è®¡": 2794,
      "çĲĨæĥ³": 2795,
      "åį³åĽŀæĶ¶": 2796,
      "å®ļé¡ºåºı": 2797,
      "æİ¢æµĭ": 2798,
      "ä¸ºåŀĭ": 2799,
      "ä¸ºåįģè¿ĽåĪ¶": 2800,
      "ä¸ºå°ıéĹ®é¢ĺ": 2801,
      "ä¸ºåĲĳéĩı": 2802,
      "æĶ¹åıĺ": 2803,
      "éĩįåĨĻ": 2804,
      "éĩįéªĮè¯ģ": 2805,
      "éĩįæŀĦ": 2806,
      "æĿŁ": 2807,
      "æĿ¡ä»¶": 2808,
      "å¦ĤåĿ": 2809,
      "å¦Ĥåħ«ç": 2810,
      "å¯¹ä¿®æĶ¹": 2811,
      "å¯¹æī©å±ķ": 2812,
      "è®¡ç®ĹåĴĮ": 2813,
      "è®¡ç®ĹéĹ®é¢ĺ": 2814,
      "çłģéļ": 2815,
      "åĪĨåĪ«": 2816,
      "åĪĨæĪĲ": 2817,
      "åĪĨä»£": 2818,
      "åĪĨäº«": 2819,
      "åĪĨæŁ¥æī¾": 2820,
      "åĨĻåħ¥": 2821,
      "åĨĻå°ĳ": 2822,
      "åĨĻå¤ļ": 2823,
      "å¼ĤæŀĦ": 2824,
      "å¼ıæ±Ĥ": 2825,
      "è¦ģå°ı": 2826,
      "è¦ģè¯ģ": 2827,
      "è¦ģæ³¨æĦı": 2828,
      "è´¥": 2829,
      "è´¦": 2830,
      "è¶³ä¸¤ä¸ª": 2831,
      "åĬłäºĨ": 2832,
      "åĬłéĶģ": 2833,
      "åĬłå¯Ĩ": 2834,
      "åĬłæ·±": 2835,
      "ä¸ĢæĹ¶": 2836,
      "ä¸Ģæł·": 2837,
      "ä¸Ģç»Ħ": 2838,
      "ä¸Ģæ¬¡": 2839,
      "ä¸Ģä»¶": 2840,
      "ä¸Ģç§įç": 2841,
      "ä¸ĢçĽ´": 2842,
      "ä¸Ģèģ": 2843,
      "ä¸ĢçļĦè®¡æķ°": 2844,
      "ä¸Ģå®ļé¡ºåºı": 2845,
      "è¯įè½¬": 2846,
      "ä¼ªéĢł": 2847,
      "æ¯ıæŃ¥": 2848,
      "æĢ»åħ±": 2849,
      "è®©æ¨¡åŀĭåŃ¦": 2850,
      "èĢģå¯¹è±¡": 2851,
      "å¤§æķ´": 2852,
      "å¤§æĶ¾": 2853,
      "åı¯çĶ¨": 2854,
      "åı¯éĩįå¤į": 2855,
      "åı¯æĽ¿æį¢": 2856,
      "åı¯çĶ¨æĢ§": 2857,
      "è¶Ĭå¥½": 2858,
      "è¶Ĭæħ¢": 2859,
      "è¶ĬåĩĨ": 2860,
      "è¶ĬæĿ¥": 2861,
      "è¿ĩå°ĳ": 2862,
      "è¿ĩæ»": 2863,
      "åĲĪçĲĨè®¾è®¡": 2864,
      "è§£éĩĬåĻ¨": 2865,
      "è§£éĩĬä»Ģä¹Īæĺ¯è´¨æķ°": 2866,
      "æĸ¹æ¡Ī": 2867,
      "åħ³ç³»æķ°æį®åºĵ": 2868,
      "è®Ńç»ĥå¹¶": 2869,
      "è®Ńç»ĥæ¨¡åŀĭ": 2870,
      "æŀĿ": 2871,
      "æŀ¶æŀĦ": 2872,
      "åħ¥è·": 2873,
      "åħ¥éĺŁ": 2874,
      "åħ¥æłĪ": 2875,
      "åħ¥targ": 2876,
      "ç¼ĸæİĴ": 2877,
      "å¦Ĥä½ķè®¡ç®Ĺ": 2878,
      "å¦Ĥä½ķç¨³å®ļ": 2879,
      "å¦Ĥä½ķè¡¨ç¤º": 2880,
      "å¦Ĥä½ķå°Ĩ": 2881,
      "å¦Ĥä½ķåĬłæ·±": 2882,
      "å¦Ĥä½ķè®©æ¨¡åŀĭåŃ¦": 2883,
      "å¦Ĥä½ķè®Ńç»ĥæ¨¡åŀĭ": 2884,
      "åħĪè®¿éĹ®": 2885,
      "åħĪæĵįä½ľ": 2886,
      "åħĪä¹°": 2887,
      "åħĪæĿ¥": 2888,
      "åħĪè¿ĽåħĪåĩº": 2889,
      "åħĪåĬłéĶģ": 2890,
      "éĩıé¢Ħæµĭ": 2891,
      "æľīéĶģ": 2892,
      "æľīè¾ĵåħ¥": 2893,
      "æľīéĻĲ": 2894,
      "æľīåĲĳ": 2895,
      "æľīmain": 2896,
      "æľīæĿĥ": 2897,
      "æľīåĪ©æģ¯": 2898,
      "åİĤ": 2899,
      "æıĲåīį": 2900,
      "éķ¿åħ¬": 2901,
      "å¾Ģä¸ĭ": 2902,
      "åĴĮè¾": 2903,
      "åĴĮéĩįå¤į": 2904,
      "åĴĮde": 2905,
      "åĴĮæĸ¹æ³ķ": 2906,
      "åĴĮéĢĴå½Ĵ": 2907,
      "åĴĮTCP": 2908,
      "åĴĮtuple": 2909,
      "åĴĮåı³": 2910,
      "åĴĮDFS": 2911,
      "åĴĮæľĢå°ı": 2912,
      "åĴĮæµħæĭ·è´Ŀ": 2913,
      "åĴĮæľįåĬ¡åĻ¨": 2914,
      "åĴĮfeature": 2915,
      "åĴĮæĤ²è§ĤéĶģ": 2916,
      "åĴĮä¾Ŀèµĸ": 2917,
      "åĴĮpop": 2918,
      "åĴĮå®ĥæľ¬": 2919,
      "åĴĮåħ³ä¸¤": 2920,
      "ert": 2921,
      "eration": 2922,
      "eranc": 2923,
      "ernet": 2924,
      "æ³¨éĩĬ": 2925,
      "èĥ½æĶ¶": 2926,
      "èĥ½åĲĮ": 2927,
      "èĥ½ä¿®æĶ¹": 2928,
      "èĥ½åĪ©çĶ¨å¤ļ": 2929,
      "é¡µéĿ¢": 2930,
      "ç»ĵæĿŁ": 2931,
      "ç§°å¯Ĩ": 2932,
      "ç§»æĸ¹": 2933,
      "ç§Ĵçº§": 2934,
      "çĽĳæİ§": 2935,
      "éĻħæĺ¯": 2936,
      "éĢĤéħį": 2937,
      "å°ıäºİ": 2938,
      "å°ıæľįåĬ¡": 2939,
      "ä¸ºä»Ģä¹Īæ¨¡åŀĭ": 2940,
      "ä¸ºä»Ģä¹Īæ®ĭå·®": 2941,
      "ä¸ºä»Ģä¹ĪçĶ¨åĲĳéĩı": 2942,
      "æĢ§æ£Ģ": 2943,
      "å½ĵåīį": 2944,
      "é¢ģåıĳ": 2945,
      "åŃĺéĵ¾è¡¨": 2946,
      "åŃĺåŃĲéĹ®é¢ĺ": 2947,
      "è¾ĥäº¤": 2948,
      "ä¸ªå°ıæľįåĬ¡": 2949,
      "ä¸Ĭåįĩ": 2950,
      "ä¸Ĭåİ»": 2951,
      "ä¸Ĭä¸ĢæŃ¥": 2952,
      "è¿Ľä¸ĢçļĦè®¡æķ°": 2953,
      "éĢļè¿ĩä¿Ŀ": 2954,
      "éĢļè¿ĩåĵĪå¸Į": 2955,
      "éĢļè¿ĩè¯įåµĮåħ¥": 2956,
      "äºİfunc": 2957,
      "åıĤæķ°åĮĸ": 2958,
      "åıĤæķ°éħįç½®": 2959,
      "åıĤæķ°ä¼ł": 2960,
      "åıĤæķ°è¿ĩå¤ļ": 2961,
      "åıĤæķ°çļĦé«ĺ": 2962,
      "æ¯Ķè¾ĥäº¤": 2963,
      "å¿«çħ": 2964,
      "æīĢä»¥": 2965,
      "æīįçĶ¨å¤ļ": 2966,
      "æīĵåĮħ": 2967,
      "ä½¿åĲĮ": 2968,
      "æľºæŀĦ": 2969,
      "å°ıæĿĥéĻĲ": 2970,
      "åĮĸå±Ĥ": 2971,
      "åĮĸæĬĢæľ¯": 2972,
      "ä¸Ńè¾ĵåħ¥": 2973,
      "ä¸Ńä¸Ģèĩ´æĢ§": 2974,
      "ä¸ŃéĹ´": 2975,
      "ä¸ŃæıĴåħ¥": 2976,
      "ä¸ŃåŃĺåĤ": 2977,
      "ä¸Ńå¸¸è§ģ": 2978,
      "åľºæĻ": 2979,
      "ä¿ĿACK": 2980,
      "åĲİåºı": 2981,
      "åĲİä¸į": 2982,
      "åĲİæľŁ": 2983,
      "åĲİåĲĪå¹¶": 2984,
      "åĲİè¿ĽåħĪåĩº": 2985,
      "åĲİæ±ĤåĴĮ": 2986,
      "æķ°æį®æŁ¥æī¾": 2987,
      "æķ°æį®æĮī": 2988,
      "æķ°æį®è¿ĩå°ĳ": 2989,
      "æ³ķè¡¨ç¤º": 2990,
      "æľĢå¤ļ": 2991,
      "æľĢåĿı": 2992,
      "æľĢä½³è§£åĨ³": 2993,
      "æľĢéķ¿åħ¬": 2994,
      "æľĢå°ıæĿĥéĻĲ": 2995,
      "éĢĤåĲĪè¯»": 2996,
      "éĢĤåĲĪåĨĻå¤ļ": 2997,
      "MSLç¡®": 2998,
      "ä»¥çĶ¨æĪ·èº«": 2999,
      "çĽ¸éĤ»": 3000,
      "å¹¶è¡Į": 3001,
      "éĥ¨å¤±": 3002,
      "±Ĥç½ĳç»ľ": 3003,
      "åĪ°å¤Ħ": 3004,
      "åĪ°å¤įæĿĤ": 3005,
      "åĪ°åīį": 3006,
      "åĪ°æµĭè¯ķ": 3007,
      "äºĨå¤ļçº¿ç¨ĭ": 3008,
      "å·²ç": 3009,
      "å¼ıæłĳ": 3010,
      "å¼ıæĽ´æĸ°": 3011,
      "è¡ĮåĮĸ": 3012,
      "è¡Įä¸ºåŀĭ": 3013,
      "åı¯ä»¥ä½¿çĶ¨": 3014,
      "åı¯ä»¥å¢ŀ": 3015,
      "é¢ĺæŃ¥éª¤": 3016,
      "é¢ĺçļĦè§£": 3017,
      "åľ¨åĨħåŃĺ": 3018,
      "åľ¨ä¸į": 3019,
      "åľ¨è¾ĵåħ¥": 3020,
      "åľ¨HTTP": 3021,
      "åľ¨è¯Ħ": 3022,
      "æĮĳæĪ": 3023,
      "æķĪçļĦè¿ŀæİ¥": 3024,
      "åĨħæł¸": 3025,
      "è¾ĵåįıè®®": 3026,
      "æĹ¥å¿": 3027,
      "åıĳæķ°æį®": 3028,
      "åıĳå¸ĥ": 3029,
      "åĽŀä¸Ĭä¸ĢæŃ¥": 3030,
      "åĽºå®ļæķ°æį®": 3031,
      "ç§įæĸ¹æ³ķ": 3032,
      "ä½¿çĶ¨th": 3033,
      "ä½¿çĶ¨äºĮè¿ĽåĪ¶": 3034,
      "ä½¿çĶ¨éĿŀçº¿æĢ§": 3035,
      "ä½¿çĶ¨Dropout": 3036,
      "ä½¿çĶ¨ä¼ĺåĮĸåĻ¨æĽ´æĸ°": 3037,
      "ä½¿çĶ¨mu": 3038,
      "å¢ĥ": 3039,
      "ľĢå°ı": 3040,
      "ľĢä¼ĺ": 3041,
      "ä½įæķ°åŃĹ": 3042,
      "åĨįæ£ĢæŁ¥": 3043,
      "åĨįæĵįä½ľ": 3044,
      "åħ³æ³¨çĤ¹": 3045,
      "åĩºéĺŁ": 3046,
      "åĩºæłĪ": 3047,
      "åįķä½į": 3048,
      "åįķåħĥ": 3049,
      "åįķä¾ĭ": 3050,
      "ç»ĵæŀĦåŀĭ": 3051,
      "éĻ¤æ³ķ": 3052,
      "éĻ¤åĪ°": 3053,
      "éĻ¤ä¸į": 3054,
      "æĪĲåĬŁ": 3055,
      "æĪĲéķľåĥı": 3056,
      "æĪĲéĵ¾è¡¨": 3057,
      "æ·±å": 3058,
      "æ·ĺæ±°": 3059,
      "çľģåĨħåŃĺ": 3060,
      "åıĺéĩı": 3061,
      "æĺİè´ªå¿ĥ": 3062,
      "æĺİç¡®æĢ§": 3063,
      "æĺİå¼ıæĽ´æĸ°": 3064,
      "äºĮåĪĨæŁ¥æī¾": 3065,
      "éĶ®ç´¢å¼ķ": 3066,
      "éĶ®æĺłå°": 3067,
      "åĻ¨å¤ĦçĲĨ": 3068,
      "åĨħåŃĺæĽ´å°ĳ": 3069,
      "enqueue": 3070,
      "çĤ¹æķ°æį®": 3071,
      "çĤ¹åĴĮè¾": 3072,
      "ï¼Ľ**": 3073,
      "ä¸įåħ±äº«": 3074,
      "ä¸įè¿ĺ": 3075,
      "ä¸įåľ¨åĨħåŃĺ": 3076,
      "ä»£çĲĨ": 3077,
      "ä¼ļå¯¼èĩ´": 3078,
      "ä¼ļè¿ĩæĭŁåĲĪ": 3079,
      "ç¨³å®ļæ¢¯åº¦": 3080,
      "èĩªåĬ¨æ": 3081,
      "éľĢè¦ģåıĮæĸ¹éĥ½": 3082,
      "éľĢè¦ģæĶ¹åıĺ": 3083,
      "éľĢè¦ģåĲĪçĲĨè®¾è®¡": 3084,
      "æŁ¥è¯¢": 3085,
      "åĬ¨æĪĲ": 3086,
      "å¤±æķĪçļĦè¿ŀæİ¥": 3087,
      "åħ³éĶ®åŃĹ": 3088,
      "åħ³éĶ®ä¼ĺåĮĸ": 3089,
      "åħ³éĶ®è¦ģç´ł": 3090,
      "åĩ½æķ°å¢ŀåĬł": 3091,
      "åĩ½æķ°è°ĥ": 3092,
      "åĩ½æķ°å°Ĩ": 3093,
      "åĩ½æķ°ä½ľä¸º": 3094,
      "åĩ½æķ°çļĦæĥħåĨµ": 3095,
      "æİĴéĺŁ": 3096,
      "æİĴéĻ¤ä¸į": 3097,
      "çŃīå·®": 3098,
      "çŃīä»·": 3099,
      "å¥½åĿı": 3100,
      "å¥½ç®Ĺæ³ķè¦ģ": 3101,
      "åĢĴç½®": 3102,
      "åī©": 3103,
      "å»ºç«ĭ": 3104,
      "å»ºéĢł": 3105,
      "çŁ¥è¯Ĩ": 3106,
      "æ³¨åħ¥æģ¶æĦı": 3107,
      "éªĮè¯ģæĪĸ": 3108,
      "éªĮè¯ģè¯ģä¹¦": 3109,
      "éªĮè¯ģRe": 3110,
      "ç»ĵæŀľéģ¿åħįéĩįå¤į": 3111,
      "æ¯Ķå¦Ĥåģļ": 3112,
      "æ¯Ķå¦Ĥde": 3113,
      "æ¯Ķå¦Ĥfor": 3114,
      "æ¯Ķå¦ĤGET": 3115,
      "æ¯Ķå¦Ĥéĺ¶": 3116,
      "æ¯Ķå¦Ĥåįģè¿ĽåĪ¶çļĦ": 3117,
      "æ¯Ķå¦ĤçĶ¨æĪ·åĲį": 3118,
      "æ¯Ķå¦ĤåıłçĽĺ": 3119,
      "æ¯Ķå¦Ĥå·²ç": 3120,
      "æ¯Ķå¦Ĥåľ¨è¯Ħ": 3121,
      "æ¯Ķå¦ĤæİĴéĺŁ": 3122,
      "éĥ¨åĪĨæĽ´æĸ°": 3123,
      "æĹ¶args": 3124,
      "æĹ¶ç«ĭ": 3125,
      "æĹ¶æī§è¡Į": 3126,
      "æĹ¶éĹ´å¤įæĿĤåº¦": 3127,
      "æĹ¶æ»¡": 3128,
      "æĹ¶çļĦä¿®æĶ¹": 3129,
      "çľĭæįŁå¤±åĩ½æķ°": 3130,
      "çľĭæľĢåĲİä¸Ģä½į": 3131,
      "ä»£çłģè´¨éĩı": 3132,
      "ä¾¿äºİè®¡ç®ĹåĴĮ": 3133,
      "éĽĨç¾¤": 3134,
      "å½±åĵįåĨĻåħ¥": 3135,
      "licy": 3136,
      "ration": 3137,
      "å¤ļè¿Ľç¨ĭ": 3138,
      "å¤ļåĨĻå°ĳ": 3139,
      "å¤ļä¸ªå°ıæľįåĬ¡": 3140,
      "åĲĮæŃ¥": 3141,
      "æĸĩæ¡": 3142,
      "æ¯ıä½įæķ°åŃĹ": 3143,
      "stra": 3144,
      "æ¨¡åŀĭè®Ńç»ĥ": 3145,
      "æ¨¡åŀĭåıĤæķ°": 3146,
      "æ¨¡åŀĭå¥½åĿı": 3147,
      "åħ±åŃĲåºıåĪĹ": 3148,
      "è®¾è®¡å": 3149,
      "å®ŀéĻħæĺ¯": 3150,
      "æĸ°åĬŁ": 3151,
      "èĢĮåģļ": 3152,
      "å¾ĹåĪ°æľīåºı": 3153,
      "å¢ŀåĬłéĿŀçº¿æĢ§": 3154,
      "æ¯ıä¸ªæľįåĬ¡": 3155,
      "æ¯ıä¸ªèĬĤçĤ¹": 3156,
      "åħ¶ä»ĸçĶ¨æĪ·è®¿éĹ®": 3157,
      "1011": 3158,
      "ate": 3159,
      "atem": 3160,
      "atsub": 3161,
      "rele": 3162,
      "åĳ½åĲį": 3163,
      "å±Ĥæķ°": 3164,
      "å±Ĥçº§": 3165,
      "å±Ĥæ¬¡": 3166,
      "æĭ¬åı": 3167,
      "æĭ¿èµ°": 3168,
      "æĭĵæī": 3169,
      "èµ·è¯·æ±Ĥ": 3170,
      "åıªåģļ": 3171,
      "åıªèĥ½è¢«": 3172,
      "åıªå¤įåĪ¶": 3173,
      "åıªèĥ½åĲĮ": 3174,
      "æłĩåĩĨ": 3175,
      "ç®Ĺæ³ķæĺ¯è§£åĨ³": 3176,
      "å¼ĢåĴĮåħ³ä¸¤": 3177,
      "å¼ķåħ¥è·": 3178,
      "ä¸ºä»Ģä¹ĪéľĢè¦ģå½Ĵä¸ĢåĮĸ": 3179,
      "ä¸ºä»Ģä¹ĪéľĢè¦ģéĿŀçº¿æĢ§": 3180,
      "å¿«éĢŁæŁ¥æī¾": 3181,
      "å¿«éĢŁäº¤ä»ĺ": 3182,
      "è¾ĵåĩºè½¬": 3183,
      "entually": 3184,
      "åįłçĶ¨åĨħåŃĺæĽ´å°ĳ": 3185,
      "PythonåŃĹ": 3186,
      "Pythonä¸»è¦ģ": 3187,
      "ī¹éĩıå½Ĵä¸ĢåĮĸ": 3188,
      "ī¹æ®Ĭ": 3189,
      "éĢĢåĽŀä¸Ĭä¸ĢæŃ¥": 3190,
      "åºĶæ¨¡å¼ı": 3191,
      "åºĶçĶ¨æĭĨåĪĨä¸º": 3192,
      "æŃ¢æĿ¡ä»¶": 3193,
      "æİĴåºıæĺ¯å°Ĩ": 3194,
      "åĢ¼å¤§å°ı": 3195,
      "çĶŁæĪĲæłĳ": 3196,
      "çĶŁæĪĲåĻ¨æĺ¯": 3197,
      "åħ±äº«åħ¨å±Ģ": 3198,
      "åħ±äº«èµĦæºĲ": 3199,
      "åħ±äº«åĨħæł¸": 3200,
      "ition": 3201,
      "sift": 3202,
      "sically": 3203,
      "siftup": 3204,
      "æ£ĭçĽĺ": 3205,
      "æĥ°æĢ§": 3206,
      "ä¸Ģä¸ªç±»": 3207,
      "ä¸Ģä¸ªçº¿ç¨ĭ": 3208,
      "ä¸Ģä¸ªæİ¥æĶ¶": 3209,
      "ä¸Ģä¸ªæķ°æĺ¯ä¸įæĺ¯": 3210,
      "ä¸Ģä¸ªçŃīå·®": 3211,
      "ä¸Ģä¸ªå¥½ç®Ĺæ³ķè¦ģ": 3212,
      "åİŁçĲĨ": 3213,
      "åİŁåŀĭ": 3214,
      "åİŁåĽł": 3215,
      "åİŁåŃĲæĢ§": 3216,
      "åİŁåĩ½æķ°çļĦæĥħåĨµ": 3217,
      "æĪĸéĢĴå½Ĵ": 3218,
      "æĪĸæķ°æį®è¿ĩå°ĳ": 3219,
      "æī¾åĪ°": 3220,
      "æī¾æľĢçŁŃè·¯å¾Ħ": 3221,
      "è¡¨ç¤ºåħĥç´ł": 3222,
      "è¾ĵåħ¥è¿ĩæ»": 3223,
      "500": 3224,
      "deep": 3225,
      "devel": 3226,
      "ÃĹ(": 3227,
      "çī¹æ®Ĭ": 3228,
      "åĬ¨è¯į": 3229,
      "åĬ¨éĢīæĭ©": 3230,
      "éĢĴæĹ¶çļĦä¿®æĶ¹": 3231,
      "åŃĹæ®": 3232,
      "åŃĹåħ¸": 3233,
      "åŃĹç¬¦ä¸²": 3234,
      "ç»ĦåĲĪ": 3235,
      "ç»ĦSQL": 3236,
      "å°ĨåºĶçĶ¨": 3237,
      "å°Ĩè¯įè½¬": 3238,
      "å°Ĩæ¯ıä½įæķ°åŃĹ": 3239,
      "ç¼ĵåŃĺæĺ¯ä¸´æĹ¶": 3240,
      "éĻĲæł¡éªĮ": 3241,
      "ä½¿çĶ¨æ®ĭå·®": 3242,
      "ä½¿çĶ¨æī¹éĩıå½Ĵä¸ĢåĮĸ": 3243,
      "æĮģåŃĹç¬¦ä¸²": 3244,
      "è½¬è´¦": 3245,
      "è½¬ç§»æĸ¹": 3246,
      "argsåĴĮ": 3247,
      "argsæİ¥æĶ¶ä»»æĦıæķ°éĩıçļĦ": 3248,
      "HTTPæĸ¹æ³ķ": 3249,
      "HTTPæĺ¯è¶ħ": 3250,
      "edSt": 3251,
      "éĥ½éĢīæĭ©": 3252,
      "åĪĻåĮĸ": 3253,
      "åĪĽå»ºçĶ¨æĪ·": 3254,
      "åĪĽå»ºæĽ´å¿«": 3255,
      "åĪĽå»ºåŀĭ": 3256,
      "åĪĽå»ºPr": 3257,
      "åĪĽå»ºTh": 3258,
      "åĪĽå»ºåĲİä¸į": 3259,
      "è®¿éĹ®éĢŁåº¦": 3260,
      "è¯ķéĻ¤æ³ķ": 3261,
      "å®¹éĶĻ": 3262,
      "å¯Ĩçłģéļ": 3263,
      "æį¢ä¸ºåįģè¿ĽåĪ¶": 3264,
      "è´¨æĺ¯": 3265,
      "å¤įæĿĤåħ³ç³»": 3266,
      "äºĮè¿ĽåĪ¶æĺ¯éĢ¢äºĮ": 3267,
      "è§Ĥå¯ŁèĢħ": 3268,
      "åīªæŀĿ": 3269,
      "ç´¢å¼ķæĺ¯æķ°æį®": 3270,
      "ç´¢å¼ķå½±åĵįåĨĻåħ¥": 3271,
      "éĢĴå½Ĵå¤įåĪ¶": 3272,
      "éĢĴå½Ĵæĺ¯åĩ½æķ°": 3273,
      "éĢĴå½Ĵè¦ģæ³¨æĦı": 3274,
      "æ£ĢæŁ¥ä»£çłģ": 3275,
      "æ£ĢæŁ¥è¿ŀéĢļ": 3276,
      "æ£ĢæŁ¥èĢģå¯¹è±¡": 3277,
      "çĥŃçĤ¹æķ°æį®": 3278,
      "ACID": 3279,
      "TCPåħ³éĹŃ": 3280,
      "TCPæĺ¯åħ¨": 3281,
      "TCPå»ºç«ĭ": 3282,
      "loyment": 3283,
      "æº¢åĩº": 3284,
      "çŁ©éĺ": 3285,
      "çĬ¶æĢģçłģ": 3286,
      "çĬ¶æĢģå®ļä¹ī": 3287,
      "çĬ¶æĢģè½¬ç§»æĸ¹": 3288,
      "ä¸»éĶ®ç´¢å¼ķ": 3289,
      "è¯·æ±Ĥçĭ¬ç«ĭ": 3290,
      "è¯·æ±ĤHTTPS": 3291,
      "è¯·æ±Ĥçªģ": 3292,
      "è¯·æ±Ĥä¼ªéĢł": 3293,
      "è¿ĺåī©": 3294,
      "æľ¬åı¯çĶ¨": 3295,
      "æľ¬è´¨æĺ¯": 3296,
      "æľŁæľĽå¾ĹåĪ°": 3297,
      "åĲĳéĩıåĮĸ": 3298,
      "åĲĳå¯¹è±¡": 3299,
      "ç»Ļåĩ½æķ°å¢ŀåĬł": 3300,
      "çĶ¨äºİæİĴåĪĹ": 3301,
      "çĶ¨äºİåĪĨå¸ĥå¼ıäºĭåĬ¡": 3302,
      "çĶ¨äºİåĽºå®ļæķ°æį®": 3303,
      "çĶ¨äºİéľĢè¦ģæĶ¹åıĺ": 3304,
      "æł¸CPU": 3305,
      "åĩĨåĪĨåĮº": 3306,
      "å¯¹è±¡å¼ķ": 3307,
      "åłĨæİĴåºı": 3308,
      "åłĨé¡¶": 3309,
      "åłĨæĺ¯å®Įåħ¨äºĮåıīæłĳ": 3310,
      "éĹ´ä¸įåħ±äº«": 3311,
      "æıĲäº¤PR": 3312,
      "å¹³åĿĩ": 3313,
      "å¹³è¡¡": 3314,
      "å¹³åı°": 3315,
      "è®¾è®¡é£": 3316,
      "çº¿æĢ§æĹł": 3317,
      "çº¿ç¨ĭå®īåħ¨": 3318,
      "çº¿ç¨ĭåħ±äº«åħ¨å±Ģ": 3319,
      "éĺŁåĪĹæĺ¯ä¸Ģç§į": 3320,
      "äºĮåıīæłĳæ¯ıä¸ªèĬĤçĤ¹": 3321,
      "è´¨æķ°æĺ¯å¤§äºİ": 3322,
      "è´¨æķ°çļĦæĸ¹æ³ķ": 3323,
      "tupleçĶ¨": 3324,
      "tupleæĺ¯ä¸į": 3325,
      "tupleåĪĽå»ºæĽ´å¿«": 3326,
      "tupleçĶ¨äºİåĽºå®ļæķ°æį®": 3327,
      "ClientåĽŀå¤į": 3328,
      "ClientéªĮè¯ģè¯ģä¹¦": 3329,
      "Clientè¯·æ±ĤHTTPS": 3330,
      "éĥ¨ç½²åĪ°çĶŁäº§": 3331,
      "éĥ¨ç½²åĪ°æµĭè¯ķ": 3332,
      "GitLa": 3333,
      "Servic": 3334,
      "SQLä»£çłģ": 3335,
      "SQLç´¢å¼ķ": 3336,
      "iprocess": 3337,
      "ĥıä¹¦": 3338,
      "åı³åŃĲæłĳæīĢæľīèĬĤçĤ¹": 3339,
      "åıĮå·¥": 3340,
      "åıĮéĩįéªĮè¯ģ": 3341,
      "åĪłæĶ¹": 3342,
      "è¯»å°ĳ": 3343,
      "è¯»æľª": 3344,
      "è¯»å·²": 3345,
      "è¯Ħä»·": 3346,
      "ä¿®æĶ¹åİŁåĩ½æķ°çļĦæĥħåĨµ": 3347,
      "æĶ¾åľ¨åĩ½æķ°": 3348,
      "æĶ¾ä¸Ĭåİ»": 3349,
      "æłĪæĺ¯ä¸Ģç§į": 3350,
      "æłĪæº¢åĩº": 3351,
      "åįıåķ": 3352,
      "éĿŀè¿ŀéĢļ": 3353,
      "éĿŀåħ·": 3354,
      "åĲĪå¹¶åīį": 3355,
      "çº§åĪ«": 3356,
      "å¾®æľįåĬ¡å": 3357,
      "æī¹éĩıå½Ĵä¸ĢåĮĸ": 3358,
      "æīĢæľīéĤ»å±ħ": 3359,
      "æīĢæľīåı¯èĥ½çļĦ": 3360,
      "æīĢæľīå±Ĥçº§": 3361,
      "æľĢä¼ĺè§£": 3362,
      "æľĢä¼ĺåŃĲç»ĵæŀĦ": 3363,
      "æľĢä¼ĺåıĤæķ°éħįç½®": 3364,
      "å·¦åŃ©åŃĲ": 3365,
      "å·¦åŃĲæłĳæīĢæľīèĬĤçĤ¹": 3366,
      "æĹłåĲĳ": 3367,
      "æĹłæĿĥ": 3368,
      "åıĳéĢģFIN": 3369,
      "åıĳéĢģéĢļéģĵ": 3370,
      "åĽŀæĶ¶åĨħåŃĺ": 3371,
      "åīįåºı": 3372,
      "listçĶ¨": 3373,
      "listæĺ¯åı¯åıĺçļĦ": 3374,
      "liståĴĮtuple": 3375,
      "listçĶ¨äºİéľĢè¦ģæĶ¹åıĺ": 3376,
      "å®ŀçİ°èĩªåĬ¨": 3377,
      "å®ŀçİ°æľĢç»Īä¸Ģèĩ´æĢ§": 3378,
      "å®ŀçİ°å¿«éĢŁæŁ¥æī¾": 3379,
      "å¼ĢåıĳèĢħ": 3380,
      "å¼Ģåıĳè¶ĬæĿ¥": 3381,
      "å¼Ģåıĳä¸Ńå¸¸è§ģ": 3382,
      "å±Ģéĥ¨æ": 3383,
      "å¤ĦçĲĨæĸ¹æ³ķ": 3384,
      "éĺ²æŃ¢å·²": 3385,
      "éĺ²æŃ¢ä¸ŃéĹ´": 3386,
      "å®¹åĻ¨éĽĨç¾¤": 3387,
      "ACKç¡®è®¤": 3388,
      "BFSçĶ¨éĺŁåĪĹ": 3389,
      "BFSæī¾æľĢçŁŃè·¯å¾Ħ": 3390,
      "DFSçĶ¨æłĪ": 3391,
      "DFSæ£ĢæŁ¥è¿ŀéĢļ": 3392,
      "alert": 3393,
      "uskal": 3394,
      "åĥıéĩĳèŀ": 3395,
      "æģ¢å¤į": 3396,
      "æĻ®éĢļ": 3397,
      "æ´»åĬ¨éĢīæĭ©": 3398,
      "éĵ¶è¡Į": 3399,
      "çĶ±é¡¶": 3400,
      "çĶ±CA": 3401,
      "éĢĲæŃ¥åģ¿è¿ĺ": 3402,
      "ä¹īè¡¨ç¤º": 3403,
      "æĺ¯ä¸Ģç»ĦSQL": 3404,
      "çļĦåĮºåĪ«æĺ¯ä»Ģä¹Ī": 3405,
      "åĲ¯åĬ¨æĪĲ": 3406,
      "è§ĦèĮĥ": 3407,
      "ç®¡çĲĨå®¹åĻ¨éĽĨç¾¤": 3408,
      "æĶ¯æĮģåŃĹç¬¦ä¸²": 3409,
      "è®¡æķ°åĻ¨": 3410,
      "è®¡æķ°åĽŀæĶ¶åĨħåŃĺ": 3411,
      "å®ļæľŁæ£ĢæŁ¥èĢģå¯¹è±¡": 3412,
      "è¡¡éĩıé¢Ħæµĭ": 3413,
      "èĢħåľ¨è¾ĵåħ¥": 3414,
      "é¦ĸé¡¹": 3415,
      "æıĲé«ĺä»£çłģè´¨éĩı": 3416,
      "ä¿Ŀè¯ģçº¿ç¨ĭå®īåħ¨": 3417,
      "æľĢå°ıåħĥç´ł": 3418,
      "æľĢå°ıåįķä½į": 3419,
      "æľĢå°ıçĶŁæĪĲæłĳ": 3420,
      "æľĢåĲİæĶ¾ä¸Ĭåİ»": 3421,
      "æŃ¥éª¤åĴĮæĸ¹æ³ķ": 3422,
      "è½»éĩı": 3423,
      "åĢºä¼ļå¯¼èĩ´": 3424,
      "èİ·åıĸæķ°æį®": 3425,
      "èİ·åıĸçĶ¨æĪ·åĪĹè¡¨": 3426,
      "åħ¨å±Ģè§£éĩĬåĻ¨": 3427,
      "åıªæľīmain": 3428,
      "åıªæľīå¼ĢåĴĮåħ³ä¸¤": 3429,
      "è°ĥçĶ¨f": 3430,
      "è°ĥçĶ¨yield": 3431,
      "éļıæľºä¸¢å¼": 3432,
      "éĥ½æĺ¯ç®Ĺæ³ķ": 3433,
      "éĥ½æĺ¯è´¨æķ°": 3434,
      "æĬĢæľ¯å¼ĤæŀĦ": 3435,
      "ä»»åĬ¡è°ĥåº¦": 3436,
      "Serverè¿ĶåĽŀ": 3437,
      "ServeråıĳéĢģFIN": 3438,
      "ä¸¤ä¸ªæķ°åŃĹ": 3439,
      "åĪłéĻ¤éĥ½æĺ¯O": 3440,
      "åĪłéĻ¤å¹³åĿĩ": 3441,
      "äºĭåĬ¡æĺ¯ä¸Ģç»ĦSQL": 3442,
      "çĭ¬ç«ĭéĥ¨ç½²": 3443,
      "Redisæĺ¯åĨħåŃĺ": 3444,
      "kwargsæĺ¯ä»Ģä¹Ī": 3445,
      "kwargsæİ¥æĶ¶ä»»æĦıæķ°éĩıçļĦ": 3446,
      "åŁºæľ¬åı¯çĶ¨": 3447,
      "èĬĤçłģ": 3448,
      "åĪ¤æĸŃæĸ¹æ³ķ": 3449,
      "åĪ¤æĸŃè´¨æķ°çļĦæĸ¹æ³ķ": 3450,
      "æĺ¯åĲ¦æĺ¯": 3451,
      "ä»Ģä¹Īæĺ¯PythonçļĦçĶŁæĪĲåĻ¨": 3452,
      "ä»Ģä¹Īæĺ¯PythonçļĦè£ħé¥°åĻ¨": 3453,
      "ä»Ģä¹Īæĺ¯PythonçļĦGIL": 3454,
      "ä»Ģä¹Īæĺ¯PythonçļĦåŀĥåľ¾åĽŀæĶ¶": 3455,
      "åĪĨå¸ĥå¼ıéĶģ": 3456,
      "éģįåİĨå¾ĹåĪ°æľīåºı": 3457,
      "éļĶç¦»æĢ§": 3458,
      "éļĶç¦»çº§åĪ«": 3459,
      "2Â²": 3460,
      "2Â³": 3461,
      "2Â¹": 3462,
      "Based": 3463,
      "Basically": 3464,
      "CDN": 3465,
      "CDæĮģç»Ń": 3466,
      "CIæĮģç»Ń": 3467,
      "Content": 3468,
      "CAPæĺ¯åĪĨå¸ĥå¼ı": 3469,
      "CAPä¸Ńä¸Ģèĩ´æĢ§": 3470,
      "GETèİ·åıĸ": 3471,
      "POSTåĪĽå»º": 3472,
      "SSL": 3473,
      "ful": 3474,
      "mainä¿ĿæĬ¤": 3475,
      "rity": 3476,
      "vaScript": 3477,
      "çĦ¶æķ°": 3478,
      "ä»¶å¼Ģåıĳä¸Ńå¸¸è§ģ": 3479,
      "è®ºä¸Ńè¾ĵåħ¥": 3480,
      "ä¹ĺä»¥": 3481,
      "ä¹Ĳè§ĤéĶģåģĩè®¾åĨ²çªģ": 3482,
      "ä¹Ĳè§ĤéĶģéĢĤåĲĪè¯»": 3483,
      "è¯¯å·®": 3484,
      "è¯Ńä¹īè¡¨ç¤º": 3485,
      "è¿ĶåĽŀåĢ¼": 3486,
      "è¿ĶåĽŀJSO": 3487,
      "åĲįè¯į": 3488,
      "ç»ĪæŃ¢æĿ¡ä»¶": 3489,
      "çĶ¨å¤ļè¿Ľç¨ĭ": 3490,
      "æķ°åŃĹæĺ¯åĲ¦æĺ¯": 3491,
      "å°ģéĹŃ": 3492,
      "å®īåħ¨å±Ĥ": 3493,
      "è§£åĨ³æ·±å": 3494,
      "ç¼©å®¹": 3495,
      "éĢļä¿¡çļĦè§Ħ": 3496,
      "æĿĥéĻĲæł¡éªĮ": 3497,
      "åĪĨæĶ¯æ¨¡åŀĭ": 3498,
      "åĪĨæĶ¯çŃĸçķ¥": 3499,
      "åĪĨæ²»åĲĪå¹¶": 3500,
      "åĪĨæ²»å°Ĩå¤§éĹ®é¢ĺ": 3501,
      "åĬłå¿«è®Ńç»ĥå¹¶": 3502,
      "åĬłå¿«æķ°æį®æŁ¥æī¾": 3503,
      "åĬłå¿«è®¿éĹ®éĢŁåº¦": 3504,
      "è¯įåµĮåħ¥å°Ĩè¯įè½¬": 3505,
      "ä¼łåħ¥targ": 3506,
      "ä¼łè¾ĵåįıè®®": 3507,
      "åı¯åıĺå¯¹è±¡": 3508,
      "å¦Ĥä½ķéĺ²æŃ¢è¿ĩæĭŁåĲĪ": 3509,
      "éķľåĥıåĲ¯åĬ¨æĪĲ": 3510,
      "çİ¯å¢ĥ": 3511,
      "æŃ£ç¡®": 3512,
      "æŃ£ç¡®æĢ§": 3513,
      "æŃ£åĪĻåĮĸ": 3514,
      "é¡¶å±Ĥ": 3515,
      "é¡¹æķ°": 3516,
      "è¿Ľç¨ĭéĹ´ä¸įåħ±äº«": 3517,
      "æī©ç¼©å®¹": 3518,
      "æī§è¡ĮPythonåŃĹ": 3519,
      "æķ°æį®åºĵç¼ĵåŃĺ": 3520,
      "è¯ģä¹¦çĶ±CA": 3521,
      "å·¥åħ·": 3522,
      "å·¥åİĤ": 3523,
      "åģ¶æķ°æĺ¯èĥ½è¢«": 3524,
      "åıĳçİ°bu": 3525,
      "èĩªåĬ¨åıĳå¸ĥ": 3526,
      "èĩªåĬ¨è½¬è´¦": 3527,
      "æµħæĭ·è´Ŀåıªå¤įåĪ¶": 3528,
      "æįŁå¤±åĩ½æķ°è¡¡éĩıé¢Ħæµĭ": 3529,
      "Pythonä¸Ńæ·±æĭ·è´Ŀ": 3530,
      "Pythonä¸ŃliståĴĮtuple": 3531,
      "sistent": 3532,
      "çĪ¶ç±»": 3533,
      "æ·±æĭ·è´ĿéĢĴå½Ĵå¤įåĪ¶": 3534,
      "éĤ»å±ħçļĦéĤ»å±ħ": 3535,
      "ClientåıĳéĢģFIN": 3536,
      "ClientåıĳéĢģSYN": 3537,
      "ClientåıĳéĢģACKç¡®è®¤": 3538,
      "åıĮæĸ¹åįıåķ": 3539,
      "åħĥç´łä»įæĺ¯": 3540,
      "å¸¸çĶ¨åľºæĻ": 3541,
      "å¸¸çĶ¨åĪĨæĶ¯æ¨¡åŀĭ": 3542,
      "è£ħé¥°åĻ¨æĺ¯": 3543,
      "æģ¶æĦıç½ĳç«Ļ": 3544,
      "æģ¶æĦıé¡µéĿ¢": 3545,
      "éĵ¾åľ°åĿĢæ³ķ": 3546,
      "æĺ¯ä¸Ģç§įAPI": 3547,
      "ç»ıåħ¸åºĶçĶ¨": 3548,
      "æľįåĬ¡åĻ¨ç¼ĵåŃĺ": 3549,
      "æľįåĬ¡åĻ¨éĶĻè¯¯": 3550,
      "CSRFæĺ¯è·¨ç«Ļ": 3551,
      "featureçĭ¬ç«ĭå¼Ģåıĳ": 3552,
      "æĤ²è§ĤéĶģåģĩè®¾åĨ²çªģ": 3553,
      "æĤ²è§ĤéĶģéĢĤåĲĪåĨĻå¤ļ": 3554,
      "æ¨¡æĿ¿æĸ¹æ³ķ": 3555,
      "æ¿Ģæ´»åĩ½æķ°å¢ŀåĬłéĿŀçº¿æĢ§": 3556,
      "ä¸īæ¬¡æĺ¯ä¸ºäºĨ": 3557,
      "åĨ²çªģå¤ĦçĲĨæĸ¹æ³ķ": 3558,
      "ä¾ĿèµĸæĬ½è±": 3559,
      "Dropoutéļıæľºä¸¢å¼": 3560,
      "Code": 3561,
      "Pod": 3562,
      "Prim": 3563,
      "RESTæĺ¯ä¸Ģç§įAPI": 3564,
      "Throu": 3565,
      "XSSæĺ¯è·¨ç«Ļ": 3566,
      "okie": 3567,
      "olation": 3568,
      "tions": 3569,
      "âī¤": 3570,
      "âī¥": 3571,
      "ç¥¨": 3572,
      "èº«æķ´éĻ¤": 3573,
      "é£Łè°": 3574,
      "ĪĲåĬŁ": 3575,
      "Ļ»å½ķéĵ¶è¡Į": 3576,
      "ä¸²è¡ĮåĮĸ": 3577,
      "çĶ¨æĪ·è®¿éĹ®æģ¶æĦıé¡µéĿ¢": 3578,
      "åħ¬å¼ı": 3579,
      "ä¹°ç¥¨": 3580,
      "ä¹ĭéĹ´çļĦåħ³ç³»": 3581,
      "ä¹ĭéĹ´åĬłäºĨ": 3582,
      "æĺ¯ä¸ºäºĨä¿Ŀè¯ģçº¿ç¨ĭå®īåħ¨": 3583,
      "æĺ¯å®¹åĻ¨åĮĸæĬĢæľ¯": 3584,
      "è¯ĨåĪ«": 3585,
      "æľªæī¾åĪ°": 3586,
      "ç»ķè¿ĩçĻ»å½ķ": 3587,
      "ç»ķè¿ĩéªĮè¯ģæĪĸ": 3588,
      "æķ°ç»Ħä½įç½®": 3589,
      "æķ°ç»ĦåŃĺéĵ¾è¡¨": 3590,
      "äººæĶ»åĩ»": 3591,
      "ä»Ģä¹Īæĺ¯TCPåĽĽæ¬¡æĮ¥æīĭ": 3592,
      "ä»Ģä¹Īæĺ¯TCPä¸īæ¬¡æı¡æīĭ": 3593,
      "åħ³éĹŃåıĳéĢģéĢļéģĵ": 3594,
      "å®ļä¹īä¸Ĭ": 3595,
      "è®¡ç®ĹæľºåĨħéĥ¨": 3596,
      "è®¡ç®Ĺæľºç®Ĺæ³ķè¦ģ": 3597,
      "åĪĨè§£ä¸ºå°ıéĹ®é¢ĺ": 3598,
      "åĪĨä¸ºæľĢå¤§": 3599,
      "åĪĨåĮºå®¹éĶĻ": 3600,
      "è¦ģä¹Īåħ¨éĥ¨æ": 3601,
      "è¦ģä¹Īåħ¨éĥ¨å¤±": 3602,
      "åĽ¾çĶ±é¡¶": 3603,
      "æ¯ıæ¬¡è¯·æ±Ĥçĭ¬ç«ĭ": 3604,
      "æ¯ıæ¬¡è°ĥçĶ¨yield": 3605,
      "å¤§äºİæł¹": 3606,
      "ç³»ç»ŁçļĦä¸īä¸ª": 3607,
      "è¿ĩå¤ļç´¢å¼ķå½±åĵįåĨĻåħ¥": 3608,
      "å¦Ĥä½ķåĪ¤æĸŃæ¨¡åŀĭå¥½åĿı": 3609,
      "å¦Ĥä½ķåĪ¤æĸŃä¸Ģä¸ªæķ°æĺ¯ä¸įæĺ¯": 3610,
      "æľīåºıéĽĨåĲĪ": 3611,
      "æľīä¸¤ä¸ªåŃ©åŃĲ": 3612,
      "æľīä¸¤ä¸ªè¦ģç´ł": 3613,
      "å¾ªçİ¯å¼ķçĶ¨": 3614,
      "å¾ªçİ¯åŀĥåľ¾åĽŀæĶ¶": 3615,
      "ç§įçĬ¶æĢģ": 3616,
      "éĢĤçĶ¨äºİI": 3617,
      "éĢĤçĶ¨äºİCPUå¯ĨéĽĨåŀĭä»»åĬ¡": 3618,
      "ä¸ŃåºıéģįåİĨå¾ĹåĪ°æľīåºı": 3619,
      "ä¿ĿæĬ¤åħ±äº«èµĦæºĲ": 3620,
      "éĺ¶åĩ½æķ°": 3621,
      "åľ¨åĩ½æķ°åıĤæķ°ä¼ł": 3622,
      "æĮīå±Ĥæ¬¡": 3623,
      "åĨħéĥ¨åħĥç´łä»įæĺ¯": 3624,
      "è¡¨è¾¾å¼ıæ±Ĥ": 3625,
      "è¡¨è¾¾å¼ıæłĳ": 3626,
      "CPUå¯ĨéĽĨåŀĭä»»åĬ¡çĶ¨å¤ļè¿Ľç¨ĭ": 3627,
      "éĹ®é¢ĺçļĦæľĢä½³è§£åĨ³": 3628,
      "éĹ®é¢ĺçļĦæŃ¥éª¤åĴĮæĸ¹æ³ķ": 3629,
      "åĨįè®¿éĹ®éĤ»å±ħçļĦéĤ»å±ħ": 3630,
      "åĨįè®¿éĹ®æģ¶æĦıç½ĳç«Ļ": 3631,
      "è½¯çĬ¶æĢģ": 3632,
      "çŃīå¾ħç»ĵæĿŁ": 3633,
      "æİ¥åı£è¦ģå°ı": 3634,
      "æįŁå¤±è¶Ĭå°ıé¢Ħæµĭ": 3635,
      "æįŁå¤±è¶Ĭå°ıè¶Ĭå¥½": 3636,
      "ä»£çłģæıĲäº¤èĩªåĬ¨æ": 3637,
      "éĽĨæĪĲæµĭè¯ķ": 3638,
      "æĸĩæľ¬ä¿¡æģ¯": 3639,
      "æĸĩæľ¬ä¼łè¾ĵåįıè®®": 3640,
      "readå¯¹è±¡": 3641,
      "readingæ¨¡åĿĹ": 3642,
      "å¼ĢæĶ¾åľ°åĿĢæ³ķ": 3643,
      "å¼ĢæĶ¾å¯¹ä¿®æĶ¹": 3644,
      "æ±Ĥè§£åĲİåĲĪå¹¶": 3645,
      "éĢĢåĮĸæĪĲéĵ¾è¡¨": 3646,
      "sionåŃĹæ®": 3647,
      "ç¡®è®¤åıĮæĸ¹éĥ½": 3648,
      "å°Ĩå¤§éĹ®é¢ĺåĪĨè§£ä¸ºå°ıéĹ®é¢ĺ": 3649,
      "æĮģä¹ħæĢ§": 3650,
      "æĮģä¹ħåĮĸ": 3651,
      "éĢīæĭ©æİĴ": 3652,
      "éĢīæĭ©æľĢå°ı": 3653,
      "äºĮè¿ĽåĪ¶è½¬åįģè¿ĽåĪ¶": 3654,
      "äºĮè¿ĽåĪ¶è½¬æį¢ä¸ºåįģè¿ĽåĪ¶": 3655,
      "è¿ŀæİ¥éľĢè¦ģåĽĽæ¬¡æĮ¥æīĭ": 3656,
      "è¿ŀæİ¥éľĢè¦ģä¸īæ¬¡æı¡æīĭ": 3657,
      "ä¸»è¦ģçĶ¨äºİæİĴåĪĹ": 3658,
      "è¿ĺæľīåĪĨä»£": 3659,
      "è¿ĺæľīå¾ªçİ¯åŀĥåľ¾åĽŀæĶ¶": 3660,
      "æŀĦå»ºåĪ°å¤Ħ": 3661,
      "ä¼ĺåħĪçº§éĺŁåĪĹ": 3662,
      "è®¾è®¡æ¨¡å¼ıæĺ¯è½¯": 3663,
      "éĤ»æİ¥è¡¨": 3664,
      "éĤ»æİ¥çŁ©éĺ": 3665,
      "SQLæ³¨åħ¥æĺ¯æĶ»åĩ»": 3666,
      "æķ´éĻ¤çļĦæķ°": 3667,
      "ä¼ĺåĮĸåĻ¨çļĦä½ľçĶ¨": 3668,
      "å¸¸è§ģæİĴåºıç®Ĺæ³ķ": 3669,
      "usersåĪĽå»ºçĶ¨æĪ·": 3670,
      "usersèİ·åıĸçĶ¨æĪ·åĪĹè¡¨": 3671,
      "ç½ĳç»ľå±Ĥæķ°": 3672,
      "æĬĢæľ¯åĢºæĺ¯ä¸º": 3673,
      "ServeråĽŀå¤įACK": 3674,
      "ServeråĽŀå¤įSYN": 3675,
      "çĭ¬ç«ĭå¼Ģåıĳéĥ¨ç½²": 3676,
      "åŁºä¾ĭæĺ¯": 3677,
      "åĵĪå¸Įè¡¨éĢļè¿ĩåĵĪå¸Į": 3678,
      "SOLIDæĺ¯éĿ¢": 3679,
      "æ»¡äºĮåıīæłĳ": 3680,
      "çĦ¶åıĪåĪ°è¾¾": 3681,
      "çĦ¶åĲİæ±ĤåĴĮ": 3682,
      "å°ģè£ħæĪĲtuple": 3683,
      "å°ģè£ħæĪĲdict": 3684,
      "å¯¼èĩ´éĶĻè¯¯": 3685,
      "è´ªå¿ĥç®Ĺæ³ķæ¯ıæŃ¥": 3686,
      "åĽłä¸ºçĶµè·¯": 3687,
      "åŃĺåĤ¨çĥŃçĤ¹æķ°æį®": 3688,
      "ä¸įæĺ¯è´¨æķ°åĽłä¸º": 3689,
      "æ®ĭå·®è¿ŀæİ¥å¼ķåħ¥è·": 3690,
      "1234": 3691,
      "1235": 3692,
      "BASEæĺ¯å¯¹": 3693,
      "Dockeræĺ¯å®¹åĻ¨åĮĸæĬĢæľ¯": 3694,
      "PUTæĽ´æĸ°": 3695,
      "åĶ¯ä¸Ģç´¢å¼ķ": 3696,
      "åĶ¯ä¸ĢæĢ§æ£Ģ": 3697,
      "åı¯èĥ½çļĦåĪĨæĶ¯": 3698,
      "åĽŀæº¯æĺ¯å°": 3699,
      "æµıè§ĪåĻ¨ç¼ĵåŃĺ": 3700,
      "æµıè§ĪåĻ¨åĴĮæľįåĬ¡åĻ¨": 3701,
      "Pythonä¸Ńå¦Ĥä½ķå®ŀçİ°å¤ļçº¿ç¨ĭ": 3702,
      "Pythonä¸Ńå¦Ĥä½ķå®ŀçİ°å¤ļè¿Ľç¨ĭ": 3703,
      "æĥħåĨµæŁ¥æī¾": 3704,
      "decoratoræĶ¾åľ¨åĩ½æķ°": 3705,
      "ocesså¯¹è±¡": 3706,
      "ä¼ĺåĮĸåĻ¨æĽ´æĸ°æ¨¡åŀĭåıĤæķ°": 3707,
      "èµ°ä¸įéĢļå°±åĽŀéĢĢ": 3708,
      "èµ°ä¸įéĢļå°±éĢĢåĽŀä¸Ĭä¸ĢæŃ¥": 3709,
      "Availabili": 3710,
      "DELETEåĪłéĻ¤": 3711,
      "')</": 3712,
      "'='": 3713,
      "+...+": 3714,
      "2âģ°": 3715,
      "={'": 3716,
      "AOF": 3717,
      "Atomic": 3718,
      "Aside": 3719,
      "Behin": 3720,
      "Cache": 3721,
      "Dijk": 3722,
      "Duration": 3723,
      "Dä¾ĿèµĸåĢĴç½®": 3724,
      "Deployment": 3725,
      "Eventually": 3726,
      "Eureka": 3727,
      "Generation": 3728,
      "HttpOn": 3729,
      "HBase": 3730,
      "Ingre": 3731,
      "Isolation": 3732,
      "Iæİ¥åı£éļĶç¦»": 3733,
      "JavaScript": 3734,
      "Jenkin": 3735,
      "Kruskal": 3736,
      "Karatsub": 3737,
      "LRU": 3738,
      "LéĩĮæ°ıæ": 3739,
      "Memcach": 3740,
      "Oå¼ĢéĹŃ": 3741,
      "Oå¯ĨéĽĨåŀĭæīįçĶ¨å¤ļ": 3742,
      "Prepar": 3743,
      "PipeéĢļä¿¡": 3744,
      "Partition": 3745,
      "PATCH": 3746,
      "Soft": 3747,
      "Såįķä¸Ģèģ": 3748,
      "Trunk": 3749,
      "TIME": 3750,
      "WAITçŃīå¾ħ": 3751,
      "[]ï¼Į": 3752,
      "curity": 3753,
      "down": 3754,
      "ferer": 3755,
      "hotfi": 3756,
      "join": 3757,
      "ltiprocess": 3758,
      "nä¸ºæŃ¢": 3759,
      "next": 3760,
      "push": 3761,
      "session": 3762,
      "sæĺ¯å®¹åĻ¨ç¼ĸæİĴ": 3763,
      "¡èĢĮéĿŀåħ·": 3764,
      "¢éĤ£å¥": 3765,
      "°ĨåºĶçĶ¨æĭĨåĪĨä¸º": 3766,
      "³è·ĥè¿ŀæİ¥": 3767,
      "·åĮ¹éħį": 3768,
      "¹ç»ĦæĪĲ": 3769,
      "âĪļ": 3770,
      "åĵįåºĶæ¨¡å¼ı": 3771,
      "å£°æĺİå¼ıæĽ´æĸ°": 3772,
      "æļĤåģľ": 3773,
      "ç©ºéĹ´å¤įæĿĤåº¦": 3774,
      "èĥĮåĮħ": 3775,
      "èĦļæľ¬": 3776,
      "èıľçļĦ": 3777,
      "éĴ¥": 3778,
      "Ġstate": 3779,
      "Ġrange": 3780,
      "ĠCookie": 3781,
      "ĠPolicy": 3782,
      "ĠReview": 3783,
      "ĠAvailable": 3784,
      "ĠActions": 3785,
      "ĠSecurity": 3786,
      "ĠToken": 3787,
      "Ġconsistent": 3788,
      "Ġtoleranc": 3789,
      "Ĥæ¬¡çĦ¶åĲİæ±ĤåĴĮ": 3790,
      "ĥç¥ŀç»ı": 3791,
      "ĦåĪ°æķ°ç»Ħä½įç½®": 3792,
      "Ĩå¯¹ç§°å¯Ĩ": 3793,
      "Įè´£": 3794,
      "įåĢºä¸Ģæł·": 3795,
      "İŁåĪĻ": 3796,
      "Ŀè¯ķæīĢæľīåı¯èĥ½çļĦ": 3797,
      "ŀĦå»ºæµĭè¯ķ": 3798,
      "ŁéĻĲåĪ¶äºĨå¤ļçº¿ç¨ĭ": 3799,
      "Ńä»£åĻ¨": 3800,
      "Ńīäºİåħ¨å±ĢæľĢä¼ĺ": 3801,
      "¨æīĢæľīåĢ¼": 3802,
      "ä¸įçŃīäºİåħ¨å±ĢæľĢä¼ĺ": 3803,
      "ï¼Į...ï¼Į": 3804,
      "åı¦ä¸Ģç§įæĸ¹æ³ķ": 3805,
      "ä½Ĩä¹ŁéĻĲåĪ¶äºĨå¤ļçº¿ç¨ĭ": 3806,
      "åĪ»åıªæľīä¸Ģä¸ªçº¿ç¨ĭ": 3807,
      "ä»½åıĳèµ·è¯·æ±Ĥ": 3808,
      "éĢ»è¾ĳ": 3809,
      "éĢīåŁºåĩĨåĪĨåĮº": 3810,
      "æĺĵæĩĤ": 3811,
      "æĺ¯å¥ĩæķ°": 3812,
      "æĺ¯éħįå¯¹": 3813,
      "æĺ¯åħ¶ä»ĸå¼ĢåıĳèĢħ": 3814,
      "è¯±å¯¼çĶ¨æĪ·è®¿éĹ®æģ¶æĦıé¡µéĿ¢": 3815,
      "æķħéļľéļĶç¦»": 3816,
      "å¤ĸéĥ¨è®¿éĹ®": 3817,
      "çļĦè¿Ńä»£åĻ¨": 3818,
      "çļĦåħĪæĭ¿èµ°": 3819,
      "çļĦå¹Ĥæ¬¡çĦ¶åĲİæ±ĤåĴĮ": 3820,
      "çļĦèĩªçĦ¶æķ°": 3821,
      "çļĦçĽ®å½ķ": 3822,
      "çļĦäººåħĪä¹°": 3823,
      "è¿Ļæĺ¯ä¸Ģä¸ªçŃīå·®": 3824,
      "åĨĴæ³¡æİĴåºı": 3825,
      "çĶ¨versionåŃĹæ®": 3826,
      "çĶ¨è®¡æķ°ä¸º": 3827,
      "çĶ¨å¼ķçĶ¨è®¡æķ°åĽŀæĶ¶åĨħåŃĺ": 3828,
      "çĶ¨yieldè¿ĶåĽŀåĢ¼": 3829,
      "çĶ¨URLè¡¨ç¤ºèµĦæºĲ": 3830,
      "æķ°åĪĹæ±ĤåĴĮ": 3831,
      "æķ°åŃ¦é¢ĺçļĦè§£": 3832,
      "æķ°ä¹ĺæ³ķ": 3833,
      "å°±åĥıä¹¦": 3834,
      "ä»Ģä¹Īæĺ¯HTTPåįıè®®": 3835,
      "ä»Ģä¹Īæĺ¯GitåĪĨæĶ¯çŃĸçķ¥": 3836,
      "ä»Ģä¹Īæĺ¯å¾®æľįåĬ¡": 3837,
      "ä»Ģä¹Īæĺ¯BFSåĴĮDFS": 3838,
      "ä»Ģä¹Īæĺ¯CAPçĲĨè®º": 3839,
      "ä»Ģä¹Īæĺ¯ä¹Ĳè§ĤéĶģåĴĮæĤ²è§ĤéĶģ": 3840,
      "ä»Ģä¹Īæĺ¯åĪĨæ²»ç®Ĺæ³ķ": 3841,
      "ä»Ģä¹Īæĺ¯CSRFæĶ»åĩ»": 3842,
      "ä»Ģä¹Īæĺ¯RESTful": 3843,
      "ä»Ģä¹Īæĺ¯XSSæĶ»åĩ»": 3844,
      "ä»Ģä¹Īæĺ¯SOLIDåİŁåĪĻ": 3845,
      "ä»Ģä¹Īæĺ¯BASEçĲĨè®º": 3846,
      "ä»Ģä¹Īæĺ¯åĽŀæº¯ç®Ĺæ³ķ": 3847,
      "ä»Ģä¹Īæĺ¯Batch": 3848,
      "ä»Ģä¹Īæĺ¯Kubernet": 3849,
      "ä»Ģä¹Īæĺ¯MySQLç´¢å¼ķ": 3850,
      "åŃĲç±»åı¯æĽ¿æį¢": 3851,
      "å¯»æī¾æľĢä¼ĺåıĤæķ°éħįç½®": 3852,
      "æĸĲæ³¢éĤ£å¥": 3853,
      "ä¸ĭä¸Ģä¸ªä½įç½®": 3854,
      "çĲĨæĥ³æĥħåĨµæŁ¥æī¾": 3855,
      "æİ¢æµĭä¸ĭä¸Ģä¸ªä½įç½®": 3856,
      "å¦ĤåĿĲæłĩ": 3857,
      "å¦Ĥåħ«çļĩåĲİ": 3858,
      "å¯¹æī©å±ķå¼ĢæĶ¾å¯¹ä¿®æĶ¹": 3859,
      "åĪĨåĪ«æ±Ĥè§£åĲİåĲĪå¹¶": 3860,
      "åĪĨæĪĲå°ıéĹ®é¢ĺ": 3861,
      "åĪĨäº«çŁ¥è¯Ĩ": 3862,
      "è¦ģè¯ģæĺİè´ªå¿ĥ": 3863,
      "åĬłå¯ĨéĢļä¿¡": 3864,
      "ä¸ĢæĹ¶åĪ»åıªæľīä¸Ģä¸ªçº¿ç¨ĭ": 3865,
      "ä¸Ģç»Ħæķ°æį®æĮī": 3866,
      "ä¸Ģæ¬¡æŀĦå»ºåĪ°å¤Ħ": 3867,
      "ä¸Ģä»¶äºĭ": 3868,
      "ä¸Ģç§įçī¹æ®Ĭ": 3869,
      "ä¸ĢçĽ´å¾Ģä¸ĭ": 3870,
      "ä¸Ģå®ļé¡ºåºıæİĴåĪĹ": 3871,
      "å¤§æķ´æķ°ä¹ĺæ³ķ": 3872,
      "å¤§æĶ¾åĪ°åīį": 3873,
      "åı¯éĩįå¤įè¯»": 3874,
      "å¦Ĥä½ķç¨³å®ļæ¨¡åŀĭè®Ńç»ĥ": 3875,
      "å¦Ĥä½ķè¡¨ç¤ºæĸĩæľ¬ä¿¡æģ¯": 3876,
      "å¦Ĥä½ķå°ĨäºĮè¿ĽåĪ¶è½¬æį¢ä¸ºåįģè¿ĽåĪ¶": 3877,
      "å¦Ĥä½ķåĬłæ·±ç½ĳç»ľå±Ĥæķ°": 3878,
      "å¦Ĥä½ķè®©æ¨¡åŀĭåŃ¦åĪ°å¤įæĿĤ": 3879,
      "åħĪè®¿éĹ®æīĢæľīéĤ»å±ħ": 3880,
      "åħĪæĵįä½ľåĨįæ£ĢæŁ¥": 3881,
      "åħĪæĿ¥çļĦäººåħĪä¹°": 3882,
      "åħĪåĬłéĶģåĨįæĵįä½ľ": 3883,
      "æľīéĻĲæŃ¥éª¤": 3884,
      "æıĲåīįæİĴéĻ¤ä¸į": 3885,
      "åĴĮéĩįå¤įè®¡ç®ĹéĹ®é¢ĺ": 3886,
      "åĴĮdequeue": 3887,
      "åĴĮéĢĴå½Ĵå¼ı": 3888,
      "åĴĮTCPä¹ĭéĹ´åĬłäºĨ": 3889,
      "åĴĮåı³åŃ©åŃĲ": 3890,
      "åĴĮæľĢå°ıåłĨ": 3891,
      "åĴĮæµħæĭ·è´ĿçļĦåĮºåĪ«": 3892,
      "åĴĮä¾ĿèµĸæīĵåĮħ": 3893,
      "åĴĮå®ĥæľ¬èº«æķ´éĻ¤": 3894,
      "èĥ½æĶ¶åıĳæķ°æį®": 3895,
      "èĥ½åĪ©çĶ¨å¤ļæł¸CPU": 3896,
      "ç§Ĵçº§åĲ¯åĬ¨": 3897,
      "éĢĤéħįåĻ¨": 3898,
      "å°ıäºİæł¹": 3899,
      "ä¸ºä»Ģä¹Īæ¨¡åŀĭä¼ļè¿ĩæĭŁåĲĪ": 3900,
      "ä¸ºä»Ģä¹Īæ®ĭå·®æľīæķĪ": 3901,
      "ä¸ºä»Ģä¹ĪçĶ¨åĲĳéĩıè¡¨ç¤º": 3902,
      "å½ĵåīįæľĢä¼ĺè§£": 3903,
      "åŃĺåŃĲéĹ®é¢ĺç»ĵæŀľéģ¿åħįéĩįå¤į": 3904,
      "è¿Ľä¸ĢçļĦè®¡æķ°ç³»ç»Ł": 3905,
      "éĢļè¿ĩä¿ĿåŃĺåŃĲéĹ®é¢ĺç»ĵæŀľéģ¿åħįéĩįå¤į": 3906,
      "éĢļè¿ĩè¯įåµĮåħ¥åĲĳéĩıåĮĸ": 3907,
      "åıĤæķ°åĮĸæŁ¥è¯¢": 3908,
      "åıĤæķ°è¿ĩå¤ļæĪĸæķ°æį®è¿ĩå°ĳ": 3909,
      "åıĤæķ°çļĦé«ĺéĺ¶åĩ½æķ°": 3910,
      "æ¯Ķè¾ĥäº¤æį¢": 3911,
      "å¿«çħ§": 3912,
      "æīĢä»¥è¦ģè¯ģæĺİè´ªå¿ĥ": 3913,
      "ä½¿åĲĮä¸ĢæĹ¶åĪ»åıªæľīä¸Ģä¸ªçº¿ç¨ĭ": 3914,
      "æľºæŀĦé¢ģåıĳ": 3915,
      "åĮĸå±Ĥè¾ĵåħ¥": 3916,
      "ä¸ŃæıĴåħ¥SQLä»£çłģ": 3917,
      "ä¸ŃåŃĺåĤ¨æīĢæľīåĢ¼": 3918,
      "ä¿ĿACKåĪ°è¾¾": 3919,
      "åĲİæľŁéľĢè¦ģ": 3920,
      "æ³ķè¡¨ç¤ºå¤įæĿĤåħ³ç³»": 3921,
      "æľĢå¤ļæľīä¸¤ä¸ªåŃ©åŃĲ": 3922,
      "æľĢåĿıO": 3923,
      "æľĢéķ¿åħ¬åħ±åŃĲåºıåĪĹ": 3924,
      "æľĢå°ıæĿĥéĻĲåİŁåĪĻ": 3925,
      "MSLç¡®ä¿ĿACKåĪ°è¾¾": 3926,
      "ä»¥çĶ¨æĪ·èº«ä»½åıĳèµ·è¯·æ±Ĥ": 3927,
      "çĽ¸éĤ»æ¯Ķè¾ĥäº¤æį¢": 3928,
      "±Ĥç½ĳç»ľéĢĢåĮĸ": 3929,
      "åı¯ä»¥ä½¿çĶ¨åħ¬å¼ı": 3930,
      "åı¯ä»¥å¢ŀåĪłæĶ¹": 3931,
      "é¢ĺæŃ¥éª¤éĥ½æĺ¯ç®Ĺæ³ķ": 3932,
      "åľ¨ä¸įä¿®æĶ¹åİŁåĩ½æķ°çļĦæĥħåĨµ": 3933,
      "åľ¨HTTPåĴĮTCPä¹ĭéĹ´åĬłäºĨ": 3934,
      "æĮĳæĪĺ": 3935,
      "æĹ¥å¿Ĺ": 3936,
      "ä½¿çĶ¨threadingæ¨¡åĿĹ": 3937,
      "ä½¿çĶ¨éĿŀçº¿æĢ§æ¿Ģæ´»åĩ½æķ°": 3938,
      "ä½¿çĶ¨DropoutæŃ£åĪĻåĮĸ": 3939,
      "ä½¿çĶ¨ä¼ĺåĮĸåĻ¨æĽ´æĸ°åıĤæķ°": 3940,
      "ä½¿çĶ¨multiprocess": 3941,
      "ľĢä¼ĺä¸įçŃīäºİåħ¨å±ĢæľĢä¼ĺ": 3942,
      "åįķåħĥæµĭè¯ķ": 3943,
      "éĶ®æĺłå°ĦåĪ°æķ°ç»Ħä½įç½®": 3944,
      "åĻ¨å¤ĦçĲĨå¾ªçİ¯å¼ķçĶ¨": 3945,
      "çĤ¹åĴĮè¾¹ç»ĦæĪĲ": 3946,
      "ä¸įè¿ĺåĢºä¼ļå¯¼èĩ´": 3947,
      "ä¸įåľ¨åĨħåŃĺä¸ŃåŃĺåĤ¨æīĢæľīåĢ¼": 3948,
      "éľĢè¦ģåıĮæĸ¹éĥ½åħ³éĹŃåıĳéĢģéĢļéģĵ": 3949,
      "å¤±æķĪçļĦè¿ŀæİ¥è¯·æ±Ĥçªģ": 3950,
      "åħ³éĶ®åŃĹåıĤæķ°": 3951,
      "åĩ½æķ°è°ĥçĶ¨æłĪ": 3952,
      "åĩ½æķ°å°ĨéĶ®æĺłå°ĦåĪ°æķ°ç»Ħä½įç½®": 3953,
      "åĩ½æķ°ä½ľä¸ºåıĤæķ°çļĦé«ĺéĺ¶åĩ½æķ°": 3954,
      "çŃīä»·äºİfunc": 3955,
      "å»ºéĢłèĢħ": 3956,
      "æ³¨åħ¥æģ¶æĦıJavaScript": 3957,
      "éªĮè¯ģReferer": 3958,
      "æ¯Ķå¦ĤåģļèıľçļĦ": 3959,
      "æ¯Ķå¦Ĥdef": 3960,
      "æ¯Ķå¦Ĥéĺ¶ä¹ĺ": 3961,
      "æ¯Ķå¦ĤçĶ¨æĪ·åĲįè¾ĵåħ¥": 3962,
      "æ¯Ķå¦ĤåıłçĽĺåŃĲ": 3963,
      "æ¯Ķå¦Ĥå·²çĻ»å½ķéĵ¶è¡Į": 3964,
      "æ¯Ķå¦Ĥåľ¨è¯Ħè®ºä¸Ńè¾ĵåħ¥": 3965,
      "æ¯Ķå¦ĤæİĴéĺŁä¹°ç¥¨": 3966,
      "æĹ¶ç«ĭåį³åĽŀæĶ¶": 3967,
      "æĹ¶æ»¡è¶³ä¸¤ä¸ª": 3968,
      "çľĭæįŁå¤±åĩ½æķ°åĢ¼å¤§å°ı": 3969,
      "çľĭæľĢåĲİä¸Ģä½įæķ°åŃĹæĺ¯åĲ¦æĺ¯": 3970,
      "ä¾¿äºİè®¡ç®ĹåĴĮè¯Ńä¹īè¡¨ç¤º": 3971,
      "æĸĩæ¡£": 3972,
      "è®¾è®¡åİŁåĪĻ": 3973,
      "å®ŀéĻħæĺ¯çĶŁæĪĲåĻ¨": 3974,
      "æĸ°åĬŁèĥ½": 3975,
      "èĢĮåģļçļĦå¦¥åįı": 3976,
      "æ¯ıä¸ªæľįåĬ¡çĭ¬ç«ĭéĥ¨ç½²": 3977,
      "åħ¶ä»ĸçĶ¨æĪ·è®¿éĹ®æĹ¶æī§è¡Į": 3978,
      "atement": 3979,
      "release": 3980,
      "æĭ¬åı·åĮ¹éħį": 3981,
      "æĭĵæīĳæİĴåºı": 3982,
      "åıªåģļä¸Ģä»¶äºĭ": 3983,
      "åıªèĥ½åĲĮæĹ¶æ»¡è¶³ä¸¤ä¸ª": 3984,
      "ç®Ĺæ³ķæĺ¯è§£åĨ³éĹ®é¢ĺçļĦæŃ¥éª¤åĴĮæĸ¹æ³ķ": 3985,
      "å¿«éĢŁäº¤ä»ĺèĢĮåģļçļĦå¦¥åįı": 3986,
      "è¾ĵåĩºè½¬ä¹ī": 3987,
      "Pythonä¸»è¦ģçĶ¨å¼ķçĶ¨è®¡æķ°åĽŀæĶ¶åĨħåŃĺ": 3988,
      "æİĴåºıæĺ¯å°Ĩä¸Ģç»Ħæķ°æį®æĮī": 3989,
      "çĶŁæĪĲåĻ¨æĺ¯ä¸Ģç§įçī¹æ®Ĭ": 3990,
      "siftdown": 3991,
      "æ£ĭçĽĺéĹ®é¢ĺ": 3992,
      "æĥ°æĢ§è®¡ç®Ĺ": 3993,
      "ä¸Ģä¸ªç±»åıªåģļä¸Ģä»¶äºĭ": 3994,
      "ä¸Ģä¸ªæİ¥æĶ¶åĩ½æķ°ä½ľä¸ºåıĤæķ°çļĦé«ĺéĺ¶åĩ½æķ°": 3995,
      "ä¸Ģä¸ªå¥½ç®Ĺæ³ķè¦ģæŃ£ç¡®": 3996,
      "è¡¨ç¤ºåħĥç´łä¹ĭéĹ´çļĦåħ³ç³»": 3997,
      "è¾ĵåħ¥è¿ĩæ»¤": 3998,
      "deepcopy": 3999,
      "develop": 4000,
      "çī¹æ®Ĭç±»åŀĭ": 4001,
      "éĢĴæĹ¶çļĦä¿®æĶ¹éĹ®é¢ĺ": 4002,
      "å°ĨåºĶçĶ¨åĴĮä¾ĿèµĸæīĵåĮħ": 4003,
      "å°Ĩæ¯ıä½įæķ°åŃĹä¹ĺä»¥": 4004,
      "ç¼ĵåŃĺæĺ¯ä¸´æĹ¶åŃĺåĤ¨çĥŃçĤ¹æķ°æį®": 4005,
      "ä½¿çĶ¨æ®ĭå·®è¿ŀæİ¥": 4006,
      "argsæİ¥æĶ¶ä»»æĦıæķ°éĩıçļĦä½įç½®åıĤæķ°": 4007,
      "HTTPæĺ¯è¶ħæĸĩæľ¬ä¼łè¾ĵåįıè®®": 4008,
      "edStatement": 4009,
      "éĥ½éĢīæĭ©å½ĵåīįæľĢä¼ĺè§£": 4010,
      "åĪĽå»ºProcesså¯¹è±¡": 4011,
      "åĪĽå»ºThreadå¯¹è±¡": 4012,
      "åĪĽå»ºåĲİä¸įèĥ½ä¿®æĶ¹": 4013,
      "å¯ĨçłģéļıæĦı": 4014,
      "äºĮè¿ĽåĪ¶æĺ¯éĢ¢äºĮè¿Ľä¸ĢçļĦè®¡æķ°ç³»ç»Ł": 4015,
      "ç´¢å¼ķæĺ¯æķ°æį®ç»ĵæŀĦ": 4016,
      "éĢĴå½Ĵæĺ¯åĩ½æķ°è°ĥçĶ¨èĩªå·±": 4017,
      "éĢĴå½Ĵè¦ģæ³¨æĦıæłĪæº¢åĩº": 4018,
      "ACIDçī¹æĢ§": 4019,
      "TCPåħ³éĹŃè¿ŀæİ¥éľĢè¦ģåĽĽæ¬¡æĮ¥æīĭ": 4020,
      "TCPæĺ¯åħ¨åıĮå·¥": 4021,
      "TCPå»ºç«ĭè¿ŀæİ¥éľĢè¦ģä¸īæ¬¡æı¡æīĭ": 4022,
      "çĬ¶æĢģè½¬ç§»æĸ¹ç¨ĭ": 4023,
      "æľ¬è´¨æĺ¯ä¸Ģä¸ªæİ¥æĶ¶åĩ½æķ°ä½ľä¸ºåıĤæķ°çļĦé«ĺéĺ¶åĩ½æķ°": 4024,
      "æľŁæľĽå¾ĹåĪ°åħ¨å±ĢæľĢä¼ĺ": 4025,
      "åĲĳå¯¹è±¡è®¾è®¡åİŁåĪĻ": 4026,
      "ç»Ļåĩ½æķ°å¢ŀåĬłæĸ°åĬŁèĥ½": 4027,
      "å¯¹è±¡å¼ķçĶ¨è®¡æķ°ä¸º": 4028,
      "åłĨé¡¶æĺ¯æľĢå¤§": 4029,
      "å¹³è¡¡äºĮåıīæłĳ": 4030,
      "è®¾è®¡é£İæł¼": 4031,
      "çº¿æĢ§æĹłæ³ķè¡¨ç¤ºå¤įæĿĤåħ³ç³»": 4032,
      "çº¿ç¨ĭåħ±äº«åħ¨å±Ģåıĺéĩı": 4033,
      "éĺŁåĪĹæĺ¯ä¸Ģç§įåħĪè¿ĽåħĪåĩº": 4034,
      "äºĮåıīæłĳæ¯ıä¸ªèĬĤçĤ¹æľĢå¤ļæľīä¸¤ä¸ªåŃ©åŃĲ": 4035,
      "tupleæĺ¯ä¸įåı¯åıĺçļĦ": 4036,
      "ClientåĽŀå¤įACK": 4037,
      "éĥ¨ç½²åĪ°æµĭè¯ķçİ¯å¢ĥ": 4038,
      "GitLab": 4039,
      "Service": 4040,
      "åı³åŃĲæłĳæīĢæľīèĬĤçĤ¹å¤§äºİæł¹": 4041,
      "è¯»æľªæıĲäº¤": 4042,
      "è¯»å·²æıĲäº¤": 4043,
      "è¯Ħä»·æłĩåĩĨ": 4044,
      "æłĪæĺ¯ä¸Ģç§įåĲİè¿ĽåħĪåĩº": 4045,
      "åĲĪå¹¶åīįreview": 4046,
      "å¾®æľįåĬ¡å°ĨåºĶçĶ¨æĭĨåĪĨä¸º": 4047,
      "æī¹éĩıå½Ĵä¸ĢåĮĸè§ĦèĮĥ": 4048,
      "å·¦åŃ©åŃĲåĴĮåı³åŃ©åŃĲ": 4049,
      "å·¦åŃĲæłĳæīĢæľīèĬĤçĤ¹å°ıäºİæł¹": 4050,
      "listçĶ¨äºİéľĢè¦ģæĶ¹åıĺçļĦæķ°æį®": 4051,
      "å®ŀçİ°èĩªåĬ¨éĥ¨ç½²": 4052,
      "å¼Ģåıĳè¶ĬæĿ¥è¶Ĭæħ¢": 4053,
      "å±Ģéĥ¨æľĢä¼ĺä¸įçŃīäºİåħ¨å±ĢæľĢä¼ĺ": 4054,
      "éĺ²æŃ¢å·²å¤±æķĪçļĦè¿ŀæİ¥è¯·æ±Ĥçªģ": 4055,
      "éĺ²æŃ¢ä¸ŃéĹ´äººæĶ»åĩ»": 4056,
      "DFSçĶ¨æłĪæĪĸéĢĴå½Ĵ": 4057,
      "DFSæ£ĢæŁ¥è¿ŀéĢļæĢ§": 4058,
      "åĥıéĩĳèŀįåĢºä¸Ģæł·": 4059,
      "æĻ®éĢļç´¢å¼ķ": 4060,
      "èĢħåľ¨è¾ĵåħ¥ä¸ŃæıĴåħ¥SQLä»£çłģ": 4061,
      "æľĢåĲİæĶ¾ä¸Ĭåİ»çļĦåħĪæĭ¿èµ°": 4062,
      "åħ¨å±Ģè§£éĩĬåĻ¨éĶģ": 4063,
      "åıªæľīmainåĴĮfeature": 4064,
      "åıªæľīå¼ĢåĴĮåħ³ä¸¤ç§įçĬ¶æĢģ": 4065,
      "Serverè¿ĶåĽŀè¯ģä¹¦": 4066,
      "åĪłéĻ¤å¹³åĿĩO": 4067,
      "äºĭåĬ¡æĺ¯ä¸Ģç»ĦSQLæĵįä½ľ": 4068,
      "Redisæĺ¯åĨħåŃĺæķ°æį®åºĵ": 4069,
      "kwargsæİ¥æĶ¶ä»»æĦıæķ°éĩıçļĦåħ³éĶ®åŃĹåıĤæķ°": 4070,
      "CDæĮģç»Ńäº¤ä»ĺ": 4071,
      "CIæĮģç»ŃéĽĨæĪĲ": 4072,
      "CAPæĺ¯åĪĨå¸ĥå¼ıç³»ç»ŁçļĦä¸īä¸ª": 4073,
      "CAPä¸Ńä¸Ģèĩ´æĢ§çļĦå¦¥åįı": 4074,
      "ä»¶å¼Ģåıĳä¸Ńå¸¸è§ģéĹ®é¢ĺçļĦæľĢä½³è§£åĨ³": 4075,
      "ä¹Ĳè§ĤéĶģåģĩè®¾åĨ²çªģå°ĳ": 4076,
      "ä¹Ĳè§ĤéĶģéĢĤåĲĪè¯»å¤ļåĨĻå°ĳ": 4077,
      "è¿ĶåĽŀJSON": 4078,
      "è§£åĨ³æ·±å±Ĥç½ĳç»ľéĢĢåĮĸ": 4079,
      "éĢļä¿¡çļĦè§ĦåĪĻ": 4080,
      "åĪĨæ²»å°Ĩå¤§éĹ®é¢ĺåĪĨæĪĲå°ıéĹ®é¢ĺ": 4081,
      "åĬłå¿«è®Ńç»ĥå¹¶ç¨³å®ļæ¢¯åº¦": 4082,
      "è¯įåµĮåħ¥å°Ĩè¯įè½¬ä¸ºåĲĳéĩı": 4083,
      "ä¼łåħ¥target": 4084,
      "éķľåĥıåĲ¯åĬ¨æĪĲå®¹åĻ¨": 4085,
      "è¿Ľç¨ĭéĹ´ä¸įåħ±äº«åĨħåŃĺ": 4086,
      "æī§è¡ĮPythonåŃĹèĬĤçłģ": 4087,
      "è¯ģä¹¦çĶ±CAæľºæŀĦé¢ģåıĳ": 4088,
      "åıĳçİ°bug": 4089,
      "èĩªåĬ¨åıĳå¸ĥåĪ°çĶŁäº§": 4090,
      "æµħæĭ·è´Ŀåıªå¤įåĪ¶é¡¶å±Ĥ": 4091,
      "æįŁå¤±åĩ½æķ°è¡¡éĩıé¢Ħæµĭè¯¯å·®": 4092,
      "Pythonä¸Ńæ·±æĭ·è´ĿåĴĮæµħæĭ·è´ĿçļĦåĮºåĪ«": 4093,
      "Pythonä¸ŃliståĴĮtupleçļĦåĮºåĪ«æĺ¯ä»Ģä¹Ī": 4094,
      "æ·±æĭ·è´ĿéĢĴå½Ĵå¤įåĪ¶æīĢæľīå±Ĥçº§": 4095
    },
    "merges": [
      [
        "ï",
        "¼"
      ],
      [
        "ã",
        "Ģ"
      ],
      [
        "å",
        "Ĭ"
      ],
      [
        "ãĢ",
        "Ĥ"
      ],
      [
        "ç",
        "Ķ"
      ],
      [
        "¨",
        "æ"
      ],
      [
        "ä",
        "¸"
      ],
      [
        "©",
        "æ"
      ],
      [
        "ï¼",
        "Į"
      ],
      [
        "çĶ",
        "¨æ"
      ],
      [
        "Ī",
        "·"
      ],
      [
        "çĶ¨æ",
        "Ī·"
      ],
      [
        "ī",
        "ĭ"
      ],
      [
        "åĬ",
        "©æ"
      ],
      [
        "åĬ©æ",
        "īĭ"
      ],
      [
        "å",
        "ı"
      ],
      [
        "ä",
        "½"
      ],
      [
        "å",
        "Ī"
      ],
      [
        "ä",
        "»"
      ],
      [
        "å",
        "ħ"
      ],
      [
        "é",
        "Ģ"
      ],
      [
        "æ",
        "ĺ"
      ],
      [
        "è",
        "®"
      ],
      [
        "ãĢ",
        "ģ"
      ],
      [
        "é",
        "ĩ"
      ],
      [
        "ä",
        "¹"
      ],
      [
        "æĺ",
        "¯"
      ],
      [
        "è",
        "¯"
      ],
      [
        "å",
        "º"
      ],
      [
        "ï¼",
        "Ł"
      ],
      [
        "å",
        "Ń"
      ],
      [
        "į",
        "ç"
      ],
      [
        "ä¹",
        "Ī"
      ],
      [
        "æ",
        "³"
      ],
      [
        "ļ",
        "Ħ"
      ],
      [
        "æ",
        "ķ"
      ],
      [
        "ï¼",
        "ļ"
      ],
      [
        "Ģ",
        "ä¹Ī"
      ],
      [
        "ä»",
        "Ģä¹Ī"
      ],
      [
        "ä",
        "¿"
      ],
      [
        "å",
        "¤"
      ],
      [
        "ç",
        "ļĦ"
      ],
      [
        "è",
        "¿"
      ],
      [
        "æ",
        "ľ"
      ],
      [
        "å",
        "Ĩ"
      ],
      [
        "å",
        "Ĳ"
      ],
      [
        "ç",
        "»"
      ],
      [
        "çĶ",
        "¨"
      ],
      [
        "¡",
        "å"
      ],
      [
        "è",
        "§"
      ],
      [
        "éĢ",
        "ļ"
      ],
      [
        "ç",
        "®"
      ],
      [
        "ŀ",
        "ĭ"
      ],
      [
        "¨",
        "¡å"
      ],
      [
        "æķ",
        "°"
      ],
      [
        "ä",
        "º"
      ],
      [
        "Ľ",
        "´"
      ],
      [
        "¨¡å",
        "ŀĭ"
      ],
      [
        "å",
        "°"
      ],
      [
        "ä»Ģä¹Ī",
        "æĺ¯"
      ],
      [
        "æ",
        "Ľ´"
      ],
      [
        "Ħ",
        "ı"
      ],
      [
        "åº",
        "ı"
      ],
      [
        "æ",
        "Ķ"
      ],
      [
        "½",
        "®"
      ],
      [
        "åŃ",
        "Ĳ"
      ],
      [
        "å",
        "®"
      ],
      [
        "¨æ",
        "Ħı"
      ],
      [
        "įç",
        "½®"
      ],
      [
        "ï¼",
        "Ī"
      ],
      [
        "ï¼",
        "ī"
      ],
      [
        "åĬ",
        "Ľ"
      ],
      [
        "è§",
        "£"
      ],
      [
        "¨æĦı",
        "åĬĽ"
      ],
      [
        "åħ",
        "³"
      ],
      [
        "æ³",
        "¨æĦıåĬĽ"
      ],
      [
        "ä½",
        "įç½®"
      ],
      [
        "å",
        "¯"
      ],
      [
        "æ",
        "Ĭ"
      ],
      [
        "ç",
        "¼"
      ],
      [
        "æ",
        "ĸ"
      ],
      [
        "éĢļ",
        "ä¿"
      ],
      [
        "æ",
        "ł"
      ],
      [
        "è®",
        "¡"
      ],
      [
        "ä¸",
        "ĭ"
      ],
      [
        "ç®",
        "Ĺ"
      ],
      [
        "éĢļä¿",
        "Ĺ"
      ],
      [
        "ı",
        "æ"
      ],
      [
        "ä¸",
        "İ"
      ],
      [
        "ç",
        "Ĳ"
      ],
      [
        "æĬ",
        "Ĭ"
      ],
      [
        "çĲ",
        "Ĩ"
      ],
      [
        "¦",
        "Ĥ"
      ],
      [
        "å",
        "ĩ"
      ],
      [
        "å",
        "į"
      ],
      [
        "å®",
        "ļ"
      ],
      [
        "¥",
        "åŃĲ"
      ],
      [
        "°",
        "´"
      ],
      [
        "æ",
        "İ"
      ],
      [
        "ä¸",
        "º"
      ],
      [
        "åı",
        "¥åŃĲ"
      ],
      [
        "æĶ",
        "¹"
      ],
      [
        "éĩ",
        "į"
      ],
      [
        "æ",
        "Ŀ"
      ],
      [
        "é",
        "Ŀ"
      ],
      [
        "å",
        "¦Ĥ"
      ],
      [
        "ç",
        "ł"
      ],
      [
        "åĪ",
        "¶"
      ],
      [
        "åº",
        "¦"
      ],
      [
        "å¯",
        "¹"
      ],
      [
        "è®¡",
        "ç®Ĺ"
      ],
      [
        "çł",
        "ģ"
      ],
      [
        "åı",
        "Ĥ"
      ],
      [
        "åĪ",
        "Ĩ"
      ],
      [
        "åĨ",
        "Ļ"
      ],
      [
        "å",
        "¼"
      ],
      [
        "éĿ",
        "¢"
      ],
      [
        "¦",
        "ģ"
      ],
      [
        "è",
        "¦ģ"
      ],
      [
        "å",
        "Į"
      ],
      [
        "æĽ´",
        "éĢļä¿Ĺ"
      ],
      [
        "ä¸ĭ",
        "éĿ¢"
      ],
      [
        "æĬĬ",
        "ä¸ĭéĿ¢"
      ],
      [
        "åı¥åŃĲ",
        "æĶ¹"
      ],
      [
        "åĨĻ",
        "æĽ´éĢļä¿Ĺ"
      ],
      [
        "æĬĬä¸ĭéĿ¢",
        "åı¥åŃĲæĶ¹"
      ],
      [
        "æĬĬä¸ĭéĿ¢åı¥åŃĲæĶ¹",
        "åĨĻæĽ´éĢļä¿Ĺ"
      ],
      [
        "Ĥ",
        "¹"
      ],
      [
        "æ",
        "į"
      ],
      [
        "è",
        "´"
      ],
      [
        "è",
        "¶"
      ],
      [
        "å",
        "Ľ"
      ],
      [
        "è",
        "¡"
      ],
      [
        "åĬ",
        "ł"
      ],
      [
        "ä¸",
        "Ģ"
      ],
      [
        "è¯",
        "į"
      ],
      [
        "ä",
        "¼"
      ],
      [
        "æ",
        "¯"
      ],
      [
        "æ",
        "Ģ"
      ],
      [
        "©æ",
        "¨¡åŀĭ"
      ],
      [
        "è®",
        "©æ¨¡åŀĭ"
      ],
      [
        "o",
        "r"
      ],
      [
        "è",
        "Ģ"
      ],
      [
        "åĪ",
        "Ĺ"
      ],
      [
        "å¤",
        "§"
      ],
      [
        "³",
        "»"
      ],
      [
        "å",
        "ł"
      ],
      [
        "ç",
        "³»"
      ],
      [
        "é",
        "¦"
      ],
      [
        "åı",
        "¯"
      ],
      [
        "éĩ",
        "Ĭ"
      ],
      [
        "è¶",
        "Ĭ"
      ],
      [
        "è¿",
        "ĩ"
      ],
      [
        "åĲ",
        "Ī"
      ],
      [
        "è§£",
        "éĩĬ"
      ],
      [
        "æĸ",
        "¹"
      ],
      [
        "å",
        "¿"
      ],
      [
        "æ",
        "ı"
      ],
      [
        "Ń",
        "ç»"
      ],
      [
        "è®",
        "Ńç»"
      ],
      [
        "åħ³",
        "ç³»"
      ],
      [
        "è®Ńç»",
        "ĥ"
      ],
      [
        "æ",
        "ŀ"
      ],
      [
        "ĥ",
        "½"
      ],
      [
        "ä½",
        "ķ"
      ],
      [
        "åħ",
        "¥"
      ],
      [
        "ç¼",
        "ĸ"
      ],
      [
        "å¦Ĥ",
        "ä½ķ"
      ],
      [
        "¸",
        "é¦"
      ],
      [
        "æ",
        "°´"
      ],
      [
        "è",
        "Ĵ"
      ],
      [
        "é",
        "ķ"
      ],
      [
        "åħ",
        "Ī"
      ],
      [
        "ä½įç½®",
        "ç¼ĸ"
      ],
      [
        "èĴ",
        "¸é¦"
      ],
      [
        "ä½įç½®ç¼ĸ",
        "çłģ"
      ],
      [
        "éĩ",
        "ı"
      ],
      [
        "¡",
        "æ"
      ],
      [
        "¤",
        "º"
      ],
      [
        "¾",
        "åł"
      ],
      [
        "ç",
        "¤º"
      ],
      [
        "è¯",
        "¾åł"
      ],
      [
        "æľ",
        "ī"
      ],
      [
        "ï¼ī",
        "ãĢģ"
      ],
      [
        "è¯¾åł",
        "Ĥ"
      ],
      [
        "å",
        "İ"
      ],
      [
        "ç",
        "º"
      ],
      [
        "é",
        "Ĺ"
      ],
      [
        "or",
        "m"
      ],
      [
        "æı",
        "Ĳ"
      ],
      [
        "éķ",
        "¿"
      ],
      [
        "å",
        "¾"
      ],
      [
        "å",
        "Ĵ"
      ],
      [
        "ç",
        "İ"
      ],
      [
        "åĴ",
        "Į"
      ],
      [
        "e",
        "r"
      ],
      [
        "ģ",
        "¯"
      ],
      [
        "æ³",
        "¨"
      ],
      [
        "ç®",
        "Ģ"
      ],
      [
        "æ",
        "Ń"
      ],
      [
        "è",
        "ĥ½"
      ],
      [
        "é",
        "¡"
      ],
      [
        "ç»",
        "ĵ"
      ],
      [
        "åºı",
        "åĪĹ"
      ],
      [
        "å",
        "¹"
      ],
      [
        "é",
        "Ķ"
      ],
      [
        "Ł",
        "¥"
      ],
      [
        "ç»ĵ",
        "æŀ"
      ],
      [
        "ç",
        "§"
      ],
      [
        "ç",
        "Ľ"
      ],
      [
        "é",
        "Ļ"
      ],
      [
        "éĢ",
        "Ĥ"
      ],
      [
        "éĩ",
        "įç"
      ],
      [
        "ä¿",
        "¡æ"
      ],
      [
        "å°",
        "ı"
      ],
      [
        "ä¸º",
        "ä»Ģä¹Ī"
      ],
      [
        "æĢ",
        "§"
      ],
      [
        "éĩįç",
        "Ĥ¹"
      ],
      [
        "ä¿¡æ",
        "ģ¯"
      ],
      [
        "å",
        "½"
      ],
      [
        "é",
        "¢"
      ],
      [
        "ĥ",
        "éĩį"
      ],
      [
        "åŃ",
        "ĺ"
      ],
      [
        "ç",
        "¨"
      ],
      [
        "è",
        "¾"
      ],
      [
        "ä¸",
        "ª"
      ],
      [
        "ä¸",
        "Ĭ"
      ],
      [
        "è¿",
        "Ľ"
      ],
      [
        "éĢļ",
        "è¿ĩ"
      ],
      [
        "äº",
        "İ"
      ],
      [
        "åıĤ",
        "æķ°"
      ],
      [
        "æ¯",
        "Ķ"
      ],
      [
        "å¿",
        "«"
      ],
      [
        "³",
        "å®ļ"
      ],
      [
        "æ",
        "Ī"
      ],
      [
        "æ",
        "ī"
      ],
      [
        "ä½",
        "¿"
      ],
      [
        "æľ",
        "º"
      ],
      [
        "å°",
        "ıæ"
      ],
      [
        "çĲĨ",
        "è§£"
      ],
      [
        "åĮ",
        "ĸ"
      ],
      [
        "C",
        "P"
      ],
      [
        "ç",
        "´"
      ],
      [
        "è",
        "ĩ"
      ],
      [
        "ä¸",
        "Ń"
      ],
      [
        "ä½",
        "ľ"
      ],
      [
        "å°ıæ",
        "¨¡åŀĭ"
      ],
      [
        "N",
        "orm"
      ],
      [
        "«",
        "ĺ"
      ],
      [
        "å",
        "ľ"
      ],
      [
        "é",
        "«ĺ"
      ],
      [
        "ä¿",
        "Ŀ"
      ],
      [
        "åĲ",
        "İ"
      ],
      [
        "æķ°",
        "æį"
      ],
      [
        "æĿ",
        "Ĥ"
      ],
      [
        "è´",
        "¨"
      ],
      [
        "éĹ",
        "®"
      ],
      [
        "æķ°æį",
        "®"
      ],
      [
        "é",
        "ĥ"
      ],
      [
        "éĢ",
        "Ł"
      ],
      [
        "æ³",
        "ķ"
      ],
      [
        "æľ",
        "Ģ"
      ],
      [
        "éĢĤ",
        "åĲĪ"
      ],
      [
        "M",
        "S"
      ],
      [
        "º",
        "åºı"
      ],
      [
        "é",
        "ģ"
      ],
      [
        "ä»",
        "¥"
      ],
      [
        "çİ",
        "ĩ"
      ],
      [
        "é¡",
        "ºåºı"
      ],
      [
        "çĽ",
        "¸"
      ],
      [
        "P",
        "E"
      ],
      [
        "R",
        "o"
      ],
      [
        "R",
        "MS"
      ],
      [
        "¼",
        "Ķ"
      ],
      [
        "æ",
        "¸"
      ],
      [
        "æ",
        "¼Ķ"
      ],
      [
        "ç",
        "Ń"
      ],
      [
        "é",
        "ª"
      ],
      [
        "ī",
        "æ"
      ],
      [
        "å¹",
        "¶"
      ],
      [
        "éĥ",
        "¨"
      ],
      [
        "Ro",
        "PE"
      ],
      [
        "RMS",
        "Norm"
      ],
      [
        "æ¼Ķ",
        "ç¤º"
      ],
      [
        "±",
        "Ĥ"
      ],
      [
        "ä",
        "¾"
      ],
      [
        "åĪ",
        "°"
      ],
      [
        "è¯",
        "ģ"
      ],
      [
        "äº",
        "Ĩ"
      ],
      [
        "åıĤ",
        "èĢ"
      ],
      [
        "éĩįçĤ¹",
        "åıĤèĢ"
      ],
      [
        "éĩįçĤ¹åıĤèĢ",
        "ĥ"
      ],
      [
        "o",
        "n"
      ],
      [
        "å",
        "·"
      ],
      [
        "å",
        "ģ"
      ],
      [
        "å",
        "Ļ"
      ],
      [
        "å",
        "Ŀ"
      ],
      [
        "è",
        "°"
      ],
      [
        "é",
        "ħ"
      ],
      [
        "é",
        "ĺ"
      ],
      [
        "ĩ",
        "æĸ¹"
      ],
      [
        "å¤",
        "į"
      ],
      [
        "ä½įç½®",
        "ä¿¡æģ¯"
      ],
      [
        "ç¼",
        "©æ"
      ],
      [
        "å¼",
        "ı"
      ],
      [
        "è¡",
        "Į"
      ],
      [
        "åı¯",
        "ä»¥"
      ],
      [
        "å¾",
        "Ĺ"
      ],
      [
        "é¢",
        "ĺ"
      ],
      [
        "æľº",
        "åĪ¶"
      ],
      [
        "åľ",
        "¨"
      ],
      [
        "æ",
        "Į"
      ],
      [
        "ĵ",
        "į"
      ],
      [
        "ä½",
        "İ"
      ],
      [
        "æķ",
        "Ī"
      ],
      [
        "åĨ",
        "ħ"
      ],
      [
        "æĿ",
        "ĥéĩį"
      ],
      [
        "è¡",
        "¨"
      ],
      [
        "æŃ",
        "¥"
      ],
      [
        "è¾",
        "ĵ"
      ],
      [
        "CP",
        "U"
      ],
      [
        "¢",
        "¯"
      ],
      [
        "¯",
        "æ°´"
      ],
      [
        "º",
        "å®ļ"
      ],
      [
        "æ",
        "Ĺ"
      ],
      [
        "åı",
        "ĳ"
      ],
      [
        "è®",
        "©"
      ],
      [
        "åŃ",
        "¦"
      ],
      [
        "çļĦ",
        "æ°´"
      ],
      [
        "ıæ",
        "°´"
      ],
      [
        "åĽ",
        "ŀ"
      ],
      [
        "åĽ",
        "ºå®ļ"
      ],
      [
        "èĴ¸é¦",
        "ı"
      ],
      [
        "èĴ¸é¦",
        "ıæ°´"
      ],
      [
        "çº",
        "¯æ°´"
      ],
      [
        "ç§",
        "į"
      ],
      [
        "ä½¿",
        "çĶ¨"
      ],
      [
        "æĿĤ",
        "è´¨"
      ],
      [
        "éĹ®",
        "é¢ĺ"
      ],
      [
        "éª",
        "Į"
      ],
      [
        "¢¯",
        "åº¦"
      ],
      [
        "å",
        "¢"
      ],
      [
        "ç",
        "ķ"
      ],
      [
        "ľ",
        "Ģ"
      ],
      [
        "ä½",
        "į"
      ],
      [
        "åĪ",
        "«"
      ],
      [
        "åĨ",
        "į"
      ],
      [
        "ï¼ī",
        "ãĢĤ"
      ],
      [
        "åħ³",
        "æ³¨"
      ],
      [
        "åĩ",
        "º"
      ],
      [
        "åį",
        "ĩ"
      ],
      [
        "åį",
        "ķ"
      ],
      [
        "æİ",
        "¨"
      ],
      [
        "ä¼",
        "ĺ"
      ],
      [
        "ç»ĵæŀ",
        "Ħ"
      ],
      [
        "éĻ",
        "¤"
      ],
      [
        "æĪ",
        "Ĳ"
      ],
      [
        "å",
        "¥"
      ],
      [
        "æ",
        "·"
      ],
      [
        "æ",
        "¢¯åº¦"
      ],
      [
        "ç",
        "ľ"
      ],
      [
        "åı",
        "ĺ"
      ],
      [
        "æĺ",
        "İ"
      ],
      [
        "äº",
        "Į"
      ],
      [
        "å°",
        "ĳ"
      ],
      [
        "æ³¨æĦıåĬĽ",
        "æľºåĪ¶"
      ],
      [
        "åĮ",
        "º"
      ],
      [
        "æıĲ",
        "åįĩ"
      ],
      [
        "éĶ",
        "®"
      ],
      [
        "åĻ",
        "¨"
      ],
      [
        "åĨħ",
        "åŃĺ"
      ],
      [
        "å¢",
        "ŀ"
      ],
      [
        "e",
        "n"
      ],
      [
        "o",
        "p"
      ],
      [
        "ç",
        "Ĥ¹"
      ],
      [
        "é",
        "ľĢ"
      ],
      [
        "ï¼",
        "Ľ"
      ],
      [
        "ä¸",
        "į"
      ],
      [
        "ä»",
        "£"
      ],
      [
        "è¿",
        "°"
      ],
      [
        "æĶ",
        "¶"
      ],
      [
        "æł",
        "¹"
      ],
      [
        "ä¼",
        "ļ"
      ],
      [
        "è¯¾åłĤ",
        "ç®Ģ"
      ],
      [
        "ç¨",
        "³å®ļ"
      ],
      [
        "èĩ",
        "ª"
      ],
      [
        "ä¾",
        "¿"
      ],
      [
        "æİ¨",
        "çĲĨ"
      ],
      [
        "éľĢ",
        "è¦ģ"
      ],
      [
        "è¯¾åłĤç®Ģ",
        "è¿°"
      ],
      [
        "±",
        "å"
      ],
      [
        "½",
        "æķ°"
      ],
      [
        "æ",
        "µ"
      ],
      [
        "æ",
        "Ł¥"
      ],
      [
        "è",
        "½"
      ],
      [
        "åĬ",
        "¨æ"
      ],
      [
        "å¤",
        "±"
      ],
      [
        "çļĦ",
        "ä½ľ"
      ],
      [
        "è§",
        "Ĥ"
      ],
      [
        "åºı",
        "åħ³ç³»"
      ],
      [
        "åħ³",
        "éĶ®"
      ],
      [
        "éĢļä¿Ĺ",
        "è§£éĩĬ"
      ],
      [
        "åĩ",
        "½æķ°"
      ],
      [
        "æİ",
        "Ĵ"
      ],
      [
        "ä¿Ŀ",
        "çķ"
      ],
      [
        "çŃ",
        "ī"
      ],
      [
        "éħ",
        "į"
      ],
      [
        "ç§į",
        "åŃĲ"
      ],
      [
        "å¥",
        "½"
      ],
      [
        "åĮº",
        "åĪ«"
      ],
      [
        "ä¿Ŀçķ",
        "Ļ"
      ],
      [
        "»",
        "º"
      ],
      [
        "å",
        "Ģ"
      ],
      [
        "å",
        "ī"
      ],
      [
        "å",
        "»º"
      ],
      [
        "ç",
        "Ł¥"
      ],
      [
        "ł",
        "çİĩ"
      ],
      [
        "ä¹",
        "łçİĩ"
      ],
      [
        "ä»Ģä¹Īæĺ¯",
        "æ³¨æĦıåĬĽæľºåĪ¶"
      ],
      [
        "æĽ´",
        "å¿«"
      ],
      [
        "åĩ",
        "ı"
      ],
      [
        "æ³¨",
        "åħ¥"
      ],
      [
        "ç®Ģ",
        "åįķ"
      ],
      [
        "éģ",
        "ĵ"
      ],
      [
        "åŃ¦",
        "ä¹łçİĩ"
      ],
      [
        "éªĮ",
        "è¯ģ"
      ],
      [
        "a",
        "r"
      ],
      [
        "å",
        "¸"
      ],
      [
        "æ",
        "ħ"
      ],
      [
        "è",
        "İ"
      ],
      [
        "é",
        "Ľ"
      ],
      [
        "Ģ",
        "ģ"
      ],
      [
        "Ł",
        "å¤±"
      ],
      [
        "è¯",
        "įç"
      ],
      [
        "æł",
        "ĳ"
      ],
      [
        "æİ",
        "¥"
      ],
      [
        "æį",
        "Łå¤±"
      ],
      [
        "ç»ĵæŀ",
        "ľ"
      ],
      [
        "å½",
        "±å"
      ],
      [
        "æ¯Ķ",
        "å¦Ĥ"
      ],
      [
        "ç´",
        "¢"
      ],
      [
        "é«ĺ",
        "æķĪ"
      ],
      [
        "çĽ¸",
        "å¯¹"
      ],
      [
        "éĥ¨",
        "åĪĨ"
      ],
      [
        "æĹ",
        "¶"
      ],
      [
        "çľ",
        "ĭ"
      ],
      [
        "ä»£",
        "çłģ"
      ],
      [
        "ä¾¿",
        "äºİ"
      ],
      [
        "åĬ¨æ",
        "Ģģ"
      ],
      [
        "çļĦä½ľ",
        "çĶ¨"
      ],
      [
        "çŁ¥",
        "éģĵ"
      ],
      [
        "æħ",
        "¢"
      ],
      [
        "èİ",
        "·"
      ],
      [
        "éĽ",
        "Ĩ"
      ],
      [
        "è¯įç",
        "ļĦ"
      ],
      [
        "å½±å",
        "ĵį"
      ],
      [
        "l",
        "i"
      ],
      [
        "r",
        "a"
      ],
      [
        "ç",
        "½"
      ],
      [
        "İ",
        "°"
      ],
      [
        "åĬ",
        "¡"
      ],
      [
        "æĺ",
        "¾"
      ],
      [
        "įç",
        "İ°"
      ],
      [
        "å¤",
        "ļ"
      ],
      [
        "å¤",
        "įçİ°"
      ],
      [
        "çļĦ",
        "çĲĨè§£"
      ],
      [
        "è¿",
        "ĳ"
      ],
      [
        "åĲ",
        "Į"
      ],
      [
        "æ³¨æĦıåĬĽ",
        "éĢļè¿ĩ"
      ],
      [
        "æĸ",
        "ĩ"
      ],
      [
        "æł",
        "·"
      ],
      [
        "åį",
        "ł"
      ],
      [
        "éĩį",
        "è¦ģ"
      ],
      [
        "å¯¹",
        "åºıåĪĹ"
      ],
      [
        "å¯¹",
        "æ¯Ķ"
      ],
      [
        "åĪĨ",
        "éħį"
      ],
      [
        "æ¯",
        "ı"
      ],
      [
        "è®©æ¨¡åŀĭ",
        "éĩįçĤ¹åıĤèĢĥ"
      ],
      [
        "åı¯",
        "å¤įçİ°"
      ],
      [
        "è¶Ĭ",
        "éķ¿"
      ],
      [
        "åħ³ç³»",
        "çļĦçĲĨè§£"
      ],
      [
        "éĩı",
        "åĮĸ"
      ],
      [
        "éķ¿",
        "åº¦"
      ],
      [
        "åºıåĪĹ",
        "è¶Ĭéķ¿"
      ],
      [
        "ç¨",
        "ĭ"
      ],
      [
        "è¿Ľ",
        "è¡Į"
      ],
      [
        "æĿĥéĩį",
        "è®©æ¨¡åŀĭéĩįçĤ¹åıĤèĢĥ"
      ],
      [
        "åĽºå®ļ",
        "ç§įåŃĲ"
      ],
      [
        "åıĺ",
        "æħ¢"
      ],
      [
        "æĺİ",
        "æĺ¾"
      ],
      [
        "æıĲåįĩ",
        "å¯¹åºıåĪĹ"
      ],
      [
        "åħ³éĶ®",
        "ä½įç½®"
      ],
      [
        "åĩı",
        "å°ĳ"
      ],
      [
        "æ³¨æĦıåĬĽéĢļè¿ĩ",
        "åĪĨéħį"
      ],
      [
        "æĿĥéĩįè®©æ¨¡åŀĭéĩįçĤ¹åıĤèĢĥ",
        "åħ³éĶ®ä½įç½®"
      ],
      [
        "æıĲåįĩå¯¹åºıåĪĹ",
        "åħ³ç³»çļĦçĲĨè§£"
      ],
      [
        "æ³¨æĦıåĬĽéĢļè¿ĩåĪĨéħį",
        "æĿĥéĩįè®©æ¨¡åŀĭéĩįçĤ¹åıĤèĢĥåħ³éĶ®ä½įç½®"
      ],
      [
        "i",
        "n"
      ],
      [
        "s",
        "t"
      ],
      [
        "t",
        "h"
      ],
      [
        "¶",
        "ä»"
      ],
      [
        "æ",
        "¨¡åŀĭ"
      ],
      [
        "Ķ",
        "¾"
      ],
      [
        "çĶ",
        "Ł"
      ],
      [
        "ä¸",
        "Ķ"
      ],
      [
        "åħ",
        "¨"
      ],
      [
        "åħ",
        "±"
      ],
      [
        "åħ",
        "¶ä»"
      ],
      [
        "è®",
        "¾"
      ],
      [
        "åĨ",
        "³å®ļ"
      ],
      [
        "çĶ¨",
        "åĿ"
      ],
      [
        "å®",
        "ŀ"
      ],
      [
        "æĸ",
        "°"
      ],
      [
        "æĬĬ",
        "çĽ¸å¯¹"
      ],
      [
        "è®¡ç®Ĺ",
        "æĽ´å¿«"
      ],
      [
        "èĢ",
        "Į"
      ],
      [
        "è§£éĩĬ",
        "RoPE"
      ],
      [
        "åħĪ",
        "çľĭ"
      ],
      [
        "åİ",
        "ĭ"
      ],
      [
        "çº",
        "¿"
      ],
      [
        "å½",
        "Ĵ"
      ],
      [
        "éĢĤåĲĪ",
        "å°ıæ¨¡åŀĭ"
      ],
      [
        "RMSNorm",
        "çĶ¨åĿ"
      ],
      [
        "ĩæĸ¹",
        "æł¹"
      ],
      [
        "ä½įç½®ä¿¡æģ¯",
        "æ³¨åħ¥"
      ],
      [
        "ç¼©æ",
        "Ķ¾"
      ],
      [
        "å¾Ĺ",
        "åĪ°"
      ],
      [
        "ä½į",
        "åºıåħ³ç³»"
      ],
      [
        "å¢ŀ",
        "åĬł"
      ],
      [
        "ä¿ĿçķĻ",
        "ä½įåºıåħ³ç³»"
      ],
      [
        "åĬ¨æĢģ",
        "éĩıåĮĸ"
      ],
      [
        "æ¯ı",
        "ä¸ª"
      ],
      [
        "åħ¶ä»",
        "ĸ"
      ],
      [
        "æĬĬçĽ¸å¯¹",
        "ä½įç½®ä¿¡æģ¯æ³¨åħ¥"
      ],
      [
        "RMSNormçĶ¨åĿ",
        "ĩæĸ¹æł¹"
      ],
      [
        "ä¿ĿçķĻä½įåºıåħ³ç³»",
        "ä¸Ķ"
      ],
      [
        "æĬĬçĽ¸å¯¹ä½įç½®ä¿¡æģ¯æ³¨åħ¥",
        "æ³¨æĦıåĬĽ"
      ],
      [
        "1",
        "0"
      ],
      [
        "P",
        "y"
      ],
      [
        "a",
        "t"
      ],
      [
        "r",
        "e"
      ],
      [
        "å",
        "ĳ"
      ],
      [
        "å",
        "±Ĥ"
      ],
      [
        "æ",
        "ĭ"
      ],
      [
        "è",
        "£"
      ],
      [
        "è",
        "µ"
      ],
      [
        "åı",
        "ª"
      ],
      [
        "äº",
        "«"
      ],
      [
        "æł",
        "ĩ"
      ],
      [
        "ç®Ĺ",
        "æ³ķ"
      ],
      [
        "ä¸º",
        "äºĨ"
      ],
      [
        "å¼",
        "Ģ"
      ],
      [
        "å¼",
        "ķ"
      ],
      [
        "åİ",
        "»"
      ],
      [
        "ä¸ºä»Ģä¹Ī",
        "éľĢè¦ģ"
      ],
      [
        "è¿Ľ",
        "åĪ¶"
      ],
      [
        "å¿«",
        "éĢŁ"
      ],
      [
        "èĩ",
        "´"
      ],
      [
        "åģ",
        "ļ"
      ],
      [
        "è°",
        "ĥ"
      ],
      [
        "è¾ĵ",
        "åĩº"
      ],
      [
        "en",
        "t"
      ],
      [
        "ra",
        "n"
      ],
      [
        "åįł",
        "çĶ¨"
      ],
      [
        "th",
        "on"
      ],
      [
        "Py",
        "thon"
      ],
      [
        "T",
        "ran"
      ],
      [
        "f",
        "orm"
      ],
      [
        "s",
        "form"
      ],
      [
        "¥",
        "éĩįçĤ¹åıĤèĢĥ"
      ],
      [
        "«",
        "éĩ"
      ],
      [
        "»",
        "åĬł"
      ],
      [
        "å",
        "±"
      ],
      [
        "å",
        "ŀĭ"
      ],
      [
        "æ",
        "±Ĥ"
      ],
      [
        "ç",
        "«"
      ],
      [
        "é",
        "ļ"
      ],
      [
        "ģ",
        "ä½İ"
      ],
      [
        "ĩ",
        "æĿĤè´¨"
      ],
      [
        "ī",
        "¹"
      ],
      [
        "Ĭ",
        "è¯"
      ],
      [
        "į",
        "æ¸"
      ],
      [
        "İ",
        "èĢĮ"
      ],
      [
        "ı",
        "çŃī"
      ],
      [
        "Ĺ",
        "éĢ"
      ],
      [
        "Ŀ",
        "ĥéĩį"
      ],
      [
        "ŀ",
        "ģä½İ"
      ],
      [
        "åı",
        "įæ¸"
      ],
      [
        "ä»",
        "İèĢĮ"
      ],
      [
        "éĢ",
        "Ģ"
      ],
      [
        "æĺ¯",
        "éĢļè¿ĩ"
      ],
      [
        "æĺ¯",
        "æĮ"
      ],
      [
        "æĺ¯",
        "èĴ¸é¦ı"
      ],
      [
        "è¯",
        "¥éĩįçĤ¹åıĤèĢĥ"
      ],
      [
        "åº",
        "Ķ"
      ],
      [
        "å¤",
        "ĩæĸ¹"
      ],
      [
        "çļĦ",
        "é¡ºåºı"
      ],
      [
        "è¿",
        "ŀ"
      ],
      [
        "åĲ",
        "«éĩ"
      ],
      [
        "¨¡åŀĭ",
        "è¯į"
      ],
      [
        "ä»Ģä¹Īæĺ¯",
        "ä½įç½®ç¼ĸçłģ"
      ],
      [
        "ä»Ģä¹Īæĺ¯",
        "RMSNorm"
      ],
      [
        "æĽ´",
        "å¥½"
      ],
      [
        "æ³¨æĦıåĬĽ",
        "è®¡ç®Ĺ"
      ],
      [
        "ä¸ĭ",
        "æĸĩ"
      ],
      [
        "ıæ",
        "ŀģä½İ"
      ],
      [
        "ä¸İ",
        "çº¯æ°´"
      ],
      [
        "ä¸İ",
        "åĨħåŃĺ"
      ],
      [
        "æİ",
        "§"
      ],
      [
        "åı¥åŃĲ",
        "ä¸Ń"
      ],
      [
        "åĪ¶",
        "å¤ĩæĸ¹"
      ],
      [
        "è®¡ç®Ĺ",
        "åıĺæħ¢"
      ],
      [
        "è®¡ç®Ĺ",
        "ä¸İåĨħåŃĺ"
      ],
      [
        "åĬł",
        "éĢŁ"
      ],
      [
        "è¯į",
        "åĴĮ"
      ],
      [
        "è®©æ¨¡åŀĭ",
        "çŁ¥éģĵ"
      ],
      [
        "å¤§",
        "éĥ¨åĪĨ"
      ],
      [
        "è¶Ĭ",
        "å¤§"
      ],
      [
        "è§£éĩĬ",
        "èĴ¸é¦ıæ°´"
      ],
      [
        "è®Ńç»ĥ",
        "åı¯å¤įçİ°"
      ],
      [
        "åħĪ",
        "åĲİ"
      ],
      [
        "ä½įç½®ç¼ĸçłģ",
        "æ·"
      ],
      [
        "ä½įç½®ç¼ĸçłģ",
        "åĳ"
      ],
      [
        "éĩı",
        "è¶Ĭå¤§"
      ],
      [
        "è¯¾åłĤ",
        "å¯¹æ¯Ķ"
      ],
      [
        "er",
        "ä½¿çĶ¨"
      ],
      [
        "æŃ",
        "¢"
      ],
      [
        "èĥ½",
        "åĬłéĢŁ"
      ],
      [
        "éĶ",
        "ģ"
      ],
      [
        "ä¸Ĭ",
        "å½±åĵį"
      ],
      [
        "ä¸Ĭ",
        "ä¸ĭæĸĩ"
      ],
      [
        "åıĤæķ°",
        "å¾ĹåĪ°"
      ],
      [
        "çĲĨè§£",
        "ä¸Ĭä¸ĭæĸĩ"
      ],
      [
        "å°ıæ¨¡åŀĭ",
        "ä¸Ĭå½±åĵį"
      ],
      [
        "éĢĤåĲĪ",
        "æ¼Ķç¤º"
      ],
      [
        "çĽ¸",
        "è¿ĳ"
      ],
      [
        "īæ",
        "¨¡åŀĭè¯į"
      ],
      [
        "RoPE",
        "æĬĬçĽ¸å¯¹ä½įç½®ä¿¡æģ¯æ³¨åħ¥æ³¨æĦıåĬĽ"
      ],
      [
        "äºĨ",
        "å¤§éĥ¨åĪĨ"
      ],
      [
        "è°",
        "ģ"
      ],
      [
        "ç¼©æ",
        "Ŀĥéĩį"
      ],
      [
        "å¼ı",
        "åı¯ä»¥"
      ],
      [
        "åı¯ä»¥",
        "è®©"
      ],
      [
        "å¾Ĺ",
        "çļĦæ°´"
      ],
      [
        "åľ¨",
        "åı¥åŃĲä¸Ń"
      ],
      [
        "CPU",
        "æİ¨çĲĨ"
      ],
      [
        "è®©",
        "è®¡ç®Ĺåıĺæħ¢"
      ],
      [
        "èĴ¸é¦ı",
        "èİ·"
      ],
      [
        "èĴ¸é¦ıæ°´",
        "æĺ¯éĢļè¿ĩ"
      ],
      [
        "çº¯æ°´",
        "æĺ¯æĮ"
      ],
      [
        "åĨį",
        "åĨ³å®ļ"
      ],
      [
        "ç»ĵæŀĦ",
        "ç®Ģåįķ"
      ],
      [
        "éĻ¤",
        "äºĨå¤§éĥ¨åĪĨ"
      ],
      [
        "ä¼ļ",
        "è®©è®¡ç®Ĺåıĺæħ¢"
      ],
      [
        "èĩª",
        "æ³¨æĦıåĬĽ"
      ],
      [
        "æİĴ",
        "åºı"
      ],
      [
        "åĢ",
        "¼"
      ],
      [
        "ä¾¿äºİ",
        "è¯¾åłĤå¯¹æ¯Ķ"
      ],
      [
        "è¯įçļĦ",
        "åħ³ç³»"
      ],
      [
        "åĲĮ",
        "æł·"
      ],
      [
        "éķ¿åº¦",
        "å¢ŀåĬł"
      ],
      [
        "è¿Ľè¡Į",
        "ç¼©æĶ¾"
      ],
      [
        "åĽºå®ļç§įåŃĲ",
        "åı¯ä»¥è®©"
      ],
      [
        "åĩıå°ĳ",
        "è®¡ç®Ĺä¸İåĨħåŃĺ"
      ],
      [
        "çĶŁ",
        "æĪĲ"
      ],
      [
        "åħ±",
        "äº«"
      ],
      [
        "è§£éĩĬRoPE",
        "çļĦä½ľçĶ¨"
      ],
      [
        "åħĪçľĭ",
        "æ¯ıä¸ª"
      ],
      [
        "åİĭ",
        "ç¼©æĿĥéĩį"
      ],
      [
        "åĬ¨æĢģéĩıåĮĸ",
        "èĥ½åĬłéĢŁ"
      ],
      [
        "åħ¶ä»ĸ",
        "è¯įçļĦåħ³ç³»"
      ],
      [
        "RMSNormçĶ¨åĿĩæĸ¹æł¹",
        "è¿Ľè¡Įç¼©æĶ¾"
      ],
      [
        "ä¿ĿçķĻä½įåºıåħ³ç³»ä¸Ķ",
        "é«ĺæķĪ"
      ],
      [
        "åİ»",
        "éĻ¤äºĨå¤§éĥ¨åĪĨ"
      ],
      [
        "Tran",
        "sform"
      ],
      [
        "»åĬł",
        "ä½įç½®ä¿¡æģ¯"
      ],
      [
        "ĩæĿĤè´¨",
        "åĲ«éĩ"
      ],
      [
        "Ĭè¯",
        "īæ¨¡åŀĭè¯į"
      ],
      [
        "ĹéĢ",
        "ıçŃī"
      ],
      [
        "åıįæ¸",
        "ĹéĢıçŃī"
      ],
      [
        "ä»İèĢĮ",
        "æĽ´å¥½"
      ],
      [
        "è¯¥éĩįçĤ¹åıĤèĢĥ",
        "è°ģ"
      ],
      [
        "æ³¨æĦıåĬĽè®¡ç®Ĺ",
        "éĩıè¶Ĭå¤§"
      ],
      [
        "ıæŀģä½İ",
        "çļĦæ°´"
      ],
      [
        "ä¸İçº¯æ°´",
        "åĮºåĪ«"
      ],
      [
        "åĪ¶å¤ĩæĸ¹",
        "å¼ıåı¯ä»¥"
      ],
      [
        "è¯įåĴĮ",
        "åħ¶ä»ĸè¯įçļĦåħ³ç³»"
      ],
      [
        "è®©æ¨¡åŀĭçŁ¥éģĵ",
        "åħĪåĲİ"
      ],
      [
        "è§£éĩĬèĴ¸é¦ıæ°´",
        "ä¸İçº¯æ°´åĮºåĪ«"
      ],
      [
        "ä½įç½®ç¼ĸçłģæ·",
        "»åĬłä½įç½®ä¿¡æģ¯"
      ],
      [
        "ä½įç½®ç¼ĸçłģåĳ",
        "Ĭè¯īæ¨¡åŀĭè¯į"
      ],
      [
        "erä½¿çĶ¨",
        "èĩªæ³¨æĦıåĬĽ"
      ],
      [
        "åıĤæķ°å¾ĹåĪ°",
        "çĽ¸è¿ĳ"
      ],
      [
        "å°ıæ¨¡åŀĭä¸Ĭå½±åĵį",
        "æĺİæĺ¾"
      ],
      [
        "åľ¨åı¥åŃĲä¸Ń",
        "çļĦé¡ºåºı"
      ],
      [
        "èĴ¸é¦ıèİ·",
        "å¾ĹçļĦæ°´"
      ],
      [
        "èĴ¸é¦ıæ°´æĺ¯éĢļè¿ĩ",
        "èĴ¸é¦ıèİ·å¾ĹçļĦæ°´"
      ],
      [
        "çº¯æ°´æĺ¯æĮ",
        "ĩæĿĤè´¨åĲ«éĩ"
      ],
      [
        "åĨįåĨ³å®ļ",
        "è¯¥éĩįçĤ¹åıĤèĢĥè°ģ"
      ],
      [
        "åĲĮæł·",
        "åıĤæķ°å¾ĹåĪ°çĽ¸è¿ĳ"
      ],
      [
        "éķ¿åº¦å¢ŀåĬł",
        "ä¼ļè®©è®¡ç®Ĺåıĺæħ¢"
      ],
      [
        "åĽºå®ļç§įåŃĲåı¯ä»¥è®©",
        "è®Ńç»ĥåı¯å¤įçİ°"
      ],
      [
        "åĩıå°ĳè®¡ç®Ĺä¸İåĨħåŃĺ",
        "åįłçĶ¨"
      ],
      [
        "åħĪçľĭæ¯ıä¸ª",
        "è¯įåĴĮåħ¶ä»ĸè¯įçļĦåħ³ç³»"
      ],
      [
        "åĬ¨æĢģéĩıåĮĸèĥ½åĬłéĢŁ",
        "CPUæİ¨çĲĨ"
      ],
      [
        "åİ»éĻ¤äºĨå¤§éĥ¨åĪĨ",
        "æĿĤè´¨"
      ],
      [
        "Transform",
        "erä½¿çĶ¨èĩªæ³¨æĦıåĬĽ"
      ],
      [
        "ä»İèĢĮæĽ´å¥½",
        "çĲĨè§£ä¸Ĭä¸ĭæĸĩ"
      ],
      [
        "åĪ¶å¤ĩæĸ¹å¼ıåı¯ä»¥",
        "æĺ¯èĴ¸é¦ı"
      ],
      [
        "è®©æ¨¡åŀĭçŁ¥éģĵåħĪåĲİ",
        "é¡ºåºı"
      ],
      [
        "ä½įç½®ç¼ĸçłģåĳĬè¯īæ¨¡åŀĭè¯į",
        "åľ¨åı¥åŃĲä¸ŃçļĦé¡ºåºı"
      ],
      [
        "çº¯æ°´æĺ¯æĮĩæĿĤè´¨åĲ«éĩ",
        "ıæŀģä½İçļĦæ°´"
      ],
      [
        "åĲĮæł·åıĤæķ°å¾ĹåĪ°çĽ¸è¿ĳ",
        "ç»ĵæŀľ"
      ],
      [
        "i",
        "t"
      ],
      [
        "s",
        "i"
      ],
      [
        "¡",
        "®"
      ],
      [
        "æ",
        "£"
      ],
      [
        "æ",
        "ĥ"
      ],
      [
        "ç",
        "¡®"
      ],
      [
        "è",
        "·"
      ],
      [
        "å¤",
        "Ħ"
      ],
      [
        "æľ",
        "į"
      ],
      [
        "äº",
        "¤"
      ],
      [
        "æĽ´",
        "æĸ°"
      ],
      [
        "éĩį",
        "å¤į"
      ],
      [
        "ä¸Ģ",
        "ä¸ª"
      ],
      [
        "ä¸Ģ",
        "èĩ´"
      ],
      [
        "è®©æ¨¡åŀĭ",
        "èĥ½"
      ],
      [
        "è®©æ¨¡åŀĭ",
        "åħ³æ³¨"
      ],
      [
        "æľī",
        "ä»Ģä¹Ī"
      ],
      [
        "è¯¾åłĤ",
        "æ¼Ķç¤º"
      ],
      [
        "åİ",
        "Ł"
      ],
      [
        "æĪ",
        "ĸ"
      ],
      [
        "æī",
        "¾"
      ],
      [
        "ç´",
        "¯"
      ],
      [
        "æ¸",
        "©"
      ],
      [
        "éĺ",
        "Ł"
      ],
      [
        "è¡¨",
        "ç¤º"
      ],
      [
        "è¾ĵ",
        "åħ¥"
      ],
      [
        "åħ³æ³¨",
        "éĩįè¦ģ"
      ],
      [
        "äºĮ",
        "åı"
      ],
      [
        "ar",
        "g"
      ],
      [
        "ä¸ºäºĨ",
        "è®©æ¨¡åŀĭèĥ½"
      ],
      [
        "ä¸ºä»Ģä¹ĪéľĢè¦ģ",
        "æ³¨æĦıåĬĽ"
      ],
      [
        "æİ§",
        "åĪ¶"
      ],
      [
        "ä¸Ģèĩ´",
        "æĢ§"
      ],
      [
        "è®©æ¨¡åŀĭåħ³æ³¨",
        "éĩįçĤ¹"
      ],
      [
        "åħ³æ³¨éĩįè¦ģ",
        "ä¿¡æģ¯"
      ],
      [
        "ä¸ºäºĨè®©æ¨¡åŀĭèĥ½",
        "åħ³æ³¨éĩįè¦ģä¿¡æģ¯"
      ],
      [
        ")",
        "ãĢĤ"
      ],
      [
        "5",
        "0"
      ],
      [
        "F",
        "S"
      ],
      [
        "H",
        "T"
      ],
      [
        "T",
        "P"
      ],
      [
        "d",
        "e"
      ],
      [
        "l",
        "e"
      ],
      [
        "t",
        "op"
      ],
      [
        "¬",
        "¡"
      ],
      [
        "Ã",
        "Ĺ"
      ],
      [
        "â",
        "Ĩ"
      ],
      [
        "ç",
        "ī¹"
      ],
      [
        "ĵ",
        "åŃĺ"
      ],
      [
        "åĬ",
        "¨"
      ],
      [
        "éĢ",
        "Ĵ"
      ],
      [
        "éĢ",
        "īæ"
      ],
      [
        "åŃ",
        "Ĺ"
      ],
      [
        "æķ",
        "Ľ"
      ],
      [
        "ç»",
        "Ħ"
      ],
      [
        "å°",
        "Ĩ"
      ],
      [
        "ç¼",
        "ĵåŃĺ"
      ],
      [
        "æĸ¹",
        "æ³ķ"
      ],
      [
        "çİ",
        "°"
      ],
      [
        "éĻ",
        "Ĳ"
      ],
      [
        "é¢",
        "Ħ"
      ],
      [
        "ä½¿",
        "çĶ¨æ"
      ],
      [
        "éĺ",
        "²"
      ],
      [
        "æĮ",
        "ģ"
      ],
      [
        "æĶ¶",
        "æķĽ"
      ],
      [
        "æµ",
        "ĭ"
      ],
      [
        "è½",
        "¬"
      ],
      [
        "10",
        "0"
      ],
      [
        "åºĶ",
        "çĶ¨"
      ],
      [
        "æ£",
        "Ģ"
      ],
      [
        "arg",
        "s"
      ],
      [
        "HT",
        "TP"
      ],
      [
        "âĨ",
        "Ĵ"
      ],
      [
        "éĢīæ",
        "ĭ"
      ],
      [
        "e",
        "d"
      ],
      [
        "t",
        "u"
      ],
      [
        "±",
        "»"
      ],
      [
        "¶",
        "æĢ"
      ],
      [
        "¿",
        "éĹ®"
      ],
      [
        "ç",
        "ĥ"
      ],
      [
        "ç",
        "Ī"
      ],
      [
        "ç",
        "±»"
      ],
      [
        "è",
        "±"
      ],
      [
        "é",
        "Ĥ"
      ],
      [
        "é",
        "ĥ½"
      ],
      [
        "Ĭ",
        "¶æĢ"
      ],
      [
        "Ĳ",
        "ľ"
      ],
      [
        "Ľ",
        "å»º"
      ],
      [
        "åĪ",
        "Ļ"
      ],
      [
        "åĪ",
        "Ľå»º"
      ],
      [
        "è®",
        "¿éĹ®"
      ],
      [
        "è¯",
        "ķ"
      ],
      [
        "å®",
        "¹"
      ],
      [
        "å¯",
        "Ĩ"
      ],
      [
        "å¯",
        "Ł"
      ],
      [
        "æĬ",
        "Ģ"
      ],
      [
        "æį",
        "¢"
      ],
      [
        "è´",
        "¨æ"
      ],
      [
        "å¤§",
        "å°ı"
      ],
      [
        "å¿",
        "ĥ"
      ],
      [
        "ç§",
        "¯"
      ],
      [
        "ä¸Ń",
        "å¦Ĥä½ķ"
      ],
      [
        "è´¨",
        "éĩı"
      ],
      [
        "å¤į",
        "æĿĤ"
      ],
      [
        "äºĮ",
        "è¿ĽåĪ¶"
      ],
      [
        "è§Ĥ",
        "å¯Ł"
      ],
      [
        "åī",
        "ª"
      ],
      [
        "ç´¢",
        "å¼ķ"
      ],
      [
        "è¿ŀ",
        "æİ¥"
      ],
      [
        "ç´¯",
        "ç§¯"
      ],
      [
        "éĢĴ",
        "å½Ĵ"
      ],
      [
        "æ£Ģ",
        "æŁ¥"
      ],
      [
        "tu",
        "p"
      ],
      [
        "çĥ",
        "Ń"
      ],
      [
        "Ĭ¶æĢ",
        "ģ"
      ],
      [
        "Ĳľ",
        "ç´¢"
      ],
      [
        "(",
        ")"
      ],
      [
        "A",
        "C"
      ],
      [
        "A",
        "P"
      ],
      [
        "C",
        "li"
      ],
      [
        "S",
        "T"
      ],
      [
        "T",
        "CP"
      ],
      [
        "c",
        "h"
      ],
      [
        "i",
        "e"
      ],
      [
        "l",
        "o"
      ],
      [
        "u",
        "e"
      ],
      [
        "µ",
        "Į"
      ],
      [
        "·",
        "è´"
      ],
      [
        "·",
        "æ±Ĥ"
      ],
      [
        "¿",
        "åħ"
      ],
      [
        "å",
        "µĮ"
      ],
      [
        "æ",
        "®"
      ],
      [
        "æ",
        "º"
      ],
      [
        "æ",
        "¨¡å"
      ],
      [
        "æ",
        "¦Ĥ"
      ],
      [
        "æ",
        "ĵį"
      ],
      [
        "ç",
        "Ł"
      ],
      [
        "ç",
        "Ĭ¶æĢģ"
      ],
      [
        "Ģ",
        "æľī"
      ],
      [
        "ģ",
        "åīª"
      ],
      [
        "ī",
        "æłĳ"
      ],
      [
        "Ķ",
        "ç"
      ],
      [
        "ķ",
        "°"
      ],
      [
        "Ļ",
        "å¼"
      ],
      [
        "ä¸",
        "»"
      ],
      [
        "ä½",
        "Ļå¼"
      ],
      [
        "ä»",
        "»"
      ],
      [
        "è¯",
        "·æ±Ĥ"
      ],
      [
        "è¿",
        "ĺ"
      ],
      [
        "æľ",
        "¬"
      ],
      [
        "æľ",
        "Ł"
      ],
      [
        "åĲ",
        "ĳ"
      ],
      [
        "ç»",
        "Ļ"
      ],
      [
        "çĶ¨",
        "äºİ"
      ],
      [
        "æł",
        "¸"
      ],
      [
        "ä¸İ",
        "è¾ĵåĩº"
      ],
      [
        "åĩ",
        "Ĩ"
      ],
      [
        "å¯¹",
        "è±"
      ],
      [
        "åł",
        "Ĩ"
      ],
      [
        "æŀ",
        "Ħ"
      ],
      [
        "éĹ",
        "´"
      ],
      [
        "æıĲ",
        "äº¤"
      ],
      [
        "å¹",
        "³"
      ],
      [
        "ä¸ºä»Ģä¹Ī",
        "è¦ģ"
      ],
      [
        "è¾",
        "¾"
      ],
      [
        "åıĤæķ°",
        "å¹¶"
      ],
      [
        "éģ",
        "¿åħ"
      ],
      [
        "å¹¶",
        "åģļ"
      ],
      [
        "éĥ¨",
        "ç½"
      ],
      [
        "å·",
        "®"
      ],
      [
        "éħ",
        "įç½®"
      ],
      [
        "CPU",
        "ä¸Ĭ"
      ],
      [
        "ä¼ĺ",
        "åħĪ"
      ],
      [
        "æ·",
        "±"
      ],
      [
        "æŁ¥",
        "æī¾"
      ],
      [
        "è§Ĥ",
        "éĶģ"
      ],
      [
        "éªĮè¯ģ",
        "æįŁå¤±"
      ],
      [
        "è®¾",
        "è®¡"
      ],
      [
        "çº¿",
        "æĢ§"
      ],
      [
        "çº¿",
        "ç¨ĭ"
      ],
      [
        "æĭ",
        "·è´"
      ],
      [
        "è£",
        "ģåīª"
      ],
      [
        "æłĩ",
        "çĤ¹"
      ],
      [
        "ç«",
        "ĭ"
      ],
      [
        "æĪĸ",
        "è¯į"
      ],
      [
        "æ¸©",
        "åº¦"
      ],
      [
        "éĺŁ",
        "åĪĹ"
      ],
      [
        "äºĮåı",
        "īæłĳ"
      ],
      [
        "é¢Ħ",
        "çĥŃ"
      ],
      [
        "éĢīæĭ",
        "©"
      ],
      [
        "éĤ",
        "»"
      ],
      [
        "è´¨æ",
        "ķ°"
      ],
      [
        "tup",
        "le"
      ],
      [
        "Cli",
        "ent"
      ],
      [
        "åµĮ",
        "åħ¥"
      ],
      [
        "æĵį",
        "ä½ľ"
      ],
      [
        "ä½Ļå¼",
        "¦"
      ],
      [
        "éģ¿åħ",
        "į"
      ],
      [
        "éĥ¨ç½",
        "²"
      ],
      [
        "æĭ·è´",
        "Ŀ"
      ],
      [
        ")",
        "ãĢģ"
      ],
      [
        "E",
        "T"
      ],
      [
        "G",
        "it"
      ],
      [
        "Q",
        "L"
      ],
      [
        "S",
        "er"
      ],
      [
        "S",
        "QL"
      ],
      [
        "a",
        "ch"
      ],
      [
        "i",
        "p"
      ],
      [
        "i",
        "on"
      ],
      [
        "o",
        "c"
      ],
      [
        "v",
        "er"
      ],
      [
        "®",
        "æĶ¹"
      ],
      [
        "»",
        "åĩ"
      ],
      [
        "æ",
        "¡"
      ],
      [
        "æ",
        "Ħı"
      ],
      [
        "ç",
        "ĭ"
      ],
      [
        "ĥ",
        "ı"
      ],
      [
        "ĺ",
        "¯"
      ],
      [
        "ä¸",
        "¤"
      ],
      [
        "åı",
        "³"
      ],
      [
        "åı",
        "Į"
      ],
      [
        "åĪ",
        "ł"
      ],
      [
        "åħ",
        "ĥ"
      ],
      [
        "éĢ",
        "ģ"
      ],
      [
        "è®",
        "®"
      ],
      [
        "è¯",
        "»"
      ],
      [
        "è¯",
        "Ħ"
      ],
      [
        "æķ",
        "´"
      ],
      [
        "ä¿",
        "®æĶ¹"
      ],
      [
        "äº",
        "ĭ"
      ],
      [
        "æĶ",
        "¾"
      ],
      [
        "æĶ",
        "»åĩ"
      ],
      [
        "æ³¨æĦıåĬĽ",
        "è®©æ¨¡åŀĭåħ³æ³¨éĩįçĤ¹"
      ],
      [
        "æł",
        "Ī"
      ],
      [
        "åį",
        "ı"
      ],
      [
        "éĿ",
        "ŀ"
      ],
      [
        "èĢ",
        "¦"
      ],
      [
        "è¿ĩ",
        "å¤§"
      ],
      [
        "åĲĪ",
        "å¹¶"
      ],
      [
        "è®Ńç»ĥ",
        "ä¸İ"
      ],
      [
        "è®Ńç»ĥ",
        "æŃ¥"
      ],
      [
        "ç¤º",
        "è¯į"
      ],
      [
        "çº",
        "§"
      ],
      [
        "æıĲ",
        "ç¤ºè¯į"
      ],
      [
        "å¾",
        "®"
      ],
      [
        "æī",
        "¹"
      ],
      [
        "æī",
        "Ģæľī"
      ],
      [
        "ç´",
        "ł"
      ],
      [
        "æķ°æį®",
        "ä¸İ"
      ],
      [
        "éĢŁ",
        "åº¦"
      ],
      [
        "æľĢ",
        "ä¼ĺ"
      ],
      [
        "æ¸",
        "ħ"
      ],
      [
        "å·",
        "¦"
      ],
      [
        "åĿ",
        "ĩ"
      ],
      [
        "æĹ",
        "ł"
      ],
      [
        "åıĳ",
        "éĢģ"
      ],
      [
        "åĽŀ",
        "æĶ¶"
      ],
      [
        "ä¼ĺ",
        "åĮĸ"
      ],
      [
        "æ¢¯åº¦",
        "ç´¯ç§¯"
      ],
      [
        "åī",
        "į"
      ],
      [
        "åŃ¦ä¹łçİĩ",
        "ä¸İ"
      ],
      [
        "å¸",
        "¸"
      ],
      [
        "å¸",
        "ĥ"
      ],
      [
        "li",
        "st"
      ],
      [
        "in",
        "g"
      ],
      [
        "å®ŀ",
        "çİ°"
      ],
      [
        "å±Ĥ",
        "æĿĥéĩį"
      ],
      [
        "è£",
        "ħ"
      ],
      [
        "å¼Ģ",
        "åıĳ"
      ],
      [
        "å±",
        "Ģ"
      ],
      [
        "è·",
        "¯"
      ],
      [
        "å¤Ħ",
        "çĲĨ"
      ],
      [
        "æľį",
        "åĬ¡"
      ],
      [
        "æİ§åĪ¶",
        "è®Ńç»ĥæŃ¥"
      ],
      [
        "éĺ²",
        "æŃ¢"
      ],
      [
        "æµĭ",
        "è¯ķ"
      ],
      [
        "å®¹",
        "åĻ¨"
      ],
      [
        "å¤įæĿĤ",
        "åº¦"
      ],
      [
        "AC",
        "K"
      ],
      [
        "çŁ",
        "Ń"
      ],
      [
        "å¯¹è±",
        "¡"
      ],
      [
        "çĭ",
        "¬"
      ],
      [
        "æĶ»åĩ",
        "»"
      ],
      [
        ")",
        "ï¼Į"
      ],
      [
        ".",
        "."
      ],
      [
        "1",
        "1"
      ],
      [
        "B",
        "FS"
      ],
      [
        "D",
        "FS"
      ],
      [
        "F",
        "I"
      ],
      [
        "R",
        "ed"
      ],
      [
        "a",
        "l"
      ],
      [
        "c",
        "op"
      ],
      [
        "e",
        "s"
      ],
      [
        "f",
        "or"
      ],
      [
        "i",
        "c"
      ],
      [
        "i",
        "s"
      ],
      [
        "k",
        "w"
      ],
      [
        "o",
        "u"
      ],
      [
        "u",
        "b"
      ],
      [
        "u",
        "s"
      ],
      [
        "u",
        "re"
      ],
      [
        "¡",
        "çĲĨ"
      ],
      [
        "¤",
        "æĸ"
      ],
      [
        "¦",
        "»"
      ],
      [
        "ª",
        "ģ"
      ],
      [
        "²",
        "ç"
      ],
      [
        "³",
        "¨æĦıåĬĽ"
      ],
      [
        "´",
        "»"
      ],
      [
        "¶",
        "æķ°"
      ],
      [
        "¼",
        "ı"
      ],
      [
        "â",
        "Ģ"
      ],
      [
        "å",
        "ĵ"
      ],
      [
        "å",
        "Ł"
      ],
      [
        "å",
        "ĥı"
      ],
      [
        "æ",
        "ģ"
      ],
      [
        "æ",
        "Ļ"
      ],
      [
        "æ",
        "Ĳľç´¢"
      ],
      [
        "æ",
        "´»"
      ],
      [
        "ç",
        "Ĥ"
      ],
      [
        "ç",
        "½®"
      ],
      [
        "è",
        "Ĭ"
      ],
      [
        "è",
        "Į"
      ],
      [
        "é",
        "ĵ"
      ],
      [
        "ģ",
        "è¿ĽåĪ¶"
      ],
      [
        "Ĩ",
        "çĤ"
      ],
      [
        "Ī",
        "å¸"
      ],
      [
        "ĭ",
        "å·®"
      ],
      [
        "į",
        "åİ"
      ],
      [
        "İ",
        "ä¹Ī"
      ],
      [
        "ı",
        "æľº"
      ],
      [
        "Ĳ",
        "æŃ¥"
      ],
      [
        "åĬ",
        "¡å"
      ],
      [
        "çĶ",
        "±"
      ],
      [
        "åı",
        "ĸ"
      ],
      [
        "åĪ",
        "¤æĸ"
      ],
      [
        "åħ",
        "¸"
      ],
      [
        "éĢ",
        "ĲæŃ¥"
      ],
      [
        "éĩ",
        "ĩ"
      ],
      [
        "ä¹",
        "¦"
      ],
      [
        "ä¹",
        "ī"
      ],
      [
        "æĺ¯",
        "åĲ"
      ],
      [
        "æĺ¯",
        "ä¸Ģ"
      ],
      [
        "åº",
        "ĵ"
      ],
      [
        "çļĦ",
        "åĮºåĪ«"
      ],
      [
        "æľ",
        "¯"
      ],
      [
        "åĲ",
        "¯"
      ],
      [
        "ç»",
        "ı"
      ],
      [
        "ç»",
        "Ł"
      ],
      [
        "è§",
        "Ħ"
      ],
      [
        "ç®",
        "¡çĲĨ"
      ],
      [
        "ä»Ģä¹Īæĺ¯",
        "Python"
      ],
      [
        "æĶ",
        "¯"
      ],
      [
        "è®¡",
        "æķ°"
      ],
      [
        "åį",
        "ģè¿ĽåĪ¶"
      ],
      [
        "å®ļ",
        "æľŁ"
      ],
      [
        "åº¦",
        "ä¼ĺåħĪ"
      ],
      [
        "åĪĨ",
        "å¸ĥ"
      ],
      [
        "è¡",
        "¡"
      ],
      [
        "ä¸Ģ",
        "æŃ¥"
      ],
      [
        "è¯į",
        "åºıåħ³ç³»"
      ],
      [
        "æĢ",
        "İä¹Ī"
      ],
      [
        "è®©æ¨¡åŀĭ",
        "çĲĨè§£"
      ],
      [
        "èĢ",
        "ħ"
      ],
      [
        "é¦",
        "ĸ"
      ],
      [
        "å¦Ĥä½ķ",
        "è®©æ¨¡åŀĭåħ³æ³¨éĩįçĤ¹"
      ],
      [
        "ä½įç½®ç¼ĸçłģ",
        "éĩįè¦ģ"
      ],
      [
        "éĹ",
        "Ń"
      ],
      [
        "æıĲ",
        "é«ĺ"
      ],
      [
        "å¾",
        "Ħ"
      ],
      [
        "çĽ",
        "®"
      ],
      [
        "éĻ",
        "į"
      ],
      [
        "ä¸ºä»Ģä¹Ī",
        "ä½įç½®ç¼ĸçłģéĩįè¦ģ"
      ],
      [
        "å½",
        "ķ"
      ],
      [
        "éĢļè¿ĩ",
        "ä½įç½®ç¼ĸçłģ"
      ],
      [
        "ä½ľ",
        "ä¸º"
      ],
      [
        "ä¿Ŀ",
        "è¯ģ"
      ],
      [
        "æľĢ",
        "å°ı"
      ],
      [
        "æľĢ",
        "åĲİ"
      ],
      [
        "éģ",
        "įåİ"
      ],
      [
        "éª",
        "¤"
      ],
      [
        "åģ",
        "ľ"
      ],
      [
        "åĻ",
        "¨æ"
      ],
      [
        "æŃ¥",
        "éª¤"
      ],
      [
        "åĽŀ",
        "éĢĢ"
      ],
      [
        "æ¢¯åº¦",
        "è£ģåīª"
      ],
      [
        "è½",
        "»"
      ],
      [
        "åĢ",
        "º"
      ],
      [
        "çŁ¥éģĵ",
        "è¯įçļĦ"
      ],
      [
        "èİ·",
        "åıĸ"
      ],
      [
        "éĽĨ",
        "åĲĪ"
      ],
      [
        "éĽĨ",
        "åŀĭ"
      ],
      [
        "ç½",
        "ĳ"
      ],
      [
        "æ¨¡åŀĭ",
        "æĢİä¹Ī"
      ],
      [
        "åħ¨",
        "å±Ģ"
      ],
      [
        "èµ",
        "°"
      ],
      [
        "åıª",
        "æľī"
      ],
      [
        "è°ĥ",
        "çĶ¨"
      ],
      [
        "è°ĥ",
        "åº¦"
      ],
      [
        "ç«",
        "Ļ"
      ],
      [
        "éļ",
        "Ķç"
      ],
      [
        "éļ",
        "ıæľº"
      ],
      [
        "æľį",
        "åĬ¡å"
      ],
      [
        "åİŁ",
        "åĪĻ"
      ],
      [
        "ä½¿çĶ¨æ",
        "³¨æĦıåĬĽ"
      ],
      [
        "çĪ",
        "ĨçĤ"
      ],
      [
        "éĥ½",
        "æĺ¯"
      ],
      [
        "å¯Ĩ",
        "éĽĨåŀĭ"
      ],
      [
        "æĬĢ",
        "æľ¯"
      ],
      [
        "æ¨¡å",
        "¼ı"
      ],
      [
        "æ¦Ĥ",
        "çİĩ"
      ],
      [
        "ä»»",
        "åĬ¡"
      ],
      [
        "æł¸",
        "å¿ĥ"
      ],
      [
        "éģ¿åħį",
        "éĩįå¤į"
      ],
      [
        "Ser",
        "ver"
      ],
      [
        "æ¡",
        "Ī"
      ],
      [
        "ä¸¤",
        "ä¸ª"
      ],
      [
        "åĪł",
        "éĻ¤"
      ],
      [
        "äºĭ",
        "åĬ¡"
      ],
      [
        "æī¹",
        "å¤§å°ı"
      ],
      [
        "è·¯",
        "å¾Ħ"
      ],
      [
        "çĭ¬",
        "ç«ĭ"
      ],
      [
        "Red",
        "is"
      ],
      [
        "cop",
        "y"
      ],
      [
        "kw",
        "args"
      ],
      [
        "åĵ",
        "Īå¸"
      ],
      [
        "åŁ",
        "º"
      ],
      [
        "èĬ",
        "Ĥ"
      ],
      [
        "èĮ",
        "ĥ"
      ],
      [
        "åĪ¤æĸ",
        "Ń"
      ],
      [
        "æĺ¯åĲ",
        "¦"
      ],
      [
        "ä»Ģä¹Īæĺ¯Python",
        "çļĦ"
      ],
      [
        "åº¦ä¼ĺåħĪ",
        "æĲľç´¢"
      ],
      [
        "åĪĨå¸ĥ",
        "å¼ı"
      ],
      [
        "è®©æ¨¡åŀĭçĲĨè§£",
        "è¯įåºıåħ³ç³»"
      ],
      [
        "éģįåİ",
        "Ĩ"
      ],
      [
        "çŁ¥éģĵè¯įçļĦ",
        "é¡ºåºı"
      ],
      [
        "æ¨¡åŀĭæĢİä¹Ī",
        "çŁ¥éģĵè¯įçļĦé¡ºåºı"
      ],
      [
        "éļĶç",
        "¦»"
      ],
      [
        "ä½¿çĶ¨æ³¨æĦıåĬĽ",
        "æľºåĪ¶"
      ],
      [
        "çĪĨçĤ",
        "¸"
      ],
      [
        "åĵĪå¸",
        "Į"
      ],
      [
        "*",
        "*"
      ],
      [
        "2",
        "Â"
      ],
      [
        "=",
        "("
      ],
      [
        "B",
        "a"
      ],
      [
        "C",
        "D"
      ],
      [
        "C",
        "I"
      ],
      [
        "C",
        "S"
      ],
      [
        "C",
        "on"
      ],
      [
        "C",
        "AP"
      ],
      [
        "D",
        "r"
      ],
      [
        "F",
        "O"
      ],
      [
        "G",
        "ET"
      ],
      [
        "I",
        "D"
      ],
      [
        "L",
        "a"
      ],
      [
        "O",
        "ST"
      ],
      [
        "P",
        "OST"
      ],
      [
        "R",
        "F"
      ],
      [
        "S",
        "O"
      ],
      [
        "S",
        "S"
      ],
      [
        "a",
        "in"
      ],
      [
        "c",
        "r"
      ],
      [
        "c",
        "y"
      ],
      [
        "c",
        "ing"
      ],
      [
        "e",
        "at"
      ],
      [
        "e",
        "ach"
      ],
      [
        "f",
        "u"
      ],
      [
        "f",
        "eat"
      ],
      [
        "l",
        "y"
      ],
      [
        "m",
        "ain"
      ],
      [
        "n",
        "c"
      ],
      [
        "r",
        "it"
      ],
      [
        "t",
        "each"
      ],
      [
        "v",
        "a"
      ],
      [
        "v",
        "ie"
      ],
      [
        "¡",
        "æĿ"
      ],
      [
        "¥",
        "°"
      ],
      [
        "§",
        "è¡Į"
      ],
      [
        "¨",
        "¡æĿ"
      ],
      [
        "©",
        "åŃĲ"
      ],
      [
        "©",
        "äºİ"
      ],
      [
        "©",
        "ç½"
      ],
      [
        "ª",
        "å¿ĥ"
      ],
      [
        "«",
        "éĢĲæŃ¥"
      ],
      [
        "²",
        "»"
      ],
      [
        "²",
        "è§ĤéĶģ"
      ],
      [
        "¶",
        "æĦı"
      ],
      [
        "¼",
        "å¹³"
      ],
      [
        "¿",
        "Ģ"
      ],
      [
        "å",
        "Ĥ"
      ],
      [
        "æ",
        "»"
      ],
      [
        "æ",
        "Ĥ"
      ],
      [
        "æ",
        "¬¡"
      ],
      [
        "æ",
        "¨¡æĿ"
      ],
      [
        "æ",
        "²»"
      ],
      [
        "æ",
        "¿Ģ"
      ],
      [
        "ç",
        "ģ"
      ],
      [
        "ç",
        "Ħ"
      ],
      [
        "é",
        "¥°"
      ],
      [
        "Ġ",
        "3"
      ],
      [
        "Ġ",
        "n"
      ],
      [
        "Ġ",
        "for"
      ],
      [
        "ģ",
        "ç¨ĭ"
      ],
      [
        "Ħ",
        "æº"
      ],
      [
        "ħ",
        "æĭ·è´Ŀ"
      ],
      [
        "ĩ",
        "é«ĺ"
      ],
      [
        "ī",
        "åħ¨"
      ],
      [
        "Ĳ",
        "è§ĤéĶģ"
      ],
      [
        "Ĵ",
        "åħ¥"
      ],
      [
        "Ķ",
        "åĽŀ"
      ],
      [
        "Ķ",
        "æ¡Ī"
      ],
      [
        "ĸ",
        "çķ"
      ],
      [
        "Ļ",
        "¨"
      ],
      [
        "Ļ",
        "åŃ¦"
      ],
      [
        "ļ",
        "ä¸İ"
      ],
      [
        "ľ",
        "åĥı"
      ],
      [
        "Ŀ",
        "èµ"
      ],
      [
        "Ł",
        "å®ŀ"
      ],
      [
        "Ń",
        "¥"
      ],
      [
        "åĬ",
        "Ł"
      ],
      [
        "åĬ",
        "©äºİ"
      ],
      [
        "ä¸",
        "īæ"
      ],
      [
        "ä»",
        "¶"
      ],
      [
        "è®",
        "º"
      ],
      [
        "ä¹",
        "ĺ"
      ],
      [
        "ä¹",
        "Ĳè§ĤéĶģ"
      ],
      [
        "è¯",
        "¯"
      ],
      [
        "è¯",
        "Ń"
      ],
      [
        "åŃ",
        "©åŃĲ"
      ],
      [
        "æķ",
        "£"
      ],
      [
        "æķ",
        "ĻåŃ¦"
      ],
      [
        "å¤",
        "ĩé«ĺ"
      ],
      [
        "çļĦ",
        "å°ı"
      ],
      [
        "çļĦ",
        "æķ°æį®"
      ],
      [
        "çļĦ",
        "è¯¾åłĤæ¼Ķç¤º"
      ],
      [
        "çļĦ",
        "ä¸»"
      ],
      [
        "çļĦ",
        "åŃ¦ä¹łçİĩä¸İ"
      ],
      [
        "è¿",
        "ĶåĽŀ"
      ],
      [
        "åĨ",
        "³"
      ],
      [
        "åĨ",
        "²ç"
      ],
      [
        "åĲ",
        "į"
      ],
      [
        "ç»",
        "Ī"
      ],
      [
        "çĶ¨",
        "å°ıæ¨¡åŀĭ"
      ],
      [
        "çĶ¨",
        "çľ"
      ],
      [
        "çĶ¨",
        "å¤ļ"
      ],
      [
        "çĶ¨",
        "ä½Ļå¼¦"
      ],
      [
        "æķ°",
        "åŃĹ"
      ],
      [
        "å°",
        "ģ"
      ],
      [
        "ä»Ģä¹Īæĺ¯",
        "åŃ¦ä¹łçİĩ"
      ],
      [
        "ä»Ģä¹Īæĺ¯",
        "teach"
      ],
      [
        "æĽ´",
        "æĺİæĺ¾"
      ],
      [
        "æĽ´",
        "æį¢"
      ],
      [
        "å®",
        "īåħ¨"
      ],
      [
        "è§£",
        "èĢ¦"
      ],
      [
        "è§£",
        "åĨ³"
      ],
      [
        "æ³¨æĦıåĬĽ",
        "å¤įæĿĤåº¦"
      ],
      [
        "å¯",
        "¼"
      ],
      [
        "ç¼",
        "©"
      ],
      [
        "éĢļä¿",
        "¡"
      ],
      [
        "æł",
        "¼"
      ],
      [
        "ä¸ĭ",
        "ä¸ĢæŃ¥"
      ],
      [
        "ıæ",
        "Ń¥"
      ],
      [
        "ä¸İ",
        "åıĤæķ°"
      ],
      [
        "ä¸İ",
        "æķĪ"
      ],
      [
        "ä¸İ",
        "è¯¾åłĤæ¼Ķç¤º"
      ],
      [
        "ä¸İ",
        "é¢ĦçĥŃ"
      ],
      [
        "ä¸İ",
        "çŁŃ"
      ],
      [
        "æĶ¹",
        "ä»£çłģ"
      ],
      [
        "æĿ",
        "ĥ"
      ],
      [
        "å¯¹",
        "çŃ"
      ],
      [
        "å¯¹",
        "çĶŁæĪĲ"
      ],
      [
        "è®¡ç®Ĺ",
        "è¶Ĭ"
      ],
      [
        "è®¡ç®Ĺ",
        "æįŁå¤±"
      ],
      [
        "åĪĨ",
        "è¯į"
      ],
      [
        "åĪĨ",
        "æĶ¯"
      ],
      [
        "åĪĨ",
        "æ²»"
      ],
      [
        "è¦ģ",
        "è§£éĩĬ"
      ],
      [
        "è´",
        "ªå¿ĥ"
      ],
      [
        "è¶",
        "ħ"
      ],
      [
        "åĽ",
        "ł"
      ],
      [
        "åĬł",
        "åħ¥"
      ],
      [
        "åĬł",
        "å¿«"
      ],
      [
        "åĬł",
        "ç®Ģåįķ"
      ],
      [
        "ä¸Ģ",
        "åĮĸ"
      ],
      [
        "ä¸Ģ",
        "ä½į"
      ],
      [
        "è¯į",
        "åµĮåħ¥"
      ],
      [
        "ä¼",
        "°"
      ],
      [
        "ä¼",
        "ł"
      ],
      [
        "ä¼",
        "¼å¹³"
      ],
      [
        "å¤§",
        "è¿Ľè¡Į"
      ],
      [
        "åı¯",
        "åıĺ"
      ],
      [
        "è¶Ĭ",
        "é«ĺ"
      ],
      [
        "è¶Ĭ",
        "ä½İ"
      ],
      [
        "è¶Ĭ",
        "åıĳ"
      ],
      [
        "è¶Ĭ",
        "ç¡®"
      ],
      [
        "åĲĪ",
        "éĢĤ"
      ],
      [
        "æĸ¹",
        "å¢ŀ"
      ],
      [
        "æĸ¹",
        "ä¾¿"
      ],
      [
        "æı",
        "Ĵåħ¥"
      ],
      [
        "è®Ńç»ĥ",
        "ç¨³å®ļ"
      ],
      [
        "è®Ńç»ĥ",
        "æĹ¶"
      ],
      [
        "è®Ńç»ĥ",
        "ä¸Ńå¦Ĥä½ķ"
      ],
      [
        "è®Ńç»ĥ",
        "æĺ¯åĲ¦"
      ],
      [
        "è®Ńç»ĥ",
        "çļĦå°ı"
      ],
      [
        "å¦Ĥä½ķ",
        "éªĮè¯ģ"
      ],
      [
        "å¦Ĥä½ķ",
        "è®¾"
      ],
      [
        "å¦Ĥä½ķ",
        "éĺ²æŃ¢"
      ],
      [
        "å¦Ĥä½ķ",
        "æıĲé«ĺ"
      ],
      [
        "å¦Ĥä½ķ",
        "éģ¿åħįéĩįå¤į"
      ],
      [
        "éķ",
        "ľåĥı"
      ],
      [
        "åħĪ",
        "å°ı"
      ],
      [
        "æľī",
        "æķĪ"
      ],
      [
        "æľī",
        "åĬ©äºİ"
      ],
      [
        "æıĲ",
        "é«ĺæķĪ"
      ],
      [
        "çİ",
        "¯"
      ],
      [
        "ç®Ģ",
        "è¦ģè§£éĩĬ"
      ],
      [
        "æŃ",
        "£"
      ],
      [
        "èĥ½",
        "æıĲé«ĺæķĪ"
      ],
      [
        "é¡",
        "¶"
      ],
      [
        "é¡",
        "¹"
      ],
      [
        "åºıåĪĹ",
        "éķ¿åº¦"
      ],
      [
        "éĶ",
        "Ļ"
      ],
      [
        "å°ı",
        "æķ°æį®"
      ],
      [
        "ä¸ºä»Ģä¹Ī",
        "åħ±äº«"
      ],
      [
        "ä¸ºä»Ģä¹Ī",
        "åºıåĪĹéķ¿åº¦"
      ],
      [
        "æĢ§",
        "èĥ½"
      ],
      [
        "åŃĺ",
        "åĤ"
      ],
      [
        "è¿Ľ",
        "ç¨ĭ"
      ],
      [
        "æī",
        "©"
      ],
      [
        "æī",
        "§è¡Į"
      ],
      [
        "å°ıæ¨¡åŀĭ",
        "çļĦè¯¾åłĤæ¼Ķç¤º"
      ],
      [
        "ä¿Ŀ",
        "æĮģ"
      ],
      [
        "åĲİ",
        "å¤ĦçĲĨ"
      ],
      [
        "åĲİ",
        "å¤§è¿Ľè¡Į"
      ],
      [
        "æķ°æį®",
        "æĪĸè¯į"
      ],
      [
        "æķ°æį®",
        "åºĵ"
      ],
      [
        "çİĩ",
        "æıĲåįĩ"
      ],
      [
        "çŃ",
        "ĸçķ"
      ],
      [
        "īæ",
        "Ĳľç´¢"
      ],
      [
        "å¹¶",
        "å®ļæľŁ"
      ],
      [
        "æ¼Ķç¤º",
        "ä¸İåıĤæķ°"
      ],
      [
        "ä¾",
        "ĭ"
      ],
      [
        "ä¾",
        "Ŀèµ"
      ],
      [
        "è¯ģ",
        "ä¹¦"
      ],
      [
        "å·",
        "¥"
      ],
      [
        "å·",
        "§"
      ],
      [
        "åģ",
        "¶æķ°"
      ],
      [
        "åľ¨",
        "è®Ńç»ĥæĹ¶"
      ],
      [
        "ä½İ",
        "æ¸©"
      ],
      [
        "æĿĥéĩį",
        "åĩıå°ĳ"
      ],
      [
        "è¡¨",
        "ä¸į"
      ],
      [
        "æŃ¥",
        "éķ¿"
      ],
      [
        "åıĳ",
        "çİ°"
      ],
      [
        "åĽŀ",
        "å¤į"
      ],
      [
        "åĽºå®ļ",
        "æıĲç¤ºè¯į"
      ],
      [
        "åĽºå®ļ",
        "éļıæľº"
      ],
      [
        "éªĮ",
        "ä¸İè¯¾åłĤæ¼Ķç¤º"
      ],
      [
        "åĨį",
        "çĶ¨ä½Ļå¼¦"
      ],
      [
        "åĩº",
        "CPUä¸Ĭ"
      ],
      [
        "æ³¨æĦıåĬĽæľºåĪ¶",
        "çļĦä½ľçĶ¨"
      ],
      [
        "op",
        "ou"
      ],
      [
        "ä¸į",
        "æĺ¯"
      ],
      [
        "ä¼ļ",
        "åıĺæħ¢"
      ],
      [
        "ç¨³å®ļ",
        "æĢ§"
      ],
      [
        "ç¨³å®ļ",
        "æİ¨çĲĨ"
      ],
      [
        "ç¨³å®ļ",
        "è¾ĵåĩº"
      ],
      [
        "ç¨³å®ļ",
        "æĶ¶æķĽ"
      ],
      [
        "èĩª",
        "åĬ¨"
      ],
      [
        "æµ",
        "ģç¨ĭ"
      ],
      [
        "æµ",
        "ħæĭ·è´Ŀ"
      ],
      [
        "è§Ĥ",
        "æ£ĢæŁ¥"
      ],
      [
        "å¥½",
        "å¤Ħ"
      ],
      [
        "å»º",
        "è®®"
      ],
      [
        "åŃ¦ä¹łçİĩ",
        "æİ§åĪ¶"
      ],
      [
        "ar",
        "t"
      ],
      [
        "æİ¥",
        "æĶ¶"
      ],
      [
        "æįŁå¤±",
        "åĩ½æķ°"
      ],
      [
        "ç»ĵæŀľ",
        "åı¯å¤įçİ°"
      ],
      [
        "éĥ¨åĪĨ",
        "è®¡ç®ĹæįŁå¤±"
      ],
      [
        "ä¾¿äºİ",
        "å¿«éĢŁ"
      ],
      [
        "éĽĨ",
        "çļĦä¸»"
      ],
      [
        "è¿ĳ",
        "ä¼¼å¹³"
      ],
      [
        "åºıåĪĹè¶Ĭéķ¿",
        "è®¡ç®Ĺè¶Ĭ"
      ],
      [
        "åĽºå®ļç§įåŃĲ",
        "å¹¶å®ļæľŁ"
      ],
      [
        "å®ŀ",
        "éªĮä¸İè¯¾åłĤæ¼Ķç¤º"
      ],
      [
        "å½Ĵ",
        "ä¸ĢåĮĸ"
      ],
      [
        "èµ",
        "Ħæº"
      ],
      [
        "åıª",
        "å¯¹çŃ"
      ],
      [
        "æłĩ",
        "ä½ľä¸º"
      ],
      [
        "å¼ķ",
        "çĶ¨"
      ],
      [
        "Python",
        "ä¸Ń"
      ],
      [
        "å±",
        "ħ"
      ],
      [
        "éĢĢ",
        "çģ"
      ],
      [
        "è¿ŀ",
        "éĢļ"
      ],
      [
        "æŃ¢",
        "è¯į"
      ],
      [
        "çĶŁæĪĲ",
        "æłĩçĤ¹"
      ],
      [
        "åħ±äº«",
        "æĿĥéĩįåĩıå°ĳ"
      ],
      [
        "si",
        "st"
      ],
      [
        "æĥ",
        "³"
      ],
      [
        "æĥ",
        "©ç½"
      ],
      [
        "æĽ´æĸ°",
        "æŃ¥éķ¿"
      ],
      [
        "éĩįå¤į",
        "æĥ©ç½"
      ],
      [
        "æľīä»Ģä¹Ī",
        "å½±åĵį"
      ],
      [
        "è¯¾åłĤæ¼Ķç¤º",
        "å»ºè®®"
      ],
      [
        "è¡¨ç¤º",
        "ä¸Ģèĩ´æĢ§"
      ],
      [
        "äºĮåı",
        "īæĲľç´¢"
      ],
      [
        "çī¹",
        "çĤ¹"
      ],
      [
        "éĻĲ",
        "åĪ¶"
      ],
      [
        "éĺ²",
        "èĮĥ"
      ],
      [
        "HTTP",
        "S"
      ],
      [
        "çĪ",
        "¶"
      ],
      [
        "æĬĢ",
        "å·§"
      ],
      [
        "è´¨éĩı",
        "å°ıæķ°æį®"
      ],
      [
        "è§Ĥå¯Ł",
        "éªĮè¯ģæįŁå¤±"
      ],
      [
        "è§Ĥå¯Ł",
        "è®Ńç»ĥä¸İ"
      ],
      [
        "lo",
        "g"
      ],
      [
        "ue",
        "ue"
      ],
      [
        "æ®",
        "ĭå·®"
      ],
      [
        "ç»Ļ",
        "åĩºCPUä¸Ĭ"
      ],
      [
        "ä¸İè¾ĵåĩº",
        "æ¸ħ"
      ],
      [
        "ä¸İè¾ĵåĩº",
        "å±ĤæĿĥéĩį"
      ],
      [
        "åĩĨ",
        "å¤ĩé«ĺ"
      ],
      [
        "ä¸ºä»Ģä¹Īè¦ģ",
        "è§£èĢ¦"
      ],
      [
        "ä¸ºä»Ģä¹Īè¦ģ",
        "åĽºå®ļéļıæľº"
      ],
      [
        "åıĤæķ°å¹¶",
        "åĬłç®Ģåįķ"
      ],
      [
        "åıĤæķ°å¹¶",
        "ä¿ĿæĮģ"
      ],
      [
        "å¹¶åģļ",
        "é¦ĸ"
      ],
      [
        "å¹¶åģļ",
        "åĽºå®ļæıĲç¤ºè¯į"
      ],
      [
        "CPUä¸Ĭ",
        "æĽ´æĺİæĺ¾"
      ],
      [
        "æ·±",
        "æĭ·è´Ŀ"
      ],
      [
        "éªĮè¯ģæįŁå¤±",
        "å¹¶åģļåĽºå®ļæıĲç¤ºè¯į"
      ],
      [
        "æłĩçĤ¹",
        "åĽŀéĢĢ"
      ],
      [
        "æ¸©åº¦",
        "å¯¹çĶŁæĪĲ"
      ],
      [
        "æ¸©åº¦",
        "è¶Ĭé«ĺ"
      ],
      [
        "éĢīæĭ©",
        "ç¨³å®ļæİ¨çĲĨ"
      ],
      [
        "éĤ»",
        "å±ħ"
      ],
      [
        "Client",
        "åıĳéĢģ"
      ],
      [
        "åµĮåħ¥",
        "ä¸İè¾ĵåĩºå±ĤæĿĥéĩį"
      ],
      [
        "ip",
        "t"
      ],
      [
        "oc",
        "k"
      ],
      [
        "åıĮ",
        "æĸ¹"
      ],
      [
        "åħĥ",
        "ç´ł"
      ],
      [
        "è¯Ħ",
        "ä¼°"
      ],
      [
        "éĿŀ",
        "çº¿æĢ§"
      ],
      [
        "è¿ĩå¤§",
        "ä¼ļåıĺæħ¢"
      ],
      [
        "å¾®",
        "éĩįå¤įæĥ©ç½"
      ],
      [
        "æķ°æį®ä¸İ",
        "åĪĨè¯į"
      ],
      [
        "æ¢¯åº¦ç´¯ç§¯",
        "ä¸İé¢ĦçĥŃ"
      ],
      [
        "å¸¸",
        "çĶ¨"
      ],
      [
        "è£ħ",
        "é¥°"
      ],
      [
        "æİ§åĪ¶è®Ńç»ĥæŃ¥",
        "æķ°"
      ],
      [
        "æģ",
        "¶æĦı"
      ],
      [
        "æ´»",
        "åĩ½æķ°"
      ],
      [
        "ç½®",
        "åĲĪéĢĤ"
      ],
      [
        "éĵ",
        "¾"
      ],
      [
        "æĺ¯ä¸Ģ",
        "ç§į"
      ],
      [
        "åĲ¯",
        "åĬ¨"
      ],
      [
        "ç»ı",
        "åħ¸"
      ],
      [
        "çĽ®",
        "æłĩä½ľä¸º"
      ],
      [
        "éĻį",
        "ä½İ"
      ],
      [
        "ä¿Ŀè¯ģ",
        "ç»ĵæŀľåı¯å¤įçİ°"
      ],
      [
        "æľĢåĲİ",
        "ä¸Ģä½į"
      ],
      [
        "åģľ",
        "æŃ¢è¯į"
      ],
      [
        "è½»",
        "å¾®éĩįå¤įæĥ©ç½"
      ],
      [
        "æľįåĬ¡å",
        "Ļ¨"
      ],
      [
        "å¯ĨéĽĨåŀĭ",
        "ä»»åĬ¡"
      ],
      [
        "èĬĤ",
        "çĤ¹"
      ],
      [
        "CS",
        "RF"
      ],
      [
        "Dr",
        "opou"
      ],
      [
        "cr",
        "ipt"
      ],
      [
        "feat",
        "ure"
      ],
      [
        "vie",
        "w"
      ],
      [
        "«éĢĲæŃ¥",
        "éĻįä½İ"
      ],
      [
        "æĤ",
        "²è§ĤéĶģ"
      ],
      [
        "æ¨¡æĿ",
        "¿"
      ],
      [
        "æ¿Ģ",
        "æ´»åĩ½æķ°"
      ],
      [
        "Ġfor",
        "cing"
      ],
      [
        "Ķæ¡Ī",
        "éĥ¨åĪĨè®¡ç®ĹæįŁå¤±"
      ],
      [
        "ļä¸İ",
        "åģľæŃ¢è¯į"
      ],
      [
        "Łå®ŀ",
        "çĽ®æłĩä½ľä¸º"
      ],
      [
        "ä¸īæ",
        "¬¡"
      ],
      [
        "æķĻåŃ¦",
        "æ¼Ķç¤ºä¸İåıĤæķ°"
      ],
      [
        "çļĦåŃ¦ä¹łçİĩä¸İ",
        "è°ĥåº¦"
      ],
      [
        "åĨ²ç",
        "ªģ"
      ],
      [
        "çĶ¨å°ıæ¨¡åŀĭ",
        "ä¸İçŁŃ"
      ],
      [
        "çĶ¨çľ",
        "Łå®ŀçĽ®æłĩä½ľä¸º"
      ],
      [
        "ä»Ģä¹Īæĺ¯teach",
        "er"
      ],
      [
        "æĽ´æį¢",
        "æķ°æį®æĪĸè¯į"
      ],
      [
        "æ³¨æĦıåĬĽå¤įæĿĤåº¦",
        "è¿ĳä¼¼å¹³"
      ],
      [
        "ä¸ĭä¸ĢæŃ¥",
        "è¾ĵåħ¥"
      ],
      [
        "ä¸İæķĪ",
        "çİĩæıĲåįĩ"
      ],
      [
        "åĬłåħ¥",
        "è½»å¾®éĩįå¤įæĥ©ç½"
      ],
      [
        "è¶Ĭä½İ",
        "è¶Ĭç¡®"
      ],
      [
        "è¶Ĭåıĳ",
        "æķ£"
      ],
      [
        "æĸ¹å¢ŀ",
        "éķ¿"
      ],
      [
        "æĸ¹ä¾¿",
        "æķĻåŃ¦æ¼Ķç¤ºä¸İåıĤæķ°"
      ],
      [
        "è®Ńç»ĥç¨³å®ļ",
        "ä¸İæķĪçİĩæıĲåįĩ"
      ],
      [
        "è®Ńç»ĥä¸Ńå¦Ĥä½ķ",
        "ä½¿çĶ¨"
      ],
      [
        "è®Ńç»ĥæĺ¯åĲ¦",
        "æĶ¶æķĽ"
      ],
      [
        "è®Ńç»ĥçļĦå°ı",
        "æĬĢå·§"
      ],
      [
        "å¦Ĥä½ķéªĮè¯ģ",
        "è®Ńç»ĥæĺ¯åĲ¦æĶ¶æķĽ"
      ],
      [
        "å¦Ĥä½ķè®¾",
        "ç½®åĲĪéĢĤ"
      ],
      [
        "å¦Ĥä½ķæıĲé«ĺ",
        "å°ıæ¨¡åŀĭçļĦè¯¾åłĤæ¼Ķç¤º"
      ],
      [
        "å¦Ĥä½ķéģ¿åħįéĩįå¤į",
        "çĶŁæĪĲæłĩçĤ¹"
      ],
      [
        "åħĪå°ı",
        "åĲİå¤§è¿Ľè¡Į"
      ],
      [
        "æľīåĬ©äºİ",
        "è®Ńç»ĥç¨³å®ļä¸İæķĪçİĩæıĲåįĩ"
      ],
      [
        "ç®Ģè¦ģè§£éĩĬ",
        "æ³¨æĦıåĬĽæľºåĪ¶çļĦä½ľçĶ¨"
      ],
      [
        "èĥ½æıĲé«ĺæķĪ",
        "çİĩ"
      ],
      [
        "ä¸ºä»Ģä¹Īåħ±äº«",
        "åµĮåħ¥ä¸İè¾ĵåĩºå±ĤæĿĥéĩį"
      ],
      [
        "ä¸ºä»Ģä¹ĪåºıåĪĹéķ¿åº¦",
        "è¿ĩå¤§ä¼ļåıĺæħ¢"
      ],
      [
        "çŃĸçķ",
        "¥"
      ],
      [
        "ä¾Ŀèµ",
        "ĸ"
      ],
      [
        "åľ¨è®Ńç»ĥæĹ¶",
        "çĶ¨çľŁå®ŀçĽ®æłĩä½ľä¸º"
      ],
      [
        "ä½İæ¸©",
        "ç¨³å®ļè¾ĵåĩº"
      ],
      [
        "è¡¨ä¸į",
        "æĶ¹ä»£çłģ"
      ],
      [
        "åĨįçĶ¨ä½Ļå¼¦",
        "éĢĢçģ"
      ],
      [
        "åŃ¦ä¹łçİĩæİ§åĪ¶",
        "æĽ´æĸ°æŃ¥éķ¿"
      ],
      [
        "ä¾¿äºİå¿«éĢŁ",
        "å®ŀéªĮä¸İè¯¾åłĤæ¼Ķç¤º"
      ],
      [
        "éĽĨçļĦä¸»",
        "è§Ĥæ£ĢæŁ¥"
      ],
      [
        "åºıåĪĹè¶Ĭéķ¿è®¡ç®Ĺè¶Ĭ",
        "éĩį"
      ],
      [
        "åĽºå®ļç§įåŃĲå¹¶å®ļæľŁ",
        "è¯Ħä¼°"
      ],
      [
        "èµĦæº",
        "Ĳ"
      ],
      [
        "åıªå¯¹çŃ",
        "Ķæ¡Īéĥ¨åĪĨè®¡ç®ĹæįŁå¤±"
      ],
      [
        "åħ±äº«æĿĥéĩįåĩıå°ĳ",
        "åıĤæķ°å¹¶ä¿ĿæĮģ"
      ],
      [
        "è¯¾åłĤæ¼Ķç¤ºå»ºè®®",
        "ä½İæ¸©ç¨³å®ļè¾ĵåĩº"
      ],
      [
        "äºĮåıīæĲľç´¢",
        "æłĳ"
      ],
      [
        "è§Ĥå¯Łè®Ńç»ĥä¸İ",
        "éªĮè¯ģæįŁå¤±å¹¶åģļåĽºå®ļæıĲç¤ºè¯į"
      ],
      [
        "ç»ĻåĩºCPUä¸Ĭ",
        "è®Ńç»ĥçļĦå°ıæĬĢå·§"
      ],
      [
        "ä¸İè¾ĵåĩºæ¸ħ",
        "çĲĨ"
      ],
      [
        "åĩĨå¤ĩé«ĺ",
        "è´¨éĩıå°ıæķ°æį®"
      ],
      [
        "ä¸ºä»Ģä¹Īè¦ģåĽºå®ļéļıæľº",
        "ç§įåŃĲ"
      ],
      [
        "åıĤæķ°å¹¶åĬłç®Ģåįķ",
        "åĲİå¤ĦçĲĨ"
      ],
      [
        "å¹¶åģļé¦ĸ",
        "æłĩçĤ¹åĽŀéĢĢ"
      ],
      [
        "æ¸©åº¦å¯¹çĶŁæĪĲ",
        "æľīä»Ģä¹Īå½±åĵį"
      ],
      [
        "æ¸©åº¦è¶Ĭé«ĺ",
        "è¶Ĭåıĳæķ£"
      ],
      [
        "éĢīæĭ©ç¨³å®ļæİ¨çĲĨ",
        "åıĤæķ°å¹¶åĬłç®ĢåįķåĲİå¤ĦçĲĨ"
      ],
      [
        "æķ°æį®ä¸İåĪĨè¯į",
        "ä¸ºä»Ģä¹Īè¦ģè§£èĢ¦"
      ],
      [
        "Dropou",
        "t"
      ],
      [
        "çĶ¨å°ıæ¨¡åŀĭä¸İçŁŃ",
        "åºıåĪĹ"
      ],
      [
        "æĽ´æį¢æķ°æį®æĪĸè¯į",
        "è¡¨ä¸įæĶ¹ä»£çłģ"
      ],
      [
        "æ³¨æĦıåĬĽå¤įæĿĤåº¦è¿ĳä¼¼å¹³",
        "æĸ¹å¢ŀéķ¿"
      ],
      [
        "åĬłåħ¥è½»å¾®éĩįå¤įæĥ©ç½",
        "ļä¸İåģľæŃ¢è¯į"
      ],
      [
        "è¶Ĭä½İè¶Ĭç¡®",
        "å®ļ"
      ],
      [
        "æĸ¹ä¾¿æķĻåŃ¦æ¼Ķç¤ºä¸İåıĤæķ°",
        "å¯¹æ¯Ķ"
      ],
      [
        "å¦Ĥä½ķè®¾ç½®åĲĪéĢĤ",
        "çļĦåŃ¦ä¹łçİĩä¸İè°ĥåº¦"
      ],
      [
        "å¦Ĥä½ķæıĲé«ĺå°ıæ¨¡åŀĭçļĦè¯¾åłĤæ¼Ķç¤º",
        "è´¨éĩı"
      ],
      [
        "å¦Ĥä½ķéģ¿åħįéĩįå¤įçĶŁæĪĲæłĩçĤ¹",
        "æĪĸè¯į"
      ],
      [
        "åħĪå°ıåĲİå¤§è¿Ľè¡Į",
        "é¢ĦçĥŃ"
      ],
      [
        "ä¸ºä»Ģä¹Īåħ±äº«åµĮåħ¥ä¸İè¾ĵåĩºå±ĤæĿĥéĩį",
        "èĥ½æıĲé«ĺæķĪçİĩ"
      ],
      [
        "åľ¨è®Ńç»ĥæĹ¶çĶ¨çľŁå®ŀçĽ®æłĩä½ľä¸º",
        "ä¸ĭä¸ĢæŃ¥è¾ĵåħ¥"
      ],
      [
        "åĨįçĶ¨ä½Ļå¼¦éĢĢçģ",
        "«éĢĲæŃ¥éĻįä½İ"
      ],
      [
        "åħ±äº«æĿĥéĩįåĩıå°ĳåıĤæķ°å¹¶ä¿ĿæĮģ",
        "è¡¨ç¤ºä¸Ģèĩ´æĢ§"
      ],
      [
        "è§Ĥå¯Łè®Ńç»ĥä¸İéªĮè¯ģæįŁå¤±å¹¶åģļåĽºå®ļæıĲç¤ºè¯į",
        "éĽĨçļĦä¸»è§Ĥæ£ĢæŁ¥"
      ],
      [
        "å¹¶åģļé¦ĸæłĩçĤ¹åĽŀéĢĢ",
        "ä¸İè¾ĵåĩºæ¸ħçĲĨ"
      ],
      [
        "!",
        "="
      ],
      [
        "'",
        ":"
      ],
      [
        ")",
        "ÃĹ"
      ],
      [
        "1",
        "2"
      ],
      [
        "A",
        "S"
      ],
      [
        "A",
        "va"
      ],
      [
        "B",
        "AS"
      ],
      [
        "C",
        "A"
      ],
      [
        "C",
        "o"
      ],
      [
        "D",
        "E"
      ],
      [
        "D",
        "ock"
      ],
      [
        "E",
        "ST"
      ],
      [
        "F",
        "lo"
      ],
      [
        "G",
        "I"
      ],
      [
        "H",
        "ub"
      ],
      [
        "L",
        "ET"
      ],
      [
        "L",
        "ID"
      ],
      [
        "P",
        "U"
      ],
      [
        "P",
        "o"
      ],
      [
        "P",
        "r"
      ],
      [
        "R",
        "e"
      ],
      [
        "R",
        "EST"
      ],
      [
        "S",
        "Y"
      ],
      [
        "T",
        "h"
      ],
      [
        "W",
        "rit"
      ],
      [
        "X",
        "SS"
      ],
      [
        "a",
        "b"
      ],
      [
        "a",
        "d"
      ],
      [
        "c",
        "or"
      ],
      [
        "d",
        "ic"
      ],
      [
        "e",
        "m"
      ],
      [
        "e",
        "p"
      ],
      [
        "e",
        "t"
      ],
      [
        "f",
        "t"
      ],
      [
        "i",
        "l"
      ],
      [
        "k",
        "ä»"
      ],
      [
        "k",
        "ä¸İ"
      ],
      [
        "k",
        "ä¸ª"
      ],
      [
        "l",
        "d"
      ],
      [
        "o",
        "k"
      ],
      [
        "o",
        "l"
      ],
      [
        "p",
        "ä¿ĿçķĻ"
      ],
      [
        "p",
        "éĩĩ"
      ],
      [
        "q",
        "ueue"
      ],
      [
        "s",
        "e"
      ],
      [
        "s",
        "s"
      ],
      [
        "s",
        "cript"
      ],
      [
        "t",
        "ion"
      ],
      [
        "y",
        "er"
      ],
      [
        "y",
        "ie"
      ],
      [
        "¢",
        "«"
      ],
      [
        "¥",
        "æ"
      ],
      [
        "¥",
        "åįı"
      ],
      [
        "¦",
        "¥åįı"
      ],
      [
        "¨",
        "ç«Ļ"
      ],
      [
        "ª",
        "çİ¯"
      ],
      [
        "¬",
        "¡æ"
      ],
      [
        "¯",
        "ä¸Ģ"
      ],
      [
        "°",
        "åĿ"
      ],
      [
        "´",
        "æĺİ"
      ],
      [
        "¶",
        "Ī"
      ],
      [
        "º",
        "«"
      ],
      [
        "»",
        "å½ķ"
      ],
      [
        "¼",
        "Ģ"
      ],
      [
        "¼",
        "é¡"
      ],
      [
        "½",
        "åĿĩ"
      ],
      [
        "¾",
        "éĢŁåº¦"
      ],
      [
        "¾",
        "åĽŀæĶ¶"
      ],
      [
        "¿",
        "æį¢"
      ],
      [
        "¿",
        "è¿ĺ"
      ],
      [
        "¿",
        "åº¦ä¼ĺåħĪæĲľç´¢"
      ],
      [
        "Ã",
        "·"
      ],
      [
        "â",
        "ī"
      ],
      [
        "å",
        "Ķ"
      ],
      [
        "å",
        "ŀ"
      ],
      [
        "å",
        "¦¥åįı"
      ],
      [
        "æ",
        "ģ¯"
      ],
      [
        "æ",
        "¬¡æ"
      ],
      [
        "æ",
        "¶Ī"
      ],
      [
        "ç",
        "¥"
      ],
      [
        "è",
        "¢«"
      ],
      [
        "è",
        "º«"
      ],
      [
        "é",
        "£"
      ],
      [
        "Ġ",
        "/"
      ],
      [
        "Ġ",
        "2"
      ],
      [
        "Ġ",
        "4"
      ],
      [
        "Ġ",
        "âĢ"
      ],
      [
        "Ġ",
        "Flo"
      ],
      [
        "Ģ",
        "å°ı"
      ],
      [
        "Ģ",
        "æ³ķ"
      ],
      [
        "ĥ",
        "åľ"
      ],
      [
        "ħ",
        "åĨ"
      ],
      [
        "ħ",
        "è¦ģ"
      ],
      [
        "ħ",
        "ä¿ĿçķĻ"
      ],
      [
        "ĩ",
        "è®¾"
      ],
      [
        "ĩ",
        "è®Ńç»ĥä¸İ"
      ],
      [
        "Ī",
        "Ĳ"
      ],
      [
        "Ī",
        "åĻ¨"
      ],
      [
        "Ī",
        "åĢ¼"
      ],
      [
        "ĭ",
        "è½¬"
      ],
      [
        "ĭ",
        "éĹ´"
      ],
      [
        "Į",
        "åħ¨"
      ],
      [
        "Į",
        "¥æ"
      ],
      [
        "ı",
        "è§"
      ],
      [
        "Ĳ",
        "è¡Į"
      ],
      [
        "ķ",
        "è¿ĩ"
      ],
      [
        "Ĺ",
        "éķ¿"
      ],
      [
        "Ĺ",
        "éĻĲ"
      ],
      [
        "Ĺ",
        "ĭè½¬"
      ],
      [
        "Ļ",
        "»å½ķ"
      ],
      [
        "Ľ",
        "¿æį¢"
      ],
      [
        "Ľ",
        "æ¬¡æ"
      ],
      [
        "Ŀ",
        "Ĺ"
      ],
      [
        "Ŀ",
        "æĥ³"
      ],
      [
        "Ł",
        "åĲĪ"
      ],
      [
        "Ł",
        "è½"
      ],
      [
        "ł",
        "Ī"
      ],
      [
        "ä¸",
        "²"
      ],
      [
        "çĶ¨æ",
        "Ľ´"
      ],
      [
        "çĶ¨æ",
        "ĺ¯"
      ],
      [
        "çĶ¨æ",
        "Ĺĭè½¬"
      ],
      [
        "çĶ¨æ",
        "łĪ"
      ],
      [
        "çĶ¨æĪ·",
        "è®¿éĹ®"
      ],
      [
        "åı",
        "£"
      ],
      [
        "åı",
        "ĹéĻĲ"
      ],
      [
        "åĪ",
        "Ĵ"
      ],
      [
        "ä»",
        "·"
      ],
      [
        "ä»",
        "ĺ"
      ],
      [
        "åħ",
        "¬"
      ],
      [
        "åħ",
        "·"
      ],
      [
        "åħ",
        "¼é¡"
      ],
      [
        "éĢ",
        "ł"
      ],
      [
        "è®",
        "¤"
      ],
      [
        "ä¹",
        "°"
      ],
      [
        "ä¹",
        "ħ"
      ],
      [
        "ä¹",
        "ĭéĹ´"
      ],
      [
        "æĺ¯",
        "ä»Ģä¹Ī"
      ],
      [
        "æĺ¯",
        "ä¸ºäºĨ"
      ],
      [
        "æĺ¯",
        "è·"
      ],
      [
        "æĺ¯",
        "å®¹åĻ¨"
      ],
      [
        "è¯",
        "Ĩ"
      ],
      [
        "è¯",
        "´æĺİ"
      ],
      [
        "įç",
        "¼Ģ"
      ],
      [
        "ä¹Ī",
        "åħ¨"
      ],
      [
        "æ³",
        "¨æĦı"
      ],
      [
        "çļĦ",
        "æ¢¯åº¦"
      ],
      [
        "çļĦ",
        "ä»£çłģ"
      ],
      [
        "çļĦ",
        "æıĲç¤ºè¯į"
      ],
      [
        "çļĦ",
        "éĢŁåº¦"
      ],
      [
        "çļĦ",
        "éĽĨåĲĪ"
      ],
      [
        "çļĦ",
        "æł¸å¿ĥ"
      ],
      [
        "çļĦ",
        "kä¸ª"
      ],
      [
        "çļĦ",
        "å¦¥åįı"
      ],
      [
        "è¿",
        "Ĳè¡Į"
      ],
      [
        "æľ",
        "ª"
      ],
      [
        "åĨ",
        "Ĺéķ¿"
      ],
      [
        "ç»",
        "ľ"
      ],
      [
        "ç»",
        "Ń"
      ],
      [
        "ç»",
        "ĩè®Ńç»ĥä¸İ"
      ],
      [
        "ç»",
        "ķè¿ĩ"
      ],
      [
        "è§",
        "ģ"
      ],
      [
        "éĢļ",
        "å°"
      ],
      [
        "æķ°",
        "éĩı"
      ],
      [
        "æķ°",
        "åģļ"
      ],
      [
        "æķ°",
        "ç»Ħ"
      ],
      [
        "äº",
        "§"
      ],
      [
        "äº",
        "º"
      ],
      [
        "Ľ´",
        "æĸ°"
      ],
      [
        "Ľ´",
        "ç»Ļ"
      ],
      [
        "ä»Ģä¹Īæĺ¯",
        "TCP"
      ],
      [
        "ä»Ģä¹Īæĺ¯",
        "æ¢¯åº¦è£ģåīª"
      ],
      [
        "æĽ´",
        "ç®Ģåįķ"
      ],
      [
        "åŃĲ",
        "æłĳ"
      ],
      [
        "å®",
        "¡æ"
      ],
      [
        "å®",
        "Įåħ¨"
      ],
      [
        "ï¼ī",
        "ï¼Į"
      ],
      [
        "åħ³",
        "éĹŃ"
      ],
      [
        "æĬ",
        "¤"
      ],
      [
        "è®¡",
        "æ¦Ĥçİĩ"
      ],
      [
        "ä¸ĭ",
        "å¢ŀ"
      ],
      [
        "éĢļä¿Ĺ",
        "çļĦæıĲç¤ºè¯į"
      ],
      [
        "ıæ",
        "¬¡"
      ],
      [
        "ä¸İ",
        "æĶ¶æķĽ"
      ],
      [
        "ä¸İ",
        "La"
      ],
      [
        "ä¸İ",
        "è¶ħ"
      ],
      [
        "æĬĬ",
        "çº¿æĢ§"
      ],
      [
        "çĲĨ",
        "è®º"
      ],
      [
        "åĩ",
        "ıæŃ¥"
      ],
      [
        "å®ļ",
        "ä½į"
      ],
      [
        "å®ļ",
        "ä¹ī"
      ],
      [
        "ä¸º",
        "ä½İ"
      ],
      [
        "æĿ",
        "¥"
      ],
      [
        "è®¡ç®Ĺ",
        "æľº"
      ],
      [
        "è®¡ç®Ĺ",
        "å¼Ģ"
      ],
      [
        "åıĤ",
        "çĶ±"
      ],
      [
        "åĪĨ",
        "è§£"
      ],
      [
        "åĪĨ",
        "ä¸º"
      ],
      [
        "åĪĨ",
        "åĮº"
      ],
      [
        "åĪĨ",
        "ç±»"
      ],
      [
        "è¦ģ",
        "ç´ł"
      ],
      [
        "è¦ģ",
        "ä¹Īåħ¨"
      ],
      [
        "åĮ",
        "ħ"
      ],
      [
        "è´",
        "Łè½"
      ],
      [
        "åĽ",
        "¾"
      ],
      [
        "åĽ",
        "Ľæ¬¡æ"
      ],
      [
        "ä¸Ģ",
        "ç®¡çĲĨ"
      ],
      [
        "æ¯",
        "ıæ¬¡"
      ],
      [
        "æĢ",
        "Ŀæĥ³"
      ],
      [
        "åĪĹ",
        "è¡¨"
      ],
      [
        "å¤§",
        "äºİ"
      ],
      [
        "å¤§",
        "éĹ®é¢ĺ"
      ],
      [
        "å¤§",
        "æľīæķĪ"
      ],
      [
        "ç³»",
        "ç»Ł"
      ],
      [
        "åı¯",
        "èĥ½"
      ],
      [
        "è¶Ĭ",
        "å°ı"
      ],
      [
        "è¿ĩ",
        "å¤ļ"
      ],
      [
        "è¿ĩ",
        "æĭ"
      ],
      [
        "æĸ¹",
        "å¼ı"
      ],
      [
        "å¿",
        "µ"
      ],
      [
        "å¿",
        "ħè¦ģ"
      ],
      [
        "æı",
        "¡æ"
      ],
      [
        "è®Ńç»ĥ",
        "éĹ®é¢ĺ"
      ],
      [
        "å¦Ĥä½ķ",
        "ç»Ħ"
      ],
      [
        "å¦Ĥä½ķ",
        "è®¾è®¡"
      ],
      [
        "å¦Ĥä½ķ",
        "æİ§åĪ¶è®Ńç»ĥæŃ¥"
      ],
      [
        "å¦Ĥä½ķ",
        "åĪ¤æĸŃ"
      ],
      [
        "åħĪ",
        "åĩº"
      ],
      [
        "ä½įç½®ç¼ĸçłģ",
        "çļĦæł¸å¿ĥ"
      ],
      [
        "éĩı",
        "å½Ĵä¸ĢåĮĸ"
      ],
      [
        "æľī",
        "åºı"
      ],
      [
        "æľī",
        "ä¸¤ä¸ª"
      ],
      [
        "è¯¾åłĤ",
        "ä¸Ńå¦Ĥä½ķ"
      ],
      [
        "å¾",
        "ħ"
      ],
      [
        "å¾",
        "ªçİ¯"
      ],
      [
        "er",
        "s"
      ],
      [
        "èĥ½",
        "è¢«"
      ],
      [
        "å¹",
        "¿åº¦ä¼ĺåħĪæĲľç´¢"
      ],
      [
        "éĶ",
        "Ģå°ı"
      ],
      [
        "ç§",
        "įç"
      ],
      [
        "çĽ",
        "ĺ"
      ],
      [
        "éĢĤ",
        "çĶ¨äºİ"
      ],
      [
        "å°ı",
        "éĹ®é¢ĺ"
      ],
      [
        "ä¸ºä»Ģä¹Ī",
        "æ¢¯åº¦"
      ],
      [
        "è¿Ľ",
        "åħĪåĩº"
      ],
      [
        "äºİ",
        "äºĮè¿ĽåĪ¶"
      ],
      [
        "åıĤæķ°",
        "æĽ´æĸ°"
      ],
      [
        "æ¯Ķ",
        "çī¹"
      ],
      [
        "çĲĨè§£",
        "èĢ¦"
      ],
      [
        "ä¸Ń",
        "åºı"
      ],
      [
        "ä½ľ",
        "çĶ¨"
      ],
      [
        "Norm",
        "çļĦåĮºåĪ«"
      ],
      [
        "åľ",
        "°åĿ"
      ],
      [
        "é«ĺ",
        "çļĦkä¸ª"
      ],
      [
        "ä¿Ŀ",
        "æĬ¤"
      ],
      [
        "éĥ",
        "¨æ"
      ],
      [
        "æľĢ",
        "å¤§"
      ],
      [
        "æľĢ",
        "çŁŃ"
      ],
      [
        "æľĢ",
        "ç»Ī"
      ],
      [
        "æľĢ",
        "é«ĺçļĦkä¸ª"
      ],
      [
        "éĢĤåĲĪ",
        "CPU"
      ],
      [
        "çŃ",
        "Ķç"
      ],
      [
        "å¹¶",
        "æİĴåºı"
      ],
      [
        "RoPE",
        "çĶ¨æĹĭè½¬"
      ],
      [
        "RMSNorm",
        "ä¸İLa"
      ],
      [
        "åĪ°",
        "çĶŁ"
      ],
      [
        "åĪ°",
        "è¾¾"
      ],
      [
        "å·",
        "±"
      ],
      [
        "å·",
        "²"
      ],
      [
        "åģ",
        "¿è¿ĺ"
      ],
      [
        "åģ",
        "ĩè®¾"
      ],
      [
        "åĿ",
        "ı"
      ],
      [
        "éĺ",
        "¶"
      ],
      [
        "éĺ",
        "ĪåĢ¼"
      ],
      [
        "å¤į",
        "åĪ¶"
      ],
      [
        "åľ¨",
        "åĩ½æķ°"
      ],
      [
        "åľ¨",
        "åıĹéĻĲ"
      ],
      [
        "æĮ",
        "ī"
      ],
      [
        "åĨħ",
        "éĥ¨"
      ],
      [
        "è¡¨",
        "è¾¾"
      ],
      [
        "CPU",
        "å¯ĨéĽĨåŀĭä»»åĬ¡"
      ],
      [
        "åĽŀ",
        "æº"
      ],
      [
        "åĽŀ",
        "çŃĶç"
      ],
      [
        "éĹ®é¢ĺ",
        "çļĦ"
      ],
      [
        "éĹ®é¢ĺ",
        "æ¸ħ"
      ],
      [
        "¢¯åº¦",
        "è£ģåīª"
      ],
      [
        "åĨį",
        "æŁ¥"
      ],
      [
        "åĨį",
        "è®¿éĹ®"
      ],
      [
        "æİ¨",
        "çĲĨè§£èĢ¦"
      ],
      [
        "ä¼ĺ",
        "çĤ¹"
      ],
      [
        "ç»ĵæŀĦ",
        "æĽ´ç®Ģåįķ"
      ],
      [
        "æ¢¯åº¦",
        "å¤§å°ı"
      ],
      [
        "æ¢¯åº¦",
        "çĪĨçĤ¸"
      ],
      [
        "æıĲåįĩ",
        "ç¨³å®ļæĢ§"
      ],
      [
        "åĨħåŃĺ",
        "ä¸ĭå¢ŀ"
      ],
      [
        "en",
        "cy"
      ],
      [
        "ä¸į",
        "åĩı"
      ],
      [
        "ä¸į",
        "éĢļå°"
      ],
      [
        "ä¼ļ",
        "çĪĨçĤ¸"
      ],
      [
        "èĩª",
        "å·±"
      ],
      [
        "æİ¨çĲĨ",
        "æĽ´å¿«"
      ],
      [
        "æİ¨çĲĨ",
        "çļĦä»£çłģ"
      ],
      [
        "æµ",
        "ıè§"
      ],
      [
        "è½",
        "¯"
      ],
      [
        "çļĦä½ľ",
        "çĶ¨æĺ¯"
      ],
      [
        "æİĴ",
        "åĪĹ"
      ],
      [
        "çŃī",
        "å¾ħ"
      ],
      [
        "çŃī",
        "äºİäºĮè¿ĽåĪ¶"
      ],
      [
        "åī",
        "įç¼Ģ"
      ],
      [
        "åŃ¦ä¹łçİĩ",
        "æľīä»Ģä¹Ī"
      ],
      [
        "æİ¥",
        "åı£"
      ],
      [
        "æįŁå¤±",
        "è¶Ĭå°ı"
      ],
      [
        "çĽ¸å¯¹",
        "ä½įç½®ç¼ĸçłģçļĦæł¸å¿ĥ"
      ],
      [
        "æĹ¶",
        "åĩıæŃ¥"
      ],
      [
        "ä»£çłģ",
        "æıĲäº¤"
      ],
      [
        "ä»£çłģ",
        "å®¡æ"
      ],
      [
        "åĬ¨æĢģ",
        "è§Ħ"
      ],
      [
        "éĽĨ",
        "æĪĲ"
      ],
      [
        "å¤ļ",
        "çº¿ç¨ĭ"
      ],
      [
        "æĸĩ",
        "æľ¬"
      ],
      [
        "æł·",
        "æľīä»Ģä¹Ī"
      ],
      [
        "åįł",
        "çĶ¨æĽ´"
      ],
      [
        "st",
        "art"
      ],
      [
        "åĨ³å®ļ",
        "åıĤæķ°æĽ´æĸ°"
      ],
      [
        "è§£éĩĬRoPE",
        "çĽ¸å¯¹ä½įç½®ç¼ĸçłģçļĦæł¸å¿ĥ"
      ],
      [
        "åħĪçľĭ",
        "æķ°æį®ä¸İ"
      ],
      [
        "åİĭ",
        "ç¼©"
      ],
      [
        "å½Ĵ",
        "å¹¶æİĴåºı"
      ],
      [
        "åĬ¨æĢģéĩıåĮĸ",
        "æľīä»Ģä¹Ī"
      ],
      [
        "RMSNormçĶ¨åĿĩæĸ¹æł¹",
        "ç¼©æĶ¾"
      ],
      [
        "ä¿ĿçķĻä½įåºıåħ³ç³»ä¸Ķ",
        "è®¡ç®Ĺå¼Ģ"
      ],
      [
        "at",
        "or"
      ],
      [
        "at",
        "ion"
      ],
      [
        "re",
        "view"
      ],
      [
        "re",
        "ad"
      ],
      [
        "ç®Ĺæ³ķ",
        "è¦ģ"
      ],
      [
        "å¼Ģ",
        "æĶ¾"
      ],
      [
        "å¿«éĢŁ",
        "éªĮè¯ģ"
      ],
      [
        "å¿«éĢŁ",
        "æİĴåºı"
      ],
      [
        "å¿«éĢŁ",
        "å®ļä½į"
      ],
      [
        "è°ĥ",
        "æķ´"
      ],
      [
        "Python",
        "ä¸Ńå¦Ĥä½ķ"
      ],
      [
        "å±",
        "ķ"
      ],
      [
        "æ±Ĥ",
        "è§£"
      ],
      [
        "æ±Ĥ",
        "åĴĮ"
      ],
      [
        "éĢĢ",
        "åĮĸ"
      ],
      [
        "æİĴåºı",
        "ç®Ĺæ³ķ"
      ],
      [
        "åĢ¼",
        "è¿ĩå¤§"
      ],
      [
        "çĶŁæĪĲ",
        "åĻ¨"
      ],
      [
        "si",
        "on"
      ],
      [
        "æĥ",
        "ħåĨ"
      ],
      [
        "ç¡®",
        "æĢ§"
      ],
      [
        "ç¡®",
        "è®¤"
      ],
      [
        "äº¤",
        "ä»ĺ"
      ],
      [
        "ä¸Ģä¸ª",
        "éĢļä¿ĹçļĦæıĲç¤ºè¯į"
      ],
      [
        "ç´¯",
        "è®¡æ¦Ĥçİĩ"
      ],
      [
        "50",
        "50"
      ],
      [
        "de",
        "cor"
      ],
      [
        "çī¹",
        "æĢ§"
      ],
      [
        "å°Ĩ",
        "å¤§éĹ®é¢ĺ"
      ],
      [
        "é¢Ħ",
        "æµĭ"
      ],
      [
        "ä½¿çĶ¨æ",
        "¢¯åº¦è£ģåīª"
      ],
      [
        "æĮģ",
        "ä¹ħ"
      ],
      [
        "æĮģ",
        "ç»Ń"
      ],
      [
        "éĢīæĭ",
        "©æ"
      ],
      [
        "ç±»",
        "åŀĭ"
      ],
      [
        "äºĮè¿ĽåĪ¶",
        "è½¬"
      ],
      [
        "è¿ŀæİ¥",
        "éľĢè¦ģ"
      ],
      [
        "ç´¯ç§¯",
        "çļĦæ¢¯åº¦"
      ],
      [
        "AP",
        "I"
      ],
      [
        "æ®",
        "Ĭ"
      ],
      [
        "æ¨¡å",
        "ĿĹ"
      ],
      [
        "æ¦Ĥ",
        "å¿µ"
      ],
      [
        "ä¸»",
        "è¦ģ"
      ],
      [
        "ä»»",
        "æĦı"
      ],
      [
        "è¿ĺ",
        "æľī"
      ],
      [
        "åĲĳ",
        "éĩı"
      ],
      [
        "æŀĦ",
        "å»º"
      ],
      [
        "éĹ´",
        "å¤įæĿĤåº¦"
      ],
      [
        "è¾¾",
        "éĺĪåĢ¼"
      ],
      [
        "éħįç½®",
        "ç»Ł"
      ],
      [
        "ä¼ĺåħĪ",
        "çº§"
      ],
      [
        "æ·±",
        "åº¦ä¼ĺåħĪæĲľç´¢"
      ],
      [
        "è®¾è®¡",
        "æ¨¡å¼ı"
      ],
      [
        "éĤ»",
        "æİ¥"
      ],
      [
        "éģ¿åħį",
        "åĨĹéķ¿"
      ],
      [
        "Git",
        "Hub"
      ],
      [
        "SQL",
        "æ³¨åħ¥"
      ],
      [
        "oc",
        "es"
      ],
      [
        "æķ´",
        "éĻ¤"
      ],
      [
        "åįı",
        "è®®"
      ],
      [
        "æīĢæľī",
        "èĬĤçĤ¹"
      ],
      [
        "åĿĩ",
        "åĢ¼"
      ],
      [
        "æĹł",
        "çĬ¶æĢģ"
      ],
      [
        "ä¼ĺåĮĸ",
        "åĻ¨"
      ],
      [
        "ä¼ĺåĮĸ",
        "åĻ¨æ"
      ],
      [
        "æ¢¯åº¦ç´¯ç§¯",
        "çļĦä½ľçĶ¨æĺ¯"
      ],
      [
        "åŃ¦ä¹łçİĩä¸İ",
        "æī¹å¤§å°ı"
      ],
      [
        "å¸¸",
        "è§ģ"
      ],
      [
        "ing",
        "æ¨¡åĿĹ"
      ],
      [
        "å±ĤæĿĥéĩį",
        "åİĭç¼©"
      ],
      [
        "è£ħ",
        "æĪĲ"
      ],
      [
        "æľįåĬ¡",
        "åıĳçİ°"
      ],
      [
        "..",
        "."
      ],
      [
        "FI",
        "N"
      ],
      [
        "FI",
        "FO"
      ],
      [
        "al",
        "ly"
      ],
      [
        "us",
        "ers"
      ],
      [
        "âĢ",
        "ľ"
      ],
      [
        "æĻ",
        "°"
      ],
      [
        "éĩĩ",
        "çĶ¨"
      ],
      [
        "åįģè¿ĽåĪ¶",
        "çļĦ"
      ],
      [
        "åĻ¨æ",
        "ĺ¯"
      ],
      [
        "æ¢¯åº¦è£ģåīª",
        "éĻĲåĪ¶"
      ],
      [
        "ç½ĳ",
        "ç«Ļ"
      ],
      [
        "ç½ĳ",
        "ç»ľ"
      ],
      [
        "åħ¨å±Ģ",
        "æľĢä¼ĺ"
      ],
      [
        "èµ°",
        "ä¸įéĢļå°"
      ],
      [
        "è°ĥçĶ¨",
        "èĩªå·±"
      ],
      [
        "éĥ½æĺ¯",
        "O"
      ],
      [
        "æĬĢæľ¯",
        "åĢº"
      ],
      [
        "æ¦Ĥçİĩ",
        "æľĢé«ĺçļĦkä¸ª"
      ],
      [
        "æł¸å¿ĥ",
        "æ¦Ĥå¿µ"
      ],
      [
        "Server",
        "åĽŀå¤į"
      ],
      [
        "è·¯å¾Ħ",
        "ä¸İè¶ħ"
      ],
      [
        "çĭ¬ç«ĭ",
        "å¼Ģåıĳ"
      ],
      [
        "åŁº",
        "ä¾ĭ"
      ],
      [
        "åĪĨå¸ĥå¼ı",
        "äºĭåĬ¡"
      ],
      [
        "åĵĪå¸Į",
        "è¡¨"
      ],
      [
        "Con",
        "sist"
      ],
      [
        "SO",
        "LID"
      ],
      [
        "fu",
        "nc"
      ],
      [
        "æ»",
        "¡"
      ],
      [
        "çĦ",
        "¶"
      ],
      [
        "è¯Ń",
        "æ³ķ"
      ],
      [
        "çļĦæķ°æį®",
        "ç»ĵæŀĦ"
      ],
      [
        "å°ģ",
        "è£ħæĪĲ"
      ],
      [
        "å¯¼",
        "èĩ´"
      ],
      [
        "æł¼",
        "å¼ı"
      ],
      [
        "è´ªå¿ĥ",
        "ç®Ĺæ³ķ"
      ],
      [
        "åĽł",
        "ä¸º"
      ],
      [
        "åı¯åıĺ",
        "çļĦ"
      ],
      [
        "å¦Ĥä½ķéĺ²æŃ¢",
        "æ¢¯åº¦çĪĨçĤ¸"
      ],
      [
        "éĶĻ",
        "è¯¯"
      ],
      [
        "åŃĺåĤ",
        "¨"
      ],
      [
        "æī©",
        "å±ķ"
      ],
      [
        "ä¸įæĺ¯",
        "è´¨æķ°"
      ],
      [
        "æİ¥æĶ¶",
        "ä»»æĦı"
      ],
      [
        "æ®ĭå·®",
        "è¿ŀæİ¥"
      ],
      [
        "åıĮæĸ¹",
        "éĥ½"
      ],
      [
        "è£ħé¥°",
        "åĻ¨"
      ],
      [
        "éĵ¾",
        "è¡¨"
      ],
      [
        "ç»ıåħ¸",
        "éĹ®é¢ĺ"
      ],
      [
        "æľĢåĲİä¸Ģä½į",
        "æĺ¯"
      ],
      [
        "ä¸īæ¬¡",
        "æı¡æ"
      ],
      [
        "12",
        "3"
      ],
      [
        "Ava",
        "il"
      ],
      [
        "BAS",
        "E"
      ],
      [
        "DE",
        "LET"
      ],
      [
        "Dock",
        "er"
      ],
      [
        "GI",
        "L"
      ],
      [
        "PU",
        "T"
      ],
      [
        "SY",
        "N"
      ],
      [
        "Writ",
        "e"
      ],
      [
        "dic",
        "t"
      ],
      [
        "kä»",
        "ħä¿ĿçķĻ"
      ],
      [
        "kä¸İ",
        "top"
      ],
      [
        "pä¿ĿçķĻ",
        "ç´¯è®¡æ¦Ĥçİĩ"
      ],
      [
        "péĩĩ",
        "æł·æľīä»Ģä¹Ī"
      ],
      [
        "yer",
        "NormçļĦåĮºåĪ«"
      ],
      [
        "yie",
        "ld"
      ],
      [
        "½åĿĩ",
        "è¡¡"
      ],
      [
        "¾éĢŁåº¦",
        "ä¸İæĶ¶æķĽ"
      ],
      [
        "åĶ",
        "¯ä¸Ģ"
      ],
      [
        "åŀ",
        "ĥåľ"
      ],
      [
        "æģ¯",
        "éĺŁåĪĹ"
      ],
      [
        "æ¶Ī",
        "æģ¯éĺŁåĪĹ"
      ],
      [
        "ĠâĢ",
        "Ŀ"
      ],
      [
        "ĠFlo",
        "w"
      ],
      [
        "Į¥æ",
        "īĭ"
      ],
      [
        "åħ¼é¡",
        "¾éĢŁåº¦ä¸İæĶ¶æķĽ"
      ],
      [
        "æĺ¯è·",
        "¨ç«Ļ"
      ],
      [
        "è¯´æĺİ",
        "RMSNormä¸İLa"
      ],
      [
        "ç»ĩè®Ńç»ĥä¸İ",
        "æİ¨çĲĨçļĦä»£çłģ"
      ],
      [
        "æķ°éĩı",
        "çļĦ"
      ],
      [
        "æķ°åģļ",
        "å¿«éĢŁéªĮè¯ģ"
      ],
      [
        "åŃĲæłĳ",
        "æīĢæľīèĬĤçĤ¹"
      ],
      [
        "å®Įåħ¨",
        "äºĮåıīæłĳ"
      ],
      [
        "æĬĬçº¿æĢ§",
        "å±ĤæĿĥéĩįåİĭç¼©"
      ],
      [
        "ä¸ºä½İ",
        "æ¯Ķçī¹"
      ],
      [
        "åıĤçĶ±",
        "éħįç½®ç»Ł"
      ],
      [
        "è´Łè½",
        "½åĿĩè¡¡"
      ],
      [
        "åĽĽæ¬¡æ",
        "Į¥æīĭ"
      ],
      [
        "å¤§æľīæķĪ",
        "æī¹å¤§å°ı"
      ],
      [
        "åı¯èĥ½",
        "çļĦ"
      ],
      [
        "è¿ĩæĭ",
        "ŁåĲĪ"
      ],
      [
        "æĸ¹å¼ı",
        "æĬĬçĽ¸å¯¹ä½įç½®ä¿¡æģ¯æ³¨åħ¥æ³¨æĦıåĬĽ"
      ],
      [
        "å¿ħè¦ģ",
        "æĹ¶åĩıæŃ¥"
      ],
      [
        "å¦Ĥä½ķç»Ħ",
        "ç»ĩè®Ńç»ĥä¸İæİ¨çĲĨçļĦä»£çłģ"
      ],
      [
        "å¦Ĥä½ķè®¾è®¡",
        "ä¸Ģä¸ªéĢļä¿ĹçļĦæıĲç¤ºè¯į"
[...]
